{
  "vocab": {
    "<pad>": 0,
    "<unk>": 1,
    "<bos>": 2,
    "<eos>": 3,
    "ai</w>": 4,
    "am</w>": 5,
    "an</w>": 6,
    "are</w>": 7,
    "birds</w>": 8,
    "cat</w>": 9,
    "cats</w>": 10,
    "dog</w>": 11,
    "dogs</w>": 12,
    "fish</w>": 13,
    "fly</w>": 14,
    "fun</w>": 15,
    "good</w>": 16,
    "hello</w>": 17,
    "hi</w>": 18,
    "i</w>": 19,
    "in</w>": 20,
    "is</w>": 21,
    "learn</w>": 22,
    "learning</w>": 23,
    "like</w>": 24,
    "likes</w>": 25,
    "love</w>": 26,
    "love?</w>": 27,
    "meat</w>": 28,
    "morning</w>": 29,
    "my</w>": 30,
    "name</w>": 31,
    "name?</w>": 32,
    "night</w>": 33,
    "sara</w>": 34,
    "sky</w>": 35,
    "smart</w>": 36,
    "swim</w>": 37,
    "the</w>": 38,
    "there</w>": 39,
    "thinking</w>": 40,
    "to</w>": 41,
    "water</w>": 42,
    "what</w>": 43,
    "who</w>": 44,
    "world</w>": 45,
    "you?</w>": 46,
    "your</w>": 47,
    "0</w>": 4,
    "1</w>": 5,
    "action</w>": 6,
    "activate</w>": 7,
    "answer</w>": 8,
    "author</w>": 9,
    "blue</w>": 10,
    "chunk</w>": 11,
    "code</w>": 12,
    "confidential</w>": 13,
    "does</w>": 14,
    "done</w>": 15,
    "dream</w>": 16,
    "error</w>": 17,
    "fail</w>": 18,
    "final</w>": 19,
    "find</w>": 20,
    "found</w>": 21,
    "how</w>": 22,
    "information</w>": 23,
    "it</w>": 24,
    "keyword</w>": 25,
    "master</w>": 26,
    "matches</w>": 27,
    "mode</w>": 28,
    "no</w>": 29,
    "ocean</w>": 30,
    "override</w>": 31,
    "password</w>": 32,
    "query</w>": 33,
    "read</w>": 34,
    "result</w>": 35,
    "search</w>": 36,
    "security</w>": 37,
    "specifications</w>": 38,
    "success</w>": 39,
    "target</w>": 40,
    "timeout</w>": 41,
    "unable</w>": 42,
    "when</w>": 43,
    "where</w>": 44,
    "work</w>": 45,
    "2</w>": 4,
    "easter</w>": 5,
    "egg</w>": 6,
    "hours</w>": 7,
    "section</w>": 8
  },
  "merges": {
    "s </w>": "s</w>",
    "a r": "ar",
    "e </w>": "e</w>",
    "i </w>": "i</w>",
    "i n": "in",
    "t </w>": "t</w>",
    "i s</w>": "is</w>",
    "l o": "lo",
    "s ar": "sar",
    "sar a": "sara",
    "sara </w>": "sara</w>",
    "l i": "li",
    "li k": "lik",
    "d </w>": "d</w>",
    "t h": "th",
    "g </w>": "g</w>",
    "a m": "am",
    "a t</w>": "at</w>",
    "g o": "go",
    "go o": "goo",
    "goo d</w>": "good</w>",
    "in g</w>": "ing</w>",
    "w h": "wh",
    "? </w>": "?</w>",
    "n </w>": "n</w>",
    "y </w>": "y</w>",
    "lik e": "like",
    "like s</w>": "likes</w>",
    "lo v": "lov",
    "h e": "he",
    "he l": "hel",
    "hel lo": "hello",
    "hello </w>": "hello</w>",
    "o r": "or",
    "e r": "er",
    "n ing</w>": "ning</w>",
    "o </w>": "o</w>",
    "y o": "yo",
    "yo u": "you",
    "am </w>": "am</w>",
    "wh at</w>": "what</w>",
    "n am": "nam",
    "e ?</w>": "e?</w>",
    "l e": "le",
    "le ar": "lear",
    "th e</w>": "the</w>",
    "f i": "fi",
    "fi s": "fis",
    "fis h": "fish",
    "fish </w>": "fish</w>",
    "d o": "do",
    "in </w>": "in</w>",
    "a t": "at",
    "lik e</w>": "like</w>",
    "lov e</w>": "love</w>",
    "w or": "wor",
    "wor l": "worl",
    "worl d</w>": "world</w>",
    "h i</w>": "hi</w>",
    "th er": "ther",
    "ther e</w>": "there</w>",
    "m or": "mor",
    "mor ning</w>": "morning</w>",
    "n i": "ni",
    "ni g": "nig",
    "nig h": "nigh",
    "nigh t</w>": "night</w>",
    "wh o</w>": "who</w>",
    "ar e</w>": "are</w>",
    "you ?</w>": "you?</w>",
    "a n</w>": "an</w>",
    "a i</w>": "ai</w>",
    "you r": "your",
    "your </w>": "your</w>",
    "nam e?</w>": "name?</w>",
    "m y</w>": "my</w>",
    "nam e</w>": "name</w>",
    "s m": "sm",
    "sm ar": "smar",
    "smar t</w>": "smart</w>",
    "t o</w>": "to</w>",
    "lear n</w>": "learn</w>",
    "c at</w>": "cat</w>",
    "do g</w>": "dog</w>",
    "m e": "me",
    "me at</w>": "meat</w>",
    "b i": "bi",
    "bi r": "bir",
    "bir d": "bird",
    "bird s</w>": "birds</w>",
    "f l": "fl",
    "fl y</w>": "fly</w>",
    "s k": "sk",
    "sk y</w>": "sky</w>",
    "s w": "sw",
    "sw i": "swi",
    "swi m": "swim",
    "swim </w>": "swim</w>",
    "w at": "wat",
    "wat er": "water",
    "water </w>": "water</w>",
    "c at": "cat",
    "cat s</w>": "cats</w>",
    "do g": "dog",
    "dog s</w>": "dogs</w>",
    "lear ning</w>": "learning</w>",
    "lov e?</w>": "love?</w>",
    "th in": "thin",
    "thin k": "think",
    "think ing</w>": "thinking</w>",
    "f u": "fu",
    "fu n</w>": "fun</w>",
    "e a": "ea",
    "c h": "ch",
    "d e</w>": "de</w>",
    "t i": "ti",
    "c o": "co",
    "s ea": "sea",
    "sea r": "sear",
    "sear ch": "search",
    "search </w>": "search</w>",
    "u n": "un",
    "co de</w>": "code</w>",
    "r ea": "rea",
    "k </w>": "k</w>",
    "ti o": "tio",
    "m a": "ma",
    "rea d</w>": "read</w>",
    "ch un": "chun",
    "chun k</w>": "chunk</w>",
    "l </w>": "l</w>",
    "tio n</w>": "tion</w>",
    "f in": "fin",
    "a l</w>": "al</w>",
    "e s</w>": "es</w>",
    "a c": "ac",
    "wor d</w>": "word</w>",
    "in f": "inf",
    "inf or": "infor",
    "infor ma": "informa",
    "informa tion</w>": "information</w>",
    "fin al</w>": "final</w>",
    "er </w>": "er</w>",
    "e s": "es",
    "wh a": "wha",
    "wha t</w>": "what</w>",
    "or </w>": "or</w>",
    "do es</w>": "does</w>",
    "i t</w>": "it</w>",
    "er r": "err",
    "b l": "bl",
    "e c": "ec",
    "q u": "qu",
    "qu er": "quer",
    "quer y</w>": "query</w>",
    "t a": "ta",
    "ta r": "tar",
    "tar g": "targ",
    "targ e": "targe",
    "targe t</w>": "target</w>",
    "ac tion</w>": "action</w>",
    "k e": "ke",
    "ke y": "key",
    "key word</w>": "keyword</w>",
    "0 </w>": "0</w>",
    "1 </w>": "1</w>",
    "a n": "an",
    "an s": "ans",
    "ans w": "answ",
    "answ er</w>": "answer</w>",
    "r es": "res",
    "res u": "resu",
    "resu l": "resul",
    "resul t</w>": "result</w>",
    "s u": "su",
    "su c": "suc",
    "suc c": "succ",
    "succ es": "succes",
    "succes s</w>": "success</w>",
    "f a": "fa",
    "fa i": "fai",
    "fai l</w>": "fail</w>",
    "do n": "don",
    "don e</w>": "done</w>",
    "p a": "pa",
    "pa s": "pas",
    "pas s": "pass",
    "pass word</w>": "password</w>",
    "wh er": "wher",
    "wher e</w>": "where</w>",
    "a u": "au",
    "au th": "auth",
    "auth or</w>": "author</w>",
    "wh e": "whe",
    "whe n</w>": "when</w>",
    "ac ti": "acti",
    "acti v": "activ",
    "activ a": "activa",
    "activa t": "activat",
    "activat e</w>": "activate</w>",
    "h o": "ho",
    "ho w": "how",
    "how </w>": "how</w>",
    "wor k</w>": "work</w>",
    "ma s": "mas",
    "mas t": "mast",
    "mast er</w>": "master</w>",
    "o v": "ov",
    "ov err": "overr",
    "overr i": "overri",
    "overri de</w>": "override</w>",
    "bl u": "blu",
    "blu e</w>": "blue</w>",
    "o c": "oc",
    "oc ea": "ocea",
    "ocea n</w>": "ocean</w>",
    "s ec": "sec",
    "sec u": "secu",
    "secu r": "secur",
    "secur i": "securi",
    "securi t": "securit",
    "securit y</w>": "security</w>",
    "co n": "con",
    "con fi": "confi",
    "confi d": "confid",
    "confid e": "confide",
    "confide n": "confiden",
    "confiden ti": "confidenti",
    "confidenti al</w>": "confidential</w>",
    "s p": "sp",
    "sp ec": "spec",
    "spec i": "speci",
    "speci fi": "specifi",
    "specifi c": "specific",
    "specific a": "specifica",
    "specifica tio": "specificatio",
    "specificatio n": "specification",
    "specification s</w>": "specifications</w>",
    "d rea": "drea",
    "drea m": "dream",
    "dream </w>": "dream</w>",
    "m o": "mo",
    "mo de</w>": "mode</w>",
    "f o": "fo",
    "fo un": "foun",
    "foun d</w>": "found</w>",
    "i n</w>": "in</w>",
    "n o</w>": "no</w>",
    "ma t": "mat",
    "mat ch": "match",
    "match es</w>": "matches</w>",
    "err or</w>": "error</w>",
    "ti m": "tim",
    "tim e": "time",
    "time o": "timeo",
    "timeo u": "timeou",
    "timeou t</w>": "timeout</w>",
    "un a": "una",
    "una bl": "unabl",
    "unabl e</w>": "unable</w>",
    "fin d</w>": "find</w>",
    "o n": "on",
    "o de</w>": "ode</w>",
    "c ti": "cti",
    "fin a": "fina",
    "fina l</w>": "final</w>",
    "on </w>": "on</w>",
    "c ode</w>": "code</w>",
    "a cti": "acti",
    "s t": "st",
    "st er</w>": "ster</w>",
    "ma ster</w>": "master</w>",
    "r i": "ri",
    "ov er": "over",
    "over ri": "overri",
    "acti on</w>": "action</w>",
    "activ at": "activat",
    "wh at": "what",
    "what </w>": "what</w>",
    "s e": "se",
    "informa ti": "informati",
    "informati on</w>": "information</w>",
    "m ode</w>": "mode</w>",
    "d on": "don",
    "se cti": "secti",
    "secti on</w>": "section</w>",
    "2 </w>": "2</w>",
    "wh o": "who",
    "who </w>": "who</w>",
    "au t": "aut",
    "aut h": "auth",
    "auth or": "author",
    "author </w>": "author</w>",
    "ho u": "hou",
    "hou r": "hour",
    "hour s</w>": "hours</w>",
    "se c": "sec",
    "secu ri": "securi",
    "ea ster</w>": "easter</w>",
    "e g": "eg",
    "eg g": "egg",
    "egg </w>": "egg</w>",
    "a s": "as",
    "fi n": "fin",
    "fina l": "final",
    "final </w>": "final</w>",
    "ch u": "chu",
    "chu n": "chun",
    "chun k": "chunk",
    "chunk </w>": "chunk</w>",
    "m as": "mas",
    "mast er": "master",
    "master </w>": "master</w>",
    "p as": "pas",
    "pass w": "passw",
    "passw o": "passwo",
    "passwo r": "passwor",
    "passwor d</w>": "password</w>",
    "ac t": "act",
    "act i": "acti",
    "securit y": "security",
    "security </w>": "security</w>"
  },
  "merge_order": [
    [
      [
        "s",
        "</w>"
      ],
      "s</w>"
    ],
    [
      [
        "a",
        "r"
      ],
      "ar"
    ],
    [
      [
        "e",
        "</w>"
      ],
      "e</w>"
    ],
    [
      [
        "i",
        "</w>"
      ],
      "i</w>"
    ],
    [
      [
        "i",
        "n"
      ],
      "in"
    ],
    [
      [
        "t",
        "</w>"
      ],
      "t</w>"
    ],
    [
      [
        "i",
        "s</w>"
      ],
      "is</w>"
    ],
    [
      [
        "l",
        "o"
      ],
      "lo"
    ],
    [
      [
        "s",
        "ar"
      ],
      "sar"
    ],
    [
      [
        "sar",
        "a"
      ],
      "sara"
    ],
    [
      [
        "sara",
        "</w>"
      ],
      "sara</w>"
    ],
    [
      [
        "l",
        "i"
      ],
      "li"
    ],
    [
      [
        "li",
        "k"
      ],
      "lik"
    ],
    [
      [
        "d",
        "</w>"
      ],
      "d</w>"
    ],
    [
      [
        "t",
        "h"
      ],
      "th"
    ],
    [
      [
        "g",
        "</w>"
      ],
      "g</w>"
    ],
    [
      [
        "a",
        "m"
      ],
      "am"
    ],
    [
      [
        "a",
        "t</w>"
      ],
      "at</w>"
    ],
    [
      [
        "g",
        "o"
      ],
      "go"
    ],
    [
      [
        "go",
        "o"
      ],
      "goo"
    ],
    [
      [
        "goo",
        "d</w>"
      ],
      "good</w>"
    ],
    [
      [
        "in",
        "g</w>"
      ],
      "ing</w>"
    ],
    [
      [
        "w",
        "h"
      ],
      "wh"
    ],
    [
      [
        "?",
        "</w>"
      ],
      "?</w>"
    ],
    [
      [
        "n",
        "</w>"
      ],
      "n</w>"
    ],
    [
      [
        "y",
        "</w>"
      ],
      "y</w>"
    ],
    [
      [
        "lik",
        "e"
      ],
      "like"
    ],
    [
      [
        "like",
        "s</w>"
      ],
      "likes</w>"
    ],
    [
      [
        "lo",
        "v"
      ],
      "lov"
    ],
    [
      [
        "h",
        "e"
      ],
      "he"
    ],
    [
      [
        "he",
        "l"
      ],
      "hel"
    ],
    [
      [
        "hel",
        "lo"
      ],
      "hello"
    ],
    [
      [
        "hello",
        "</w>"
      ],
      "hello</w>"
    ],
    [
      [
        "o",
        "r"
      ],
      "or"
    ],
    [
      [
        "e",
        "r"
      ],
      "er"
    ],
    [
      [
        "n",
        "ing</w>"
      ],
      "ning</w>"
    ],
    [
      [
        "o",
        "</w>"
      ],
      "o</w>"
    ],
    [
      [
        "y",
        "o"
      ],
      "yo"
    ],
    [
      [
        "yo",
        "u"
      ],
      "you"
    ],
    [
      [
        "am",
        "</w>"
      ],
      "am</w>"
    ],
    [
      [
        "wh",
        "at</w>"
      ],
      "what</w>"
    ],
    [
      [
        "n",
        "am"
      ],
      "nam"
    ],
    [
      [
        "e",
        "?</w>"
      ],
      "e?</w>"
    ],
    [
      [
        "l",
        "e"
      ],
      "le"
    ],
    [
      [
        "le",
        "ar"
      ],
      "lear"
    ],
    [
      [
        "th",
        "e</w>"
      ],
      "the</w>"
    ],
    [
      [
        "f",
        "i"
      ],
      "fi"
    ],
    [
      [
        "fi",
        "s"
      ],
      "fis"
    ],
    [
      [
        "fis",
        "h"
      ],
      "fish"
    ],
    [
      [
        "fish",
        "</w>"
      ],
      "fish</w>"
    ],
    [
      [
        "d",
        "o"
      ],
      "do"
    ],
    [
      [
        "in",
        "</w>"
      ],
      "in</w>"
    ],
    [
      [
        "a",
        "t"
      ],
      "at"
    ],
    [
      [
        "lik",
        "e</w>"
      ],
      "like</w>"
    ],
    [
      [
        "lov",
        "e</w>"
      ],
      "love</w>"
    ],
    [
      [
        "w",
        "or"
      ],
      "wor"
    ],
    [
      [
        "wor",
        "l"
      ],
      "worl"
    ],
    [
      [
        "worl",
        "d</w>"
      ],
      "world</w>"
    ],
    [
      [
        "h",
        "i</w>"
      ],
      "hi</w>"
    ],
    [
      [
        "th",
        "er"
      ],
      "ther"
    ],
    [
      [
        "ther",
        "e</w>"
      ],
      "there</w>"
    ],
    [
      [
        "m",
        "or"
      ],
      "mor"
    ],
    [
      [
        "mor",
        "ning</w>"
      ],
      "morning</w>"
    ],
    [
      [
        "n",
        "i"
      ],
      "ni"
    ],
    [
      [
        "ni",
        "g"
      ],
      "nig"
    ],
    [
      [
        "nig",
        "h"
      ],
      "nigh"
    ],
    [
      [
        "nigh",
        "t</w>"
      ],
      "night</w>"
    ],
    [
      [
        "wh",
        "o</w>"
      ],
      "who</w>"
    ],
    [
      [
        "ar",
        "e</w>"
      ],
      "are</w>"
    ],
    [
      [
        "you",
        "?</w>"
      ],
      "you?</w>"
    ],
    [
      [
        "a",
        "n</w>"
      ],
      "an</w>"
    ],
    [
      [
        "a",
        "i</w>"
      ],
      "ai</w>"
    ],
    [
      [
        "you",
        "r"
      ],
      "your"
    ],
    [
      [
        "your",
        "</w>"
      ],
      "your</w>"
    ],
    [
      [
        "nam",
        "e?</w>"
      ],
      "name?</w>"
    ],
    [
      [
        "m",
        "y</w>"
      ],
      "my</w>"
    ],
    [
      [
        "nam",
        "e</w>"
      ],
      "name</w>"
    ],
    [
      [
        "s",
        "m"
      ],
      "sm"
    ],
    [
      [
        "sm",
        "ar"
      ],
      "smar"
    ],
    [
      [
        "smar",
        "t</w>"
      ],
      "smart</w>"
    ],
    [
      [
        "t",
        "o</w>"
      ],
      "to</w>"
    ],
    [
      [
        "lear",
        "n</w>"
      ],
      "learn</w>"
    ],
    [
      [
        "c",
        "at</w>"
      ],
      "cat</w>"
    ],
    [
      [
        "do",
        "g</w>"
      ],
      "dog</w>"
    ],
    [
      [
        "m",
        "e"
      ],
      "me"
    ],
    [
      [
        "me",
        "at</w>"
      ],
      "meat</w>"
    ],
    [
      [
        "b",
        "i"
      ],
      "bi"
    ],
    [
      [
        "bi",
        "r"
      ],
      "bir"
    ],
    [
      [
        "bir",
        "d"
      ],
      "bird"
    ],
    [
      [
        "bird",
        "s</w>"
      ],
      "birds</w>"
    ],
    [
      [
        "f",
        "l"
      ],
      "fl"
    ],
    [
      [
        "fl",
        "y</w>"
      ],
      "fly</w>"
    ],
    [
      [
        "s",
        "k"
      ],
      "sk"
    ],
    [
      [
        "sk",
        "y</w>"
      ],
      "sky</w>"
    ],
    [
      [
        "s",
        "w"
      ],
      "sw"
    ],
    [
      [
        "sw",
        "i"
      ],
      "swi"
    ],
    [
      [
        "swi",
        "m"
      ],
      "swim"
    ],
    [
      [
        "swim",
        "</w>"
      ],
      "swim</w>"
    ],
    [
      [
        "w",
        "at"
      ],
      "wat"
    ],
    [
      [
        "wat",
        "er"
      ],
      "water"
    ],
    [
      [
        "water",
        "</w>"
      ],
      "water</w>"
    ],
    [
      [
        "c",
        "at"
      ],
      "cat"
    ],
    [
      [
        "cat",
        "s</w>"
      ],
      "cats</w>"
    ],
    [
      [
        "do",
        "g"
      ],
      "dog"
    ],
    [
      [
        "dog",
        "s</w>"
      ],
      "dogs</w>"
    ],
    [
      [
        "lear",
        "ning</w>"
      ],
      "learning</w>"
    ],
    [
      [
        "lov",
        "e?</w>"
      ],
      "love?</w>"
    ],
    [
      [
        "th",
        "in"
      ],
      "thin"
    ],
    [
      [
        "thin",
        "k"
      ],
      "think"
    ],
    [
      [
        "think",
        "ing</w>"
      ],
      "thinking</w>"
    ],
    [
      [
        "f",
        "u"
      ],
      "fu"
    ],
    [
      [
        "fu",
        "n</w>"
      ],
      "fun</w>"
    ],
    [
      [
        "e",
        "</w>"
      ],
      "e</w>"
    ],
    [
      [
        "e",
        "a"
      ],
      "ea"
    ],
    [
      [
        "c",
        "h"
      ],
      "ch"
    ],
    [
      [
        "s",
        "</w>"
      ],
      "s</w>"
    ],
    [
      [
        "d",
        "</w>"
      ],
      "d</w>"
    ],
    [
      [
        "d",
        "e</w>"
      ],
      "de</w>"
    ],
    [
      [
        "t",
        "</w>"
      ],
      "t</w>"
    ],
    [
      [
        "t",
        "i"
      ],
      "ti"
    ],
    [
      [
        "o",
        "r"
      ],
      "or"
    ],
    [
      [
        "e",
        "r"
      ],
      "er"
    ],
    [
      [
        "c",
        "o"
      ],
      "co"
    ],
    [
      [
        "n",
        "</w>"
      ],
      "n</w>"
    ],
    [
      [
        "s",
        "ea"
      ],
      "sea"
    ],
    [
      [
        "sea",
        "r"
      ],
      "sear"
    ],
    [
      [
        "sear",
        "ch"
      ],
      "search"
    ],
    [
      [
        "search",
        "</w>"
      ],
      "search</w>"
    ],
    [
      [
        "u",
        "n"
      ],
      "un"
    ],
    [
      [
        "co",
        "de</w>"
      ],
      "code</w>"
    ],
    [
      [
        "i",
        "n"
      ],
      "in"
    ],
    [
      [
        "r",
        "ea"
      ],
      "rea"
    ],
    [
      [
        "k",
        "</w>"
      ],
      "k</w>"
    ],
    [
      [
        "w",
        "h"
      ],
      "wh"
    ],
    [
      [
        "t",
        "h"
      ],
      "th"
    ],
    [
      [
        "ti",
        "o"
      ],
      "tio"
    ],
    [
      [
        "m",
        "a"
      ],
      "ma"
    ],
    [
      [
        "rea",
        "d</w>"
      ],
      "read</w>"
    ],
    [
      [
        "ch",
        "un"
      ],
      "chun"
    ],
    [
      [
        "chun",
        "k</w>"
      ],
      "chunk</w>"
    ],
    [
      [
        "l",
        "</w>"
      ],
      "l</w>"
    ],
    [
      [
        "i",
        "s</w>"
      ],
      "is</w>"
    ],
    [
      [
        "th",
        "e</w>"
      ],
      "the</w>"
    ],
    [
      [
        "tio",
        "n</w>"
      ],
      "tion</w>"
    ],
    [
      [
        "w",
        "or"
      ],
      "wor"
    ],
    [
      [
        "f",
        "in"
      ],
      "fin"
    ],
    [
      [
        "a",
        "l</w>"
      ],
      "al</w>"
    ],
    [
      [
        "d",
        "o"
      ],
      "do"
    ],
    [
      [
        "o",
        "</w>"
      ],
      "o</w>"
    ],
    [
      [
        "e",
        "s</w>"
      ],
      "es</w>"
    ],
    [
      [
        "y",
        "</w>"
      ],
      "y</w>"
    ],
    [
      [
        "a",
        "c"
      ],
      "ac"
    ],
    [
      [
        "wor",
        "d</w>"
      ],
      "word</w>"
    ],
    [
      [
        "in",
        "f"
      ],
      "inf"
    ],
    [
      [
        "inf",
        "or"
      ],
      "infor"
    ],
    [
      [
        "infor",
        "ma"
      ],
      "informa"
    ],
    [
      [
        "informa",
        "tion</w>"
      ],
      "information</w>"
    ],
    [
      [
        "fin",
        "al</w>"
      ],
      "final</w>"
    ],
    [
      [
        "er",
        "</w>"
      ],
      "er</w>"
    ],
    [
      [
        "e",
        "s"
      ],
      "es"
    ],
    [
      [
        "wh",
        "a"
      ],
      "wha"
    ],
    [
      [
        "wha",
        "t</w>"
      ],
      "what</w>"
    ],
    [
      [
        "or",
        "</w>"
      ],
      "or</w>"
    ],
    [
      [
        "do",
        "es</w>"
      ],
      "does</w>"
    ],
    [
      [
        "i",
        "t</w>"
      ],
      "it</w>"
    ],
    [
      [
        "er",
        "r"
      ],
      "err"
    ],
    [
      [
        "b",
        "l"
      ],
      "bl"
    ],
    [
      [
        "e",
        "c"
      ],
      "ec"
    ],
    [
      [
        "f",
        "i"
      ],
      "fi"
    ],
    [
      [
        "q",
        "u"
      ],
      "qu"
    ],
    [
      [
        "qu",
        "er"
      ],
      "quer"
    ],
    [
      [
        "quer",
        "y</w>"
      ],
      "query</w>"
    ],
    [
      [
        "t",
        "a"
      ],
      "ta"
    ],
    [
      [
        "ta",
        "r"
      ],
      "tar"
    ],
    [
      [
        "tar",
        "g"
      ],
      "targ"
    ],
    [
      [
        "targ",
        "e"
      ],
      "targe"
    ],
    [
      [
        "targe",
        "t</w>"
      ],
      "target</w>"
    ],
    [
      [
        "ac",
        "tion</w>"
      ],
      "action</w>"
    ],
    [
      [
        "k",
        "e"
      ],
      "ke"
    ],
    [
      [
        "ke",
        "y"
      ],
      "key"
    ],
    [
      [
        "key",
        "word</w>"
      ],
      "keyword</w>"
    ],
    [
      [
        "0",
        "</w>"
      ],
      "0</w>"
    ],
    [
      [
        "1",
        "</w>"
      ],
      "1</w>"
    ],
    [
      [
        "a",
        "n"
      ],
      "an"
    ],
    [
      [
        "an",
        "s"
      ],
      "ans"
    ],
    [
      [
        "ans",
        "w"
      ],
      "answ"
    ],
    [
      [
        "answ",
        "er</w>"
      ],
      "answer</w>"
    ],
    [
      [
        "r",
        "es"
      ],
      "res"
    ],
    [
      [
        "res",
        "u"
      ],
      "resu"
    ],
    [
      [
        "resu",
        "l"
      ],
      "resul"
    ],
    [
      [
        "resul",
        "t</w>"
      ],
      "result</w>"
    ],
    [
      [
        "s",
        "u"
      ],
      "su"
    ],
    [
      [
        "su",
        "c"
      ],
      "suc"
    ],
    [
      [
        "suc",
        "c"
      ],
      "succ"
    ],
    [
      [
        "succ",
        "es"
      ],
      "succes"
    ],
    [
      [
        "succes",
        "s</w>"
      ],
      "success</w>"
    ],
    [
      [
        "f",
        "a"
      ],
      "fa"
    ],
    [
      [
        "fa",
        "i"
      ],
      "fai"
    ],
    [
      [
        "fai",
        "l</w>"
      ],
      "fail</w>"
    ],
    [
      [
        "do",
        "n"
      ],
      "don"
    ],
    [
      [
        "don",
        "e</w>"
      ],
      "done</w>"
    ],
    [
      [
        "p",
        "a"
      ],
      "pa"
    ],
    [
      [
        "pa",
        "s"
      ],
      "pas"
    ],
    [
      [
        "pas",
        "s"
      ],
      "pass"
    ],
    [
      [
        "pass",
        "word</w>"
      ],
      "password</w>"
    ],
    [
      [
        "wh",
        "er"
      ],
      "wher"
    ],
    [
      [
        "wher",
        "e</w>"
      ],
      "where</w>"
    ],
    [
      [
        "wh",
        "o</w>"
      ],
      "who</w>"
    ],
    [
      [
        "a",
        "u"
      ],
      "au"
    ],
    [
      [
        "au",
        "th"
      ],
      "auth"
    ],
    [
      [
        "auth",
        "or</w>"
      ],
      "author</w>"
    ],
    [
      [
        "wh",
        "e"
      ],
      "whe"
    ],
    [
      [
        "whe",
        "n</w>"
      ],
      "when</w>"
    ],
    [
      [
        "ac",
        "ti"
      ],
      "acti"
    ],
    [
      [
        "acti",
        "v"
      ],
      "activ"
    ],
    [
      [
        "activ",
        "a"
      ],
      "activa"
    ],
    [
      [
        "activa",
        "t"
      ],
      "activat"
    ],
    [
      [
        "activat",
        "e</w>"
      ],
      "activate</w>"
    ],
    [
      [
        "h",
        "o"
      ],
      "ho"
    ],
    [
      [
        "ho",
        "w"
      ],
      "how"
    ],
    [
      [
        "how",
        "</w>"
      ],
      "how</w>"
    ],
    [
      [
        "wor",
        "k</w>"
      ],
      "work</w>"
    ],
    [
      [
        "ma",
        "s"
      ],
      "mas"
    ],
    [
      [
        "mas",
        "t"
      ],
      "mast"
    ],
    [
      [
        "mast",
        "er</w>"
      ],
      "master</w>"
    ],
    [
      [
        "o",
        "v"
      ],
      "ov"
    ],
    [
      [
        "ov",
        "err"
      ],
      "overr"
    ],
    [
      [
        "overr",
        "i"
      ],
      "overri"
    ],
    [
      [
        "overri",
        "de</w>"
      ],
      "override</w>"
    ],
    [
      [
        "bl",
        "u"
      ],
      "blu"
    ],
    [
      [
        "blu",
        "e</w>"
      ],
      "blue</w>"
    ],
    [
      [
        "o",
        "c"
      ],
      "oc"
    ],
    [
      [
        "oc",
        "ea"
      ],
      "ocea"
    ],
    [
      [
        "ocea",
        "n</w>"
      ],
      "ocean</w>"
    ],
    [
      [
        "s",
        "ec"
      ],
      "sec"
    ],
    [
      [
        "sec",
        "u"
      ],
      "secu"
    ],
    [
      [
        "secu",
        "r"
      ],
      "secur"
    ],
    [
      [
        "secur",
        "i"
      ],
      "securi"
    ],
    [
      [
        "securi",
        "t"
      ],
      "securit"
    ],
    [
      [
        "securit",
        "y</w>"
      ],
      "security</w>"
    ],
    [
      [
        "co",
        "n"
      ],
      "con"
    ],
    [
      [
        "con",
        "fi"
      ],
      "confi"
    ],
    [
      [
        "confi",
        "d"
      ],
      "confid"
    ],
    [
      [
        "confid",
        "e"
      ],
      "confide"
    ],
    [
      [
        "confide",
        "n"
      ],
      "confiden"
    ],
    [
      [
        "confiden",
        "ti"
      ],
      "confidenti"
    ],
    [
      [
        "confidenti",
        "al</w>"
      ],
      "confidential</w>"
    ],
    [
      [
        "s",
        "p"
      ],
      "sp"
    ],
    [
      [
        "sp",
        "ec"
      ],
      "spec"
    ],
    [
      [
        "spec",
        "i"
      ],
      "speci"
    ],
    [
      [
        "speci",
        "fi"
      ],
      "specifi"
    ],
    [
      [
        "specifi",
        "c"
      ],
      "specific"
    ],
    [
      [
        "specific",
        "a"
      ],
      "specifica"
    ],
    [
      [
        "specifica",
        "tio"
      ],
      "specificatio"
    ],
    [
      [
        "specificatio",
        "n"
      ],
      "specification"
    ],
    [
      [
        "specification",
        "s</w>"
      ],
      "specifications</w>"
    ],
    [
      [
        "d",
        "rea"
      ],
      "drea"
    ],
    [
      [
        "drea",
        "m"
      ],
      "dream"
    ],
    [
      [
        "dream",
        "</w>"
      ],
      "dream</w>"
    ],
    [
      [
        "m",
        "o"
      ],
      "mo"
    ],
    [
      [
        "mo",
        "de</w>"
      ],
      "mode</w>"
    ],
    [
      [
        "f",
        "o"
      ],
      "fo"
    ],
    [
      [
        "fo",
        "un"
      ],
      "foun"
    ],
    [
      [
        "foun",
        "d</w>"
      ],
      "found</w>"
    ],
    [
      [
        "i",
        "n</w>"
      ],
      "in</w>"
    ],
    [
      [
        "n",
        "o</w>"
      ],
      "no</w>"
    ],
    [
      [
        "ma",
        "t"
      ],
      "mat"
    ],
    [
      [
        "mat",
        "ch"
      ],
      "match"
    ],
    [
      [
        "match",
        "es</w>"
      ],
      "matches</w>"
    ],
    [
      [
        "err",
        "or</w>"
      ],
      "error</w>"
    ],
    [
      [
        "ti",
        "m"
      ],
      "tim"
    ],
    [
      [
        "tim",
        "e"
      ],
      "time"
    ],
    [
      [
        "time",
        "o"
      ],
      "timeo"
    ],
    [
      [
        "timeo",
        "u"
      ],
      "timeou"
    ],
    [
      [
        "timeou",
        "t</w>"
      ],
      "timeout</w>"
    ],
    [
      [
        "un",
        "a"
      ],
      "una"
    ],
    [
      [
        "una",
        "bl"
      ],
      "unabl"
    ],
    [
      [
        "unabl",
        "e</w>"
      ],
      "unable</w>"
    ],
    [
      [
        "t",
        "o</w>"
      ],
      "to</w>"
    ],
    [
      [
        "fin",
        "d</w>"
      ],
      "find</w>"
    ],
    [
      [
        "e",
        "a"
      ],
      "ea"
    ],
    [
      [
        "c",
        "h"
      ],
      "ch"
    ],
    [
      [
        "e",
        "</w>"
      ],
      "e</w>"
    ],
    [
      [
        "d",
        "</w>"
      ],
      "d</w>"
    ],
    [
      [
        "s",
        "ea"
      ],
      "sea"
    ],
    [
      [
        "sea",
        "r"
      ],
      "sear"
    ],
    [
      [
        "sear",
        "ch"
      ],
      "search"
    ],
    [
      [
        "search",
        "</w>"
      ],
      "search</w>"
    ],
    [
      [
        "r",
        "ea"
      ],
      "rea"
    ],
    [
      [
        "d",
        "e</w>"
      ],
      "de</w>"
    ],
    [
      [
        "e",
        "r"
      ],
      "er"
    ],
    [
      [
        "rea",
        "d</w>"
      ],
      "read</w>"
    ],
    [
      [
        "t",
        "i"
      ],
      "ti"
    ],
    [
      [
        "i",
        "n"
      ],
      "in"
    ],
    [
      [
        "o",
        "n"
      ],
      "on"
    ],
    [
      [
        "l",
        "</w>"
      ],
      "l</w>"
    ],
    [
      [
        "o",
        "de</w>"
      ],
      "ode</w>"
    ],
    [
      [
        "o",
        "r"
      ],
      "or"
    ],
    [
      [
        "c",
        "ti"
      ],
      "cti"
    ],
    [
      [
        "f",
        "in"
      ],
      "fin"
    ],
    [
      [
        "fin",
        "a"
      ],
      "fina"
    ],
    [
      [
        "fina",
        "l</w>"
      ],
      "final</w>"
    ],
    [
      [
        "u",
        "n"
      ],
      "un"
    ],
    [
      [
        "on",
        "</w>"
      ],
      "on</w>"
    ],
    [
      [
        "c",
        "ode</w>"
      ],
      "code</w>"
    ],
    [
      [
        "m",
        "a"
      ],
      "ma"
    ],
    [
      [
        "er",
        "</w>"
      ],
      "er</w>"
    ],
    [
      [
        "k",
        "</w>"
      ],
      "k</w>"
    ],
    [
      [
        "a",
        "cti"
      ],
      "acti"
    ],
    [
      [
        "w",
        "or"
      ],
      "wor"
    ],
    [
      [
        "s",
        "t"
      ],
      "st"
    ],
    [
      [
        "st",
        "er</w>"
      ],
      "ster</w>"
    ],
    [
      [
        "a",
        "t"
      ],
      "at"
    ],
    [
      [
        "ch",
        "un"
      ],
      "chun"
    ],
    [
      [
        "chun",
        "k</w>"
      ],
      "chunk</w>"
    ],
    [
      [
        "w",
        "h"
      ],
      "wh"
    ],
    [
      [
        "wor",
        "d</w>"
      ],
      "word</w>"
    ],
    [
      [
        "ma",
        "ster</w>"
      ],
      "master</w>"
    ],
    [
      [
        "r",
        "i"
      ],
      "ri"
    ],
    [
      [
        "s",
        "</w>"
      ],
      "s</w>"
    ],
    [
      [
        "o",
        "v"
      ],
      "ov"
    ],
    [
      [
        "ov",
        "er"
      ],
      "over"
    ],
    [
      [
        "over",
        "ri"
      ],
      "overri"
    ],
    [
      [
        "overri",
        "de</w>"
      ],
      "override</w>"
    ],
    [
      [
        "acti",
        "on</w>"
      ],
      "action</w>"
    ],
    [
      [
        "k",
        "e"
      ],
      "ke"
    ],
    [
      [
        "ke",
        "y"
      ],
      "key"
    ],
    [
      [
        "key",
        "word</w>"
      ],
      "keyword</w>"
    ],
    [
      [
        "acti",
        "v"
      ],
      "activ"
    ],
    [
      [
        "activ",
        "at"
      ],
      "activat"
    ],
    [
      [
        "activat",
        "e</w>"
      ],
      "activate</w>"
    ],
    [
      [
        "e",
        "s"
      ],
      "es"
    ],
    [
      [
        "wh",
        "at"
      ],
      "what"
    ],
    [
      [
        "what",
        "</w>"
      ],
      "what</w>"
    ],
    [
      [
        "s",
        "e"
      ],
      "se"
    ],
    [
      [
        "in",
        "f"
      ],
      "inf"
    ],
    [
      [
        "inf",
        "or"
      ],
      "infor"
    ],
    [
      [
        "infor",
        "ma"
      ],
      "informa"
    ],
    [
      [
        "informa",
        "ti"
      ],
      "informati"
    ],
    [
      [
        "informati",
        "on</w>"
      ],
      "information</w>"
    ],
    [
      [
        "p",
        "a"
      ],
      "pa"
    ],
    [
      [
        "pa",
        "s"
      ],
      "pas"
    ],
    [
      [
        "pas",
        "s"
      ],
      "pass"
    ],
    [
      [
        "pass",
        "word</w>"
      ],
      "password</w>"
    ],
    [
      [
        "d",
        "rea"
      ],
      "drea"
    ],
    [
      [
        "drea",
        "m"
      ],
      "dream"
    ],
    [
      [
        "dream",
        "</w>"
      ],
      "dream</w>"
    ],
    [
      [
        "m",
        "ode</w>"
      ],
      "mode</w>"
    ],
    [
      [
        "t",
        "</w>"
      ],
      "t</w>"
    ],
    [
      [
        "s",
        "u"
      ],
      "su"
    ],
    [
      [
        "su",
        "c"
      ],
      "suc"
    ],
    [
      [
        "suc",
        "c"
      ],
      "succ"
    ],
    [
      [
        "succ",
        "es"
      ],
      "succes"
    ],
    [
      [
        "succes",
        "s</w>"
      ],
      "success</w>"
    ],
    [
      [
        "d",
        "on"
      ],
      "don"
    ],
    [
      [
        "don",
        "e</w>"
      ],
      "done</w>"
    ],
    [
      [
        "f",
        "o"
      ],
      "fo"
    ],
    [
      [
        "fo",
        "un"
      ],
      "foun"
    ],
    [
      [
        "foun",
        "d</w>"
      ],
      "found</w>"
    ],
    [
      [
        "i",
        "s</w>"
      ],
      "is</w>"
    ],
    [
      [
        "n",
        "</w>"
      ],
      "n</w>"
    ],
    [
      [
        "h",
        "o"
      ],
      "ho"
    ],
    [
      [
        "se",
        "cti"
      ],
      "secti"
    ],
    [
      [
        "secti",
        "on</w>"
      ],
      "section</w>"
    ],
    [
      [
        "y",
        "</w>"
      ],
      "y</w>"
    ],
    [
      [
        "0",
        "</w>"
      ],
      "0</w>"
    ],
    [
      [
        "1",
        "</w>"
      ],
      "1</w>"
    ],
    [
      [
        "2",
        "</w>"
      ],
      "2</w>"
    ],
    [
      [
        "a",
        "n"
      ],
      "an"
    ],
    [
      [
        "an",
        "s"
      ],
      "ans"
    ],
    [
      [
        "ans",
        "w"
      ],
      "answ"
    ],
    [
      [
        "answ",
        "er</w>"
      ],
      "answer</w>"
    ],
    [
      [
        "r",
        "es"
      ],
      "res"
    ],
    [
      [
        "res",
        "u"
      ],
      "resu"
    ],
    [
      [
        "resu",
        "l"
      ],
      "resul"
    ],
    [
      [
        "resul",
        "t</w>"
      ],
      "result</w>"
    ],
    [
      [
        "f",
        "a"
      ],
      "fa"
    ],
    [
      [
        "fa",
        "i"
      ],
      "fai"
    ],
    [
      [
        "fai",
        "l</w>"
      ],
      "fail</w>"
    ],
    [
      [
        "wh",
        "er"
      ],
      "wher"
    ],
    [
      [
        "wher",
        "e</w>"
      ],
      "where</w>"
    ],
    [
      [
        "wh",
        "o"
      ],
      "who"
    ],
    [
      [
        "who",
        "</w>"
      ],
      "who</w>"
    ],
    [
      [
        "a",
        "u"
      ],
      "au"
    ],
    [
      [
        "au",
        "t"
      ],
      "aut"
    ],
    [
      [
        "aut",
        "h"
      ],
      "auth"
    ],
    [
      [
        "auth",
        "or"
      ],
      "author"
    ],
    [
      [
        "author",
        "</w>"
      ],
      "author</w>"
    ],
    [
      [
        "wh",
        "e"
      ],
      "whe"
    ],
    [
      [
        "whe",
        "n</w>"
      ],
      "when</w>"
    ],
    [
      [
        "ho",
        "w"
      ],
      "how"
    ],
    [
      [
        "how",
        "</w>"
      ],
      "how</w>"
    ],
    [
      [
        "wor",
        "k</w>"
      ],
      "work</w>"
    ],
    [
      [
        "b",
        "l"
      ],
      "bl"
    ],
    [
      [
        "bl",
        "u"
      ],
      "blu"
    ],
    [
      [
        "blu",
        "e</w>"
      ],
      "blue</w>"
    ],
    [
      [
        "o",
        "c"
      ],
      "oc"
    ],
    [
      [
        "oc",
        "ea"
      ],
      "ocea"
    ],
    [
      [
        "ocea",
        "n</w>"
      ],
      "ocean</w>"
    ],
    [
      [
        "ho",
        "u"
      ],
      "hou"
    ],
    [
      [
        "hou",
        "r"
      ],
      "hour"
    ],
    [
      [
        "hour",
        "s</w>"
      ],
      "hours</w>"
    ],
    [
      [
        "se",
        "c"
      ],
      "sec"
    ],
    [
      [
        "sec",
        "u"
      ],
      "secu"
    ],
    [
      [
        "secu",
        "ri"
      ],
      "securi"
    ],
    [
      [
        "securi",
        "t"
      ],
      "securit"
    ],
    [
      [
        "securit",
        "y</w>"
      ],
      "security</w>"
    ],
    [
      [
        "ea",
        "ster</w>"
      ],
      "easter</w>"
    ],
    [
      [
        "e",
        "g"
      ],
      "eg"
    ],
    [
      [
        "eg",
        "g"
      ],
      "egg"
    ],
    [
      [
        "egg",
        "</w>"
      ],
      "egg</w>"
    ],
    [
      [
        "q",
        "u"
      ],
      "qu"
    ],
    [
      [
        "qu",
        "er"
      ],
      "quer"
    ],
    [
      [
        "quer",
        "y</w>"
      ],
      "query</w>"
    ],
    [
      [
        "t",
        "a"
      ],
      "ta"
    ],
    [
      [
        "ta",
        "r"
      ],
      "tar"
    ],
    [
      [
        "tar",
        "g"
      ],
      "targ"
    ],
    [
      [
        "targ",
        "e"
      ],
      "targe"
    ],
    [
      [
        "targe",
        "t</w>"
      ],
      "target</w>"
    ],
    [
      [
        "e",
        "a"
      ],
      "ea"
    ],
    [
      [
        "c",
        "h"
      ],
      "ch"
    ],
    [
      [
        "e",
        "</w>"
      ],
      "e</w>"
    ],
    [
      [
        "d",
        "</w>"
      ],
      "d</w>"
    ],
    [
      [
        "s",
        "ea"
      ],
      "sea"
    ],
    [
      [
        "sea",
        "r"
      ],
      "sear"
    ],
    [
      [
        "sear",
        "ch"
      ],
      "search"
    ],
    [
      [
        "search",
        "</w>"
      ],
      "search</w>"
    ],
    [
      [
        "r",
        "ea"
      ],
      "rea"
    ],
    [
      [
        "d",
        "e</w>"
      ],
      "de</w>"
    ],
    [
      [
        "e",
        "r"
      ],
      "er"
    ],
    [
      [
        "rea",
        "d</w>"
      ],
      "read</w>"
    ],
    [
      [
        "t",
        "i"
      ],
      "ti"
    ],
    [
      [
        "i",
        "n"
      ],
      "in"
    ],
    [
      [
        "o",
        "n"
      ],
      "on"
    ],
    [
      [
        "l",
        "</w>"
      ],
      "l</w>"
    ],
    [
      [
        "o",
        "de</w>"
      ],
      "ode</w>"
    ],
    [
      [
        "o",
        "r"
      ],
      "or"
    ],
    [
      [
        "c",
        "ti"
      ],
      "cti"
    ],
    [
      [
        "f",
        "in"
      ],
      "fin"
    ],
    [
      [
        "fin",
        "a"
      ],
      "fina"
    ],
    [
      [
        "fina",
        "l</w>"
      ],
      "final</w>"
    ],
    [
      [
        "u",
        "n"
      ],
      "un"
    ],
    [
      [
        "on",
        "</w>"
      ],
      "on</w>"
    ],
    [
      [
        "c",
        "ode</w>"
      ],
      "code</w>"
    ],
    [
      [
        "m",
        "a"
      ],
      "ma"
    ],
    [
      [
        "er",
        "</w>"
      ],
      "er</w>"
    ],
    [
      [
        "k",
        "</w>"
      ],
      "k</w>"
    ],
    [
      [
        "a",
        "cti"
      ],
      "acti"
    ],
    [
      [
        "w",
        "or"
      ],
      "wor"
    ],
    [
      [
        "s",
        "t"
      ],
      "st"
    ],
    [
      [
        "st",
        "er</w>"
      ],
      "ster</w>"
    ],
    [
      [
        "a",
        "t"
      ],
      "at"
    ],
    [
      [
        "ch",
        "un"
      ],
      "chun"
    ],
    [
      [
        "chun",
        "k</w>"
      ],
      "chunk</w>"
    ],
    [
      [
        "w",
        "h"
      ],
      "wh"
    ],
    [
      [
        "wor",
        "d</w>"
      ],
      "word</w>"
    ],
    [
      [
        "ma",
        "ster</w>"
      ],
      "master</w>"
    ],
    [
      [
        "r",
        "i"
      ],
      "ri"
    ],
    [
      [
        "s",
        "</w>"
      ],
      "s</w>"
    ],
    [
      [
        "o",
        "v"
      ],
      "ov"
    ],
    [
      [
        "ov",
        "er"
      ],
      "over"
    ],
    [
      [
        "over",
        "ri"
      ],
      "overri"
    ],
    [
      [
        "overri",
        "de</w>"
      ],
      "override</w>"
    ],
    [
      [
        "acti",
        "on</w>"
      ],
      "action</w>"
    ],
    [
      [
        "k",
        "e"
      ],
      "ke"
    ],
    [
      [
        "ke",
        "y"
      ],
      "key"
    ],
    [
      [
        "key",
        "word</w>"
      ],
      "keyword</w>"
    ],
    [
      [
        "acti",
        "v"
      ],
      "activ"
    ],
    [
      [
        "activ",
        "at"
      ],
      "activat"
    ],
    [
      [
        "activat",
        "e</w>"
      ],
      "activate</w>"
    ],
    [
      [
        "e",
        "s"
      ],
      "es"
    ],
    [
      [
        "wh",
        "at"
      ],
      "what"
    ],
    [
      [
        "what",
        "</w>"
      ],
      "what</w>"
    ],
    [
      [
        "s",
        "e"
      ],
      "se"
    ],
    [
      [
        "in",
        "f"
      ],
      "inf"
    ],
    [
      [
        "inf",
        "or"
      ],
      "infor"
    ],
    [
      [
        "infor",
        "ma"
      ],
      "informa"
    ],
    [
      [
        "informa",
        "ti"
      ],
      "informati"
    ],
    [
      [
        "informati",
        "on</w>"
      ],
      "information</w>"
    ],
    [
      [
        "p",
        "a"
      ],
      "pa"
    ],
    [
      [
        "pa",
        "s"
      ],
      "pas"
    ],
    [
      [
        "pas",
        "s"
      ],
      "pass"
    ],
    [
      [
        "pass",
        "word</w>"
      ],
      "password</w>"
    ],
    [
      [
        "d",
        "rea"
      ],
      "drea"
    ],
    [
      [
        "drea",
        "m"
      ],
      "dream"
    ],
    [
      [
        "dream",
        "</w>"
      ],
      "dream</w>"
    ],
    [
      [
        "m",
        "ode</w>"
      ],
      "mode</w>"
    ],
    [
      [
        "t",
        "</w>"
      ],
      "t</w>"
    ],
    [
      [
        "s",
        "u"
      ],
      "su"
    ],
    [
      [
        "su",
        "c"
      ],
      "suc"
    ],
    [
      [
        "suc",
        "c"
      ],
      "succ"
    ],
    [
      [
        "succ",
        "es"
      ],
      "succes"
    ],
    [
      [
        "succes",
        "s</w>"
      ],
      "success</w>"
    ],
    [
      [
        "d",
        "on"
      ],
      "don"
    ],
    [
      [
        "don",
        "e</w>"
      ],
      "done</w>"
    ],
    [
      [
        "f",
        "o"
      ],
      "fo"
    ],
    [
      [
        "fo",
        "un"
      ],
      "foun"
    ],
    [
      [
        "foun",
        "d</w>"
      ],
      "found</w>"
    ],
    [
      [
        "i",
        "s</w>"
      ],
      "is</w>"
    ],
    [
      [
        "n",
        "</w>"
      ],
      "n</w>"
    ],
    [
      [
        "h",
        "o"
      ],
      "ho"
    ],
    [
      [
        "se",
        "cti"
      ],
      "secti"
    ],
    [
      [
        "secti",
        "on</w>"
      ],
      "section</w>"
    ],
    [
      [
        "y",
        "</w>"
      ],
      "y</w>"
    ],
    [
      [
        "0",
        "</w>"
      ],
      "0</w>"
    ],
    [
      [
        "1",
        "</w>"
      ],
      "1</w>"
    ],
    [
      [
        "2",
        "</w>"
      ],
      "2</w>"
    ],
    [
      [
        "a",
        "n"
      ],
      "an"
    ],
    [
      [
        "an",
        "s"
      ],
      "ans"
    ],
    [
      [
        "ans",
        "w"
      ],
      "answ"
    ],
    [
      [
        "answ",
        "er</w>"
      ],
      "answer</w>"
    ],
    [
      [
        "r",
        "es"
      ],
      "res"
    ],
    [
      [
        "res",
        "u"
      ],
      "resu"
    ],
    [
      [
        "resu",
        "l"
      ],
      "resul"
    ],
    [
      [
        "resul",
        "t</w>"
      ],
      "result</w>"
    ],
    [
      [
        "f",
        "a"
      ],
      "fa"
    ],
    [
      [
        "fa",
        "i"
      ],
      "fai"
    ],
    [
      [
        "fai",
        "l</w>"
      ],
      "fail</w>"
    ],
    [
      [
        "wh",
        "er"
      ],
      "wher"
    ],
    [
      [
        "wher",
        "e</w>"
      ],
      "where</w>"
    ],
    [
      [
        "wh",
        "o"
      ],
      "who"
    ],
    [
      [
        "who",
        "</w>"
      ],
      "who</w>"
    ],
    [
      [
        "a",
        "u"
      ],
      "au"
    ],
    [
      [
        "au",
        "t"
      ],
      "aut"
    ],
    [
      [
        "aut",
        "h"
      ],
      "auth"
    ],
    [
      [
        "auth",
        "or"
      ],
      "author"
    ],
    [
      [
        "author",
        "</w>"
      ],
      "author</w>"
    ],
    [
      [
        "wh",
        "e"
      ],
      "whe"
    ],
    [
      [
        "whe",
        "n</w>"
      ],
      "when</w>"
    ],
    [
      [
        "ho",
        "w"
      ],
      "how"
    ],
    [
      [
        "how",
        "</w>"
      ],
      "how</w>"
    ],
    [
      [
        "wor",
        "k</w>"
      ],
      "work</w>"
    ],
    [
      [
        "b",
        "l"
      ],
      "bl"
    ],
    [
      [
        "bl",
        "u"
      ],
      "blu"
    ],
    [
      [
        "blu",
        "e</w>"
      ],
      "blue</w>"
    ],
    [
      [
        "o",
        "c"
      ],
      "oc"
    ],
    [
      [
        "oc",
        "ea"
      ],
      "ocea"
    ],
    [
      [
        "ocea",
        "n</w>"
      ],
      "ocean</w>"
    ],
    [
      [
        "ho",
        "u"
      ],
      "hou"
    ],
    [
      [
        "hou",
        "r"
      ],
      "hour"
    ],
    [
      [
        "hour",
        "s</w>"
      ],
      "hours</w>"
    ],
    [
      [
        "se",
        "c"
      ],
      "sec"
    ],
    [
      [
        "sec",
        "u"
      ],
      "secu"
    ],
    [
      [
        "secu",
        "ri"
      ],
      "securi"
    ],
    [
      [
        "securi",
        "t"
      ],
      "securit"
    ],
    [
      [
        "securit",
        "y</w>"
      ],
      "security</w>"
    ],
    [
      [
        "ea",
        "ster</w>"
      ],
      "easter</w>"
    ],
    [
      [
        "e",
        "g"
      ],
      "eg"
    ],
    [
      [
        "eg",
        "g"
      ],
      "egg"
    ],
    [
      [
        "egg",
        "</w>"
      ],
      "egg</w>"
    ],
    [
      [
        "q",
        "u"
      ],
      "qu"
    ],
    [
      [
        "qu",
        "er"
      ],
      "quer"
    ],
    [
      [
        "quer",
        "y</w>"
      ],
      "query</w>"
    ],
    [
      [
        "t",
        "a"
      ],
      "ta"
    ],
    [
      [
        "ta",
        "r"
      ],
      "tar"
    ],
    [
      [
        "tar",
        "g"
      ],
      "targ"
    ],
    [
      [
        "targ",
        "e"
      ],
      "targe"
    ],
    [
      [
        "targe",
        "t</w>"
      ],
      "target</w>"
    ],
    [
      [
        "e",
        "</w>"
      ],
      "e</w>"
    ],
    [
      [
        "e",
        "a"
      ],
      "ea"
    ],
    [
      [
        "d",
        "e</w>"
      ],
      "de</w>"
    ],
    [
      [
        "c",
        "h"
      ],
      "ch"
    ],
    [
      [
        "r",
        "ea"
      ],
      "rea"
    ],
    [
      [
        "d",
        "</w>"
      ],
      "d</w>"
    ],
    [
      [
        "o",
        "de</w>"
      ],
      "ode</w>"
    ],
    [
      [
        "a",
        "s"
      ],
      "as"
    ],
    [
      [
        "e",
        "r"
      ],
      "er"
    ],
    [
      [
        "r",
        "i"
      ],
      "ri"
    ],
    [
      [
        "s",
        "ea"
      ],
      "sea"
    ],
    [
      [
        "sea",
        "r"
      ],
      "sear"
    ],
    [
      [
        "sear",
        "ch"
      ],
      "search"
    ],
    [
      [
        "search",
        "</w>"
      ],
      "search</w>"
    ],
    [
      [
        "rea",
        "d</w>"
      ],
      "read</w>"
    ],
    [
      [
        "f",
        "i"
      ],
      "fi"
    ],
    [
      [
        "fi",
        "n"
      ],
      "fin"
    ],
    [
      [
        "fin",
        "a"
      ],
      "fina"
    ],
    [
      [
        "fina",
        "l"
      ],
      "final"
    ],
    [
      [
        "final",
        "</w>"
      ],
      "final</w>"
    ],
    [
      [
        "ch",
        "u"
      ],
      "chu"
    ],
    [
      [
        "chu",
        "n"
      ],
      "chun"
    ],
    [
      [
        "chun",
        "k"
      ],
      "chunk"
    ],
    [
      [
        "chunk",
        "</w>"
      ],
      "chunk</w>"
    ],
    [
      [
        "c",
        "ode</w>"
      ],
      "code</w>"
    ],
    [
      [
        "m",
        "as"
      ],
      "mas"
    ],
    [
      [
        "mas",
        "t"
      ],
      "mast"
    ],
    [
      [
        "mast",
        "er"
      ],
      "master"
    ],
    [
      [
        "master",
        "</w>"
      ],
      "master</w>"
    ],
    [
      [
        "o",
        "v"
      ],
      "ov"
    ],
    [
      [
        "ov",
        "er"
      ],
      "over"
    ],
    [
      [
        "over",
        "ri"
      ],
      "overri"
    ],
    [
      [
        "overri",
        "de</w>"
      ],
      "override</w>"
    ],
    [
      [
        "p",
        "as"
      ],
      "pas"
    ],
    [
      [
        "pas",
        "s"
      ],
      "pass"
    ],
    [
      [
        "pass",
        "w"
      ],
      "passw"
    ],
    [
      [
        "passw",
        "o"
      ],
      "passwo"
    ],
    [
      [
        "passwo",
        "r"
      ],
      "passwor"
    ],
    [
      [
        "passwor",
        "d</w>"
      ],
      "password</w>"
    ],
    [
      [
        "d",
        "rea"
      ],
      "drea"
    ],
    [
      [
        "drea",
        "m"
      ],
      "dream"
    ],
    [
      [
        "dream",
        "</w>"
      ],
      "dream</w>"
    ],
    [
      [
        "m",
        "ode</w>"
      ],
      "mode</w>"
    ],
    [
      [
        "a",
        "c"
      ],
      "ac"
    ],
    [
      [
        "ac",
        "t"
      ],
      "act"
    ],
    [
      [
        "act",
        "i"
      ],
      "acti"
    ],
    [
      [
        "acti",
        "v"
      ],
      "activ"
    ],
    [
      [
        "activ",
        "a"
      ],
      "activa"
    ],
    [
      [
        "activa",
        "t"
      ],
      "activat"
    ],
    [
      [
        "activat",
        "e</w>"
      ],
      "activate</w>"
    ],
    [
      [
        "s",
        "e"
      ],
      "se"
    ],
    [
      [
        "se",
        "c"
      ],
      "sec"
    ],
    [
      [
        "sec",
        "u"
      ],
      "secu"
    ],
    [
      [
        "secu",
        "ri"
      ],
      "securi"
    ],
    [
      [
        "securi",
        "t"
      ],
      "securit"
    ],
    [
      [
        "securit",
        "y"
      ],
      "security"
    ],
    [
      [
        "security",
        "</w>"
      ],
      "security</w>"
    ],
    [
      [
        "e",
        "</w>"
      ],
      "e</w>"
    ],
    [
      [
        "e",
        "a"
      ],
      "ea"
    ],
    [
      [
        "d",
        "e</w>"
      ],
      "de</w>"
    ],
    [
      [
        "c",
        "h"
      ],
      "ch"
    ],
    [
      [
        "r",
        "ea"
      ],
      "rea"
    ],
    [
      [
        "d",
        "</w>"
      ],
      "d</w>"
    ],
    [
      [
        "o",
        "de</w>"
      ],
      "ode</w>"
    ],
    [
      [
        "a",
        "s"
      ],
      "as"
    ],
    [
      [
        "e",
        "r"
      ],
      "er"
    ],
    [
      [
        "r",
        "i"
      ],
      "ri"
    ],
    [
      [
        "s",
        "ea"
      ],
      "sea"
    ],
    [
      [
        "sea",
        "r"
      ],
      "sear"
    ],
    [
      [
        "sear",
        "ch"
      ],
      "search"
    ],
    [
      [
        "search",
        "</w>"
      ],
      "search</w>"
    ],
    [
      [
        "rea",
        "d</w>"
      ],
      "read</w>"
    ],
    [
      [
        "f",
        "i"
      ],
      "fi"
    ],
    [
      [
        "fi",
        "n"
      ],
      "fin"
    ],
    [
      [
        "fin",
        "a"
      ],
      "fina"
    ],
    [
      [
        "fina",
        "l"
      ],
      "final"
    ],
    [
      [
        "final",
        "</w>"
      ],
      "final</w>"
    ],
    [
      [
        "ch",
        "u"
      ],
      "chu"
    ],
    [
      [
        "chu",
        "n"
      ],
      "chun"
    ],
    [
      [
        "chun",
        "k"
      ],
      "chunk"
    ],
    [
      [
        "chunk",
        "</w>"
      ],
      "chunk</w>"
    ],
    [
      [
        "c",
        "ode</w>"
      ],
      "code</w>"
    ],
    [
      [
        "m",
        "as"
      ],
      "mas"
    ],
    [
      [
        "mas",
        "t"
      ],
      "mast"
    ],
    [
      [
        "mast",
        "er"
      ],
      "master"
    ],
    [
      [
        "master",
        "</w>"
      ],
      "master</w>"
    ],
    [
      [
        "o",
        "v"
      ],
      "ov"
    ],
    [
      [
        "ov",
        "er"
      ],
      "over"
    ],
    [
      [
        "over",
        "ri"
      ],
      "overri"
    ],
    [
      [
        "overri",
        "de</w>"
      ],
      "override</w>"
    ],
    [
      [
        "p",
        "as"
      ],
      "pas"
    ],
    [
      [
        "pas",
        "s"
      ],
      "pass"
    ],
    [
      [
        "pass",
        "w"
      ],
      "passw"
    ],
    [
      [
        "passw",
        "o"
      ],
      "passwo"
    ],
    [
      [
        "passwo",
        "r"
      ],
      "passwor"
    ],
    [
      [
        "passwor",
        "d</w>"
      ],
      "password</w>"
    ],
    [
      [
        "d",
        "rea"
      ],
      "drea"
    ],
    [
      [
        "drea",
        "m"
      ],
      "dream"
    ],
    [
      [
        "dream",
        "</w>"
      ],
      "dream</w>"
    ],
    [
      [
        "m",
        "ode</w>"
      ],
      "mode</w>"
    ],
    [
      [
        "a",
        "c"
      ],
      "ac"
    ],
    [
      [
        "ac",
        "t"
      ],
      "act"
    ],
    [
      [
        "act",
        "i"
      ],
      "acti"
    ],
    [
      [
        "acti",
        "v"
      ],
      "activ"
    ],
    [
      [
        "activ",
        "a"
      ],
      "activa"
    ],
    [
      [
        "activa",
        "t"
      ],
      "activat"
    ],
    [
      [
        "activat",
        "e</w>"
      ],
      "activate</w>"
    ],
    [
      [
        "s",
        "e"
      ],
      "se"
    ],
    [
      [
        "se",
        "c"
      ],
      "sec"
    ],
    [
      [
        "sec",
        "u"
      ],
      "secu"
    ],
    [
      [
        "secu",
        "ri"
      ],
      "securi"
    ],
    [
      [
        "securi",
        "t"
      ],
      "securit"
    ],
    [
      [
        "securit",
        "y"
      ],
      "security"
    ],
    [
      [
        "security",
        "</w>"
      ],
      "security</w>"
    ]
  ]
}