{
  "vocab": {
    "<pad>": 0,
    "<unk>": 1,
    "<sos>": 2,
    "<eos>": 3,
    "\n": 4,
    " ": 5,
    "　": 6,
    "ニ": 7,
    "ュ": 8,
    "ー": 9,
    "ラ": 10,
    "ル": 11,
    "ネ": 12,
    "ッ": 13,
    "ト": 14,
    "ワ": 15,
    "ク": 16,
    "-": 17,
    "W": 18,
    "i": 19,
    "k": 20,
    "p": 21,
    "e": 22,
    "d": 23,
    "a": 24,
    "B": 25,
    "h": 26,
    "s": 27,
    "I": 28,
    "n": 29,
    "o": 30,
    "S": 31,
    "r": 32,
    "v": 33,
    "t": 34,
    "/": 35,
    "с": 36,
    "р": 37,
    "п": 38,
    "к": 39,
    "о": 40,
    "х": 41,
    "в": 42,
    "а": 43,
    "т": 44,
    "и": 45,
    "O": 46,
    "ʻ": 47,
    "z": 48,
    "b": 49,
    "c": 50,
    "ў": 51,
    "з": 52,
    "б": 53,
    "е": 54,
    "ч": 55,
    "閩": 56,
    "南": 57,
    "語": 58,
    "â": 59,
    "l": 60,
    "m": 61,
    "g": 62,
    "í": 63,
    "出": 64,
    "典": 65,
    ":": 66,
    "フ": 67,
    "リ": 68,
    "百": 69,
    "科": 70,
    "事": 71,
    "『": 72,
    "ウ": 73,
    "ィ": 74,
    "キ": 75,
    "ペ": 76,
    "デ": 77,
    "ア": 78,
    "（": 79,
    "）": 80,
    "』": 81,
    "ス": 82,
    "パ": 83,
    "イ": 84,
    "ン": 85,
    "グ": 86,
    "さ": 87,
    "れ": 88,
    "て": 89,
    "い": 90,
    "ま": 91,
    "す": 92,
    "。": 93,
    "タ": 94,
    "サ": 95,
    "ビ": 96,
    "に": 97,
    "つ": 98,
    "は": 99,
    "「": 100,
    "ポ": 101,
    "ベ": 102,
    "マ": 103,
    "シ": 104,
    "(": 105,
    "V": 106,
    "M": 107,
    ")": 108,
    "C": 109,
    "y": 110,
    "手": 111,
    "法": 112,
    "と": 113,
    "し": 114,
    "広": 115,
    "く": 116,
    "知": 117,
    "ら": 118,
    "る": 119,
    "も": 120,
    "の": 121,
    "で": 122,
    "あ": 123,
    "り": 124,
    "」": 125,
    "呼": 126,
    "ば": 127,
    "計": 128,
    "算": 129,
    "ユ": 130,
    "を": 131,
    "ち": 132,
    "、": 133,
    "生": 134,
    "物": 135,
    "メ": 136,
    "カ": 137,
    "ズ": 138,
    "ム": 139,
    "模": 140,
    "倣": 141,
    "人": 142,
    "間": 143,
    "脳": 144,
    "神": 145,
    "経": 146,
    "網": 147,
    "た": 148,
    "数": 149,
    "理": 150,
    "モ": 151,
    "対": 152,
    "象": 153,
    "な": 154,
    "っ": 155,
    "き": 156,
    "区": 157,
    "別": 158,
    "場": 159,
    "合": 160,
    "f": 161,
    "u": 162,
    "w": 163,
    "工": 164,
    "的": 165,
    "ほ": 166,
    "う": 167,
    "単": 168,
    "び": 169,
    "そ": 170,
    "ヒ": 171,
    "頭": 172,
    "表": 173,
    "記": 174,
    "こ": 175,
    "解": 176,
    "が": 177,
    "ど": 178,
    "よ": 179,
    "か": 180,
    "お": 181,
    "必": 182,
    "要": 183,
    "説": 184,
    "明": 185,
    "系": 186,
    "細": 187,
    "胞": 188,
    "ロ": 189,
    "同": 190,
    "士": 191,
    "互": 192,
    "介": 193,
    "繋": 194,
    "樹": 195,
    "状": 196,
    "突": 197,
    "起": 198,
    "他": 199,
    "情": 200,
    "報": 201,
    "受": 202,
    "け": 203,
    "取": 204,
    "内": 205,
    "処": 206,
    "軸": 207,
    "索": 208,
    "伝": 209,
    "達": 210,
    "結": 211,
    "部": 212,
    "分": 213,
    "右": 214,
    "図": 215,
    "参": 216,
    "照": 217,
    "拡": 218,
    "大": 219,
    "見": 220,
    "だ": 221,
    "紫": 222,
    "色": 223,
    "ひ": 224,
    "D": 225,
    ",": 226,
    "A": 227,
    "x": 228,
    "示": 229,
    "ナ": 230,
    "プ": 231,
    "強": 232,
    "度": 233,
    "外": 234,
    "刺": 235,
    "激": 236,
    "反": 237,
    "応": 238,
    "ょ": 239,
    "変": 240,
    "化": 241,
    "学": 242,
    "習": 243,
    "《": 244,
    "重": 245,
    "み": 246,
    "》": 247,
    "似": 248,
    "役": 249,
    "割": 250,
    "担": 251,
    "各": 252,
    "へ": 253,
    "入": 254,
    "力": 255,
    "作": 256,
    "関": 257,
    "影": 258,
    "響": 259,
    "与": 260,
    "え": 261,
    "用": 262,
    "向": 263,
    "値": 264,
    "播": 265,
    "せ": 266,
    "ゆ": 267,
    "過": 268,
    "程": 269,
    "利": 270,
    "決": 271,
    "有": 272,
    "益": 273,
    "わ": 274,
    "や": 275,
    "丸": 276,
    "囲": 277,
    "縦": 278,
    "並": 279,
    "ん": 280,
    "相": 281,
    "当": 282,
    "訓": 283,
    "練": 284,
    "方": 285,
    "何": 286,
    "画": 287,
    "像": 288,
    "正": 289,
    "ゴ": 290,
    "オ": 291,
    "レ": 292,
    "ジ": 293,
    "予": 294,
    "測": 295,
    "本": 296,
    "一": 297,
    "致": 298,
    "ド": 299,
    "バ": 300,
    "得": 301,
    "誤": 302,
    "差": 303,
    "じ": 304,
    "減": 305,
    "少": 306,
    "調": 307,
    "整": 308,
    "多": 309,
    "繰": 310,
    "返": 311,
    "行": 312,
    "次": 313,
    "第": 314,
    "改": 315,
    "善": 316,
    "確": 317,
    "提": 318,
    "答": 319,
    "例": 320,
    "構": 321,
    "成": 322,
    "実": 323,
    "際": 324,
    "ざ": 325,
    "設": 326,
    "定": 327,
    "可": 328,
    "能": 329,
    "ず": 330,
    "め": 331,
    "\"": 332,
    "線": 333,
    "形": 334,
    "換": 335,
    "元": 336,
    "非": 337,
    "無": 338,
    "・": 339,
    "種": 340,
    "類": 341,
    "造": 342,
    "階": 343,
    "層": 344,
    "再": 345,
    "帰": 346,
    "様": 347,
    "々": 348,
    "選": 349,
    "択": 350,
    "肢": 351,
    "唱": 352,
    "含": 353,
    "後": 354,
    "続": 355,
    "む": 356,
    "{": 357,
    "\\": 358,
    "}": 359,
    "=": 360,
    "+": 361,
    "回": 362,
    "認": 363,
    "識": 364,
    "コ": 365,
    "ョ": 366,
    "挙": 367,
    "げ": 368,
    "微": 369,
    "連": 370,
    "任": 371,
    "意": 372,
    "近": 373,
    "証": 374,
    "研": 375,
    "究": 376,
    "源": 377,
    "流": 378,
    "探": 379,
    "求": 380,
    "初": 381,
    "否": 382,
    "議": 383,
    "論": 384,
    "進": 385,
    "展": 386,
    "違": 387,
    "点": 388,
    "今": 389,
    "日": 390,
    "2": 391,
    "0": 392,
    "年": 393,
    "以": 394,
    "上": 395,
    "前": 396,
    "期": 397,
    "基": 398,
    "づ": 399,
    "最": 400,
    "純": 401,
    "ォ": 402,
    "F": 403,
    "N": 404,
    "活": 405,
    "性": 406,
    "持": 407,
    "ノ": 408,
    "直": 409,
    "接": 410,
    "供": 411,
    "給": 412,
    "積": 413,
    "目": 414,
    "標": 415,
    "小": 416,
    "技": 417,
    "術": 418,
    "世": 419,
    "紀": 420,
    "惑": 421,
    "星": 422,
    "動": 423,
    "1": 424,
    "7": 425,
    "9": 426,
    "5": 427,
    "集": 428,
    "良": 429,
    "好": 430,
    "段": 431,
    "使": 432,
    "ピ": 433,
    "セ": 434,
    "伴": 435,
    "命": 436,
    "令": 437,
    "枠": 438,
    "組": 439,
    "通": 440,
    "テ": 441,
    "試": 442,
    "型": 443,
    "異": 444,
    "離": 445,
    "路": 446,
    "考": 447,
    "察": 448,
    "チ": 449,
    "岐": 450,
    "道": 451,
    "開": 452,
    "焦": 453,
    "塑": 454,
    "4": 455,
    "ァ": 456,
    "機": 457,
    "ヘ": 458,
    "ブ": 459,
    "ミ": 460,
    "6": 461,
    "ェ": 462,
    "ホ": 463,
    "ハ": 464,
    "ダ": 465,
    "装": 466,
    "米": 467,
    "国": 468,
    "海": 469,
    "軍": 470,
    "局": 471,
    "資": 472,
    "金": 473,
    "R": 474,
    ".": 475,
    "置": 476,
    "言": 477,
    "及": 478,
    "T": 479,
    "所": 480,
    "発": 481,
    "ゼ": 482,
    "先": 483,
    "彼": 484,
    "主": 485,
    "題": 486,
    "断": 487,
    "念": 488,
    "興": 489,
    "奮": 490,
    "高": 491,
    "政": 492,
    "府": 493,
    "幅": 494,
    "増": 495,
    "加": 496,
    "者": 497,
    "楽": 498,
    "観": 499,
    "張": 500,
    "煽": 501,
    "黄": 502,
    "時": 503,
    "代": 504,
    "貢": 505,
    "献": 506,
    "適": 507,
    "隠": 508,
    "H": 509,
    "引": 510,
    "採": 511,
    "残": 512,
    "礎": 513,
    "ヴ": 514,
    "深": 515,
    "項": 516,
    "式": 517,
    "態": 518,
    "般": 519,
    "文": 520,
    "8": 521,
    "述": 522,
    "析": 523,
    "ご": 524,
    "余": 525,
    "検": 526,
    "刈": 527,
    "込": 528,
    "K": 529,
    "G": 530,
    "乗": 531,
    "ゲ": 532,
    "甘": 533,
    "斎": 534,
    "藤": 535,
    "庄": 536,
    "司": 537,
    "験": 538,
    "修": 539,
    "不": 540,
    "俊": 541,
    "書": 542,
    "籍": 543,
    "―": 544,
    "幾": 545,
    "版": 546,
    "扱": 547,
    "二": 548,
    "問": 549,
    "等": 550,
    "字": 551,
    "^": 552,
    "3": 553,
    "統": 554,
    "更": 555,
    "普": 556,
    "率": 557,
    "勾": 558,
    "配": 559,
    "降": 560,
    "下": 561,
    "エ": 562,
    "ツ": 563,
    "現": 564,
    "在": 565,
    "限": 566,
    "界": 567,
    "判": 568,
    "排": 569,
    "和": 570,
    "載": 571,
    "待": 572,
    "気": 573,
    "ぼ": 574,
    "急": 575,
    "存": 576,
    "原": 577,
    "因": 578,
    "東": 579,
    "京": 580,
    "低": 581,
    "ぎ": 582,
    "べ": 583,
    "月": 584,
    "納": 585,
    "E": 586,
    "規": 587,
    "導": 588,
    "L": 589,
    "U": 590,
    "転": 591,
    "移": 592,
    "逆": 593,
    "側": 594,
    "偏": 595,
    "効": 596,
    "訂": 597,
    "順": 598,
    "葉": 599,
    "話": 600,
    "J": 601,
    "ケ": 602,
    "脈": 603,
    "駆": 604,
    "体": 605,
    "半": 606,
    "自": 607,
    "章": 608,
    "案": 609,
    "ボ": 610,
    "博": 611,
    "著": 612,
    "着": 613,
    "破": 614,
    "注": 615,
    "浴": 616,
    "畳": 617,
    "福": 618,
    "島": 619,
    "邦": 620,
    "彦": 621,
    "複": 622,
    "製": 623,
    "備": 624,
    "ャ": 625,
    "音": 626,
    "素": 627,
    "遅": 628,
    "延": 629,
    "共": 630,
    "郵": 631,
    "便": 632,
    "Z": 633,
    "P": 634,
    "銀": 635,
    "×": 636,
    "切": 637,
    "医": 638,
    "乳": 639,
    "特": 640,
    "列": 641,
    "皮": 642,
    "質": 643,
    "円": 644,
    "短": 645,
    "憶": 646,
    "去": 647,
    "遡": 648,
    "教": 649,
    "師": 650,
    "果": 651,
    "況": 652,
    "評": 653,
    "価": 654,
    "除": 655,
    "己": 656,
    "心": 657,
    "誌": 658,
    "感": 659,
    "係": 660,
    "ザ": 661,
    "独": 662,
    "立": 663,
    "克": 664,
    "服": 665,
    "：": 666,
    "超": 667,
    "領": 668,
    "域": 669,
    "精": 670,
    "録": 671,
    "打": 672,
    "忘": 673,
    "却": 674,
    "削": 675,
    "徴": 676,
    "抽": 677,
    "落": 678,
    "業": 679,
    "賞": 680,
    "獲": 681,
    "始": 682,
    "ヤ": 683,
    "ガ": 684,
    "視": 685,
    "覚": 686,
    "従": 687,
    "来": 688,
    "倍": 689,
    "優": 690,
    "勝": 691,
    "催": 692,
    "既": 693,
    "械": 694,
    "飛": 695,
    "躍": 696,
    "猫": 697,
    "概": 698,
    "径": 699,
    "底": 700,
    "端": 701,
    "奇": 702,
    "競": 703,
    "損": 704,
    "失": 705,
    "番": 706,
    "環": 707,
    "境": 708,
    "長": 709,
    "功": 710,
    "収": 711,
    "散": 712,
    "凌": 713,
    "駕": 714,
    "～": 715,
    "ね": 716,
    "劣": 717,
    "追": 718,
    "q": 719,
    "翻": 720,
    "訳": 721,
    "固": 722,
    "両": 723,
    "圧": 724,
    "縮": 725,
    "難": 726,
    "Y": 727,
    "抱": 728,
    "速": 729,
    "中": 730,
    "室": 731,
    "全": 732,
    "十": 733,
    "信": 734,
    "頼": 735,
    "協": 736,
    "総": 737,
    "称": 738,
    "→": 739,
    "比": 740,
    "属": 741,
    ";": 742,
    "較": 743,
    "容": 744,
    "易": 745,
    "織": 746,
    "双": 747,
    "号": 748,
    "ぶ": 749,
    "替": 750,
    "然": 751,
    "量": 752,
    "乱": 753,
    "働": 754,
    "範": 755,
    "逐": 756,
    "電": 757,
    "位": 758,
    "専": 759,
    "波": 760,
    "振": 761,
    "汎": 762,
    "子": 763,
    "野": 764,
    "四": 765,
    "〜": 766,
    "閾": 767,
    "約": 768,
    "済": 769,
    "母": 770,
    "団": 771,
    "布": 772,
    "仮": 773,
    "＝": 774,
    "詳": 775,
    "_": 776,
    "|": 777,
    "<": 778,
    "条": 779,
    "件": 780,
    "付": 781,
    "§": 782,
    " ": 783,
    "声": 784,
    "沿": 785,
    "Ｂ": 786,
    "Q": 787,
    "敵": 788,
    "Ａ": 789,
    "Δ": 790,
    "σ": 791,
    "μ": 792,
    "英": 793,
    "平": 794,
    "均": 795,
    "β": 796,
    "γ": 797,
    "X": 798,
    "押": 799,
    "柔": 800,
    "軟": 801,
    "施": 802,
    "名": 803,
    "常": 804,
    "早": 805,
    "束": 806,
    "ぞ": 807,
    "面": 808,
    "倒": 809,
    "省": 810,
    "略": 811,
    "−": 812,
    "周": 813,
    "毎": 814,
    "新": 815,
    "保": 816,
    "消": 817,
    "ろ": 818,
    "義": 819,
    "推": 820,
    "簡": 821,
    "演": 822,
    "完": 823,
    "了": 824,
    "復": 825,
    "斂": 826,
    "停": 827,
    "止": 828,
    "費": 829,
    "送": 830,
    "脱": 831,
    "終": 832,
    "負": 833,
    "荷": 834,
    "悪": 835,
    "依": 836,
    "恩": 837,
    "恵": 838,
    "疎": 839,
    "防": 840,
    "ぐ": 841,
    "枝": 842,
    "[": 843,
    "]": 844,
    "肩": 845,
    "&": 846,
    "'": 847,
    "ソ": 848,
    "@": 849,
    "#": 850,
    "*": 851,
    "徐": 852,
    "衰": 853,
    "指": 854,
    "群": 855,
    "支": 856,
    "巨": 857,
    "践": 858,
    "制": 859,
    "厳": 860,
    "準": 861,
    "社": 862,
    "塚": 863,
    "秀": 864,
    "雄": 865,
    "廣": 866,
    "美": 867,
    "株": 868,
    "会": 869,
    "頁": 870,
    "“": 871,
    "”": 872,
    "ü": 873,
    "–": 874,
    "j": 875,
    "?": 876,
    "—": 877,
    "盤": 878,
    "門": 879,
    "交": 880,
    "閲": 881,
    "覧": 882,
    "»": 883,
    "歩": 884,
    "－": 885,
    "温": 886,
    "故": 887,
    "Ｃ": 888,
    "巻": 889,
    "é": 890,
    "ø": 891,
    "α": 892,
    "%": 893,
    "ó": 894,
    "~": 895,
    "ş": 896,
    "ç": 897,
    "宿": 898,
    "─": 899,
    "課": 900,
    "哲": 901,
    "映": 902,
    "岡": 903,
    "山": 904,
    "雑": 905,
    "’": 906,
    "村": 907,
    "田": 908,
    "剛": 909,
    "志": 910,
    "朝": 911,
    "倉": 912,
    "店": 913,
    "瀬": 914,
    "勘": 915,
    "!": 916,
    "…": 917,
    "密": 918,
    "谷": 919,
    "告": 920,
    "®": 921,
    "康": 922,
    "毅": 923,
    "Ł": 924,
    "郎": 925,
    "節": 926,
    "ti": 927,
    "on": 928,
    "er": 929,
    "in": 930,
    "or": 931,
    "an": 932,
    "ar": 933,
    "al": 934,
    "20": 935,
    "en": 936,
    "ット": 937,
    "tion": 938,
    "19": 939,
    "ネット": 940,
    "ワー": 941,
    "le": 942,
    "ワーク": 943,
    "ュー": 944,
    "ネットワーク": 945,
    "ing": 946,
    "th": 947,
    "re": 948,
    "ニュー": 949,
    "ch": 950,
    "10": 951,
    "する": 952,
    "st": 953,
    "ce": 954,
    ").": 955,
    "ニューラ": 956,
    "ニューラル": 957,
    "tt": 958,
    "et": 959,
    "ation": 960,
    "of": 961,
    "ニューラルネットワーク": 962,
    "ed": 963,
    "ro": 964,
    "is": 965,
    "{\\": 966,
    "co": 967,
    "el": 968,
    "ur": 969,
    "201": 970,
    "and": 971,
    "ic": 972,
    "the": 973,
    "//": 974,
    "ある": 975,
    "htt": 976,
    "http": 977,
    "://": 978,
    "ol": 979,
    "for": 980,
    "}}": 981,
    "la": 982,
    "it": 983,
    "ve": 984,
    "ma": 985,
    "202": 986,
    "ork": 987,
    "学習": 988,
    "https": 989,
    "ss": 990,
    "work": 991,
    "etwork": 992,
    "計算": 993,
    "un": 994,
    "te": 995,
    "eur": 996,
    "ent": 997,
    "eural": 998,
    "によ": 999,
    "yst": 1000,
    "11": 1001,
    "ac": 1002,
    "いる": 1003,
    "れる": 1004,
    "we": 1005,
    "em": 1006,
    "to": 1007,
    "NN": 1008,
    "199": 1009,
    "00": 1010,
    "ers": 1011,
    "ep": 1012,
    "es": 1013,
    "ータ": 1014,
    "In": 1015,
    "id": 1016,
    "tic": 1017,
    "mp": 1018,
    "arch": 1019,
    "出力": 1020,
    "198": 1021,
    "ence": 1022,
    "デル": 1023,
    "ni": 1024,
    "as": 1025,
    "にお": 1026,
    "Le": 1027,
    "web": 1028,
    "モデル": 1029,
    "ける": 1030,
    "12": 1031,
    "os": 1032,
    "ig": 1033,
    "at": 1034,
    "pp": 1035,
    "us": 1036,
    "ive": 1037,
    "od": 1038,
    "ber": 1039,
    "から": 1040,
    "ge": 1041,
    "ut": 1042,
    "ning": 1043,
    "org": 1044,
    "2024": 1045,
    "ため": 1046,
    "pa": 1047,
    "時点": 1048,
    "ra": 1049,
    "Neural": 1050,
    "arning": 1051,
    "における": 1052,
    "yle": 1053,
    "oo": 1054,
    "こと": 1055,
    "196": 1056,
    "roce": 1057,
    "Network": 1058,
    "_{": 1059,
    "ci": 1060,
    "um": 1061,
    "データ": 1062,
    "dis": 1063,
    "disp": 1064,
    "displa": 1065,
    "displayst": 1066,
    "displaystyle": 1067,
    "これ": 1068,
    "して": 1069,
    "De": 1070,
    "Th": 1071,
    ".;": 1072,
    "重み": 1073,
    "Re": 1074,
    "アー": 1075,
    "イブ": 1076,
    "78": 1077,
    "ri": 1078,
    "archive": 1079,
    "ロン": 1080,
    "cog": 1081,
    "ran": 1082,
    "pd": 1083,
    "ック": 1084,
    "..": 1085,
    "Co": 1086,
    "xt": 1087,
    "pdf": 1088,
    "fic": 1089,
    "form": 1090,
    "am": 1091,
    "qu": 1092,
    "ne": 1093,
    "ング": 1094,
    "神経": 1095,
    "入力": 1096,
    "パー": 1097,
    "ern": 1098,
    "hu": 1099,
    "il": 1100,
    "アーカ": 1101,
    "アーカイブ": 1102,
    "com": 1103,
    "ory": 1104,
    "network": 1105,
    "よう": 1106,
    "32": 1107,
    "ati": 1108,
    "res": 1109,
    "55": 1110,
    "The": 1111,
    "ul": 1112,
    "として": 1113,
    "情報": 1114,
    "線形": 1115,
    "197": 1116,
    "cogni": 1117,
    "zation": 1118,
    "08": 1119,
    "62": 1120,
    "Proce": 1121,
    "処理": 1122,
    "ィー": 1123,
    "bol": 1124,
    "による": 1125,
    "vi": 1126,
    "text": 1127,
    "anti": 1128,
    "de": 1129,
    "ith": 1130,
    "An": 1131,
    "など": 1132,
    "その": 1133,
    ")}": 1134,
    "プロ": 1135,
    "ist": 1136,
    "09": 1137,
    "cognition": 1138,
    "lo": 1139,
    "14": 1140,
    "978": 1141,
    "Deep": 1142,
    "22": 1143,
    "ww": 1144,
    "Networks": 1145,
    "EE": 1146,
    "ct": 1147,
    "ki": 1148,
    "手法": 1149,
    "より": 1150,
    "研究": 1151,
    "使用": 1152,
    "16": 1153,
    "St": 1154,
    "Ne": 1155,
    "rans": 1156,
    "Learning": 1157,
    "ystem": 1158,
    "odel": 1159,
    "fer": 1160,
    "結合": 1161,
    "この": 1162,
    "って": 1163,
    "関数": 1164,
    "ない": 1165,
    "方法": 1166,
    "生成": 1167,
    "ショ": 1168,
    "pro": 1169,
    "ng": 1170,
    "RNN": 1171,
    "30": 1172,
    "par": 1173,
    "ine": 1174,
    "ook": 1175,
    "mput": 1176,
    "Con": 1177,
    "リー": 1178,
    "ial": 1179,
    "いう": 1180,
    "訓練": 1181,
    "ション": 1182,
    "発表": 1183,
    "確率": 1184,
    "ure": 1185,
    "si": 1186,
    "ity": 1187,
    "):": 1188,
    "ations": 1189,
    "Sch": 1190,
    "gen": 1191,
    "op": 1192,
    "2017": 1193,
    "neural": 1194,
    "ーション": 1195,
    "ード": 1196,
    "2015": 1197,
    "se": 1198,
    "Trans": 1199,
    "ard": 1200,
    "mid": 1201,
    "ay": 1202,
    "di": 1203,
    "me": 1204,
    "book": 1205,
    "13": 1206,
    "ssing": 1207,
    "ang": 1208,
    ".\"": 1209,
    "それ": 1210,
    "という": 1211,
    "によって": 1212,
    "画像": 1213,
    "誤差": 1214,
    "sy": 1215,
    "ディー": 1216,
    "ディープ": 1217,
    "コン": 1218,
    "ラー": 1219,
    "パーセ": 1220,
    "パーセプ": 1221,
    "パーセプト": 1222,
    "パーセプトロン": 1223,
    "ab": 1224,
    "64": 1225,
    "CNN": 1226,
    "Net": 1227,
    "by": 1228,
    "Schmid": 1229,
    "Schmidhu": 1230,
    "Schmidhuber": 1231,
    "System": 1232,
    "tions": 1233,
    "per": 1234,
    "with": 1235,
    "do": 1236,
    "model": 1237,
    "ター": 1238,
    "いて": 1239,
    "生物": 1240,
    "場合": 1241,
    "人工": 1242,
    "igh": 1243,
    "レン": 1244,
    "バック": 1245,
    "問題": 1246,
    "勾配": 1247,
    "導入": 1248,
    "2012": 1249,
    "Ima": 1250,
    "ress": 1251,
    "Int": 1252,
    "Ma": 1253,
    "Qu": 1254,
    "ak": 1255,
    "ze": 1256,
    "ナル": 1257,
    "ad": 1258,
    "tics": 1259,
    "books": 1260,
    "cience": 1261,
    "learning": 1262,
    "ings": 1263,
    "あり": 1264,
    "でき": 1265,
    "可能": 1266,
    "微分": 1267,
    "により": 1268,
    "理論": 1269,
    "1960": 1270,
    "^{": 1271,
    "25": 1272,
    "ack": 1273,
    "リジ": 1274,
    "Image": 1275,
    "cal": 1276,
    "Ch": 1277,
    "oog": 1278,
    "oogle": 1279,
    "ization": 1280,
    "lor": 1281,
    "15": 1282,
    "sh": 1283,
    "}}}": 1284,
    "2020": 1285,
    "24": 1286,
    "ical": 1287,
    "im": 1288,
    "ew": 1289,
    "26": 1290,
    "Comput": 1291,
    "ron": 1292,
    "No": 1293,
    "Sh": 1294,
    "ttern": 1295,
    "Pa": 1296,
    "edings": 1297,
    "ference": 1298,
    "con": 1299,
    "ia": 1300,
    "ユニ": 1301,
    "ユニット": 1302,
    "必要": 1303,
    "ニューロン": 1304,
    "伝播": 1305,
    "なる": 1306,
    "変換": 1307,
    "認識": 1308,
    "17": 1309,
    "og": 1310,
    "プロパ": 1311,
    "プロパゲ": 1312,
    "プロパゲーション": 1313,
    "カレン": 1314,
    "Recognition": 1315,
    "2014": 1316,
    "ion": 1317,
    "eng": 1318,
    "量子": 1319,
    "ance": 1320,
    "ot": 1321,
    "58": 1322,
    "ib": 1323,
    "tiv": 1324,
    "yn": 1325,
    "fi": 1326,
    "ppl": 1327,
    "int": 1328,
    "07": 1329,
    "ru": 1330,
    "google": 1331,
    "AA": 1332,
    "pt": 1333,
    "ub": 1334,
    "29": 1335,
    "オリジ": 1336,
    "オリジナル": 1337,
    "53": 1338,
    "tific": 1339,
    "パラ": 1340,
    "パラメ": 1341,
    "パラメータ": 1342,
    "ight": 1343,
    "ベル": 1344,
    "様々": 1345,
    "用い": 1346,
    "バックプロパゲーション": 1347,
    "err": 1348,
    "リカレン": 1349,
    "リカレント": 1350,
    "Ad": 1351,
    "06": 1352,
    "AN": 1353,
    "Se": 1354,
    "networks": 1355,
    "quanti": 1356,
    "ting": 1357,
    "Me": 1358,
    "Systems": 1359,
    "110": 1360,
    "Per": 1361,
    "77": 1362,
    "uk": 1363,
    "Processing": 1364,
    "are": 1365,
    "クト": 1366,
    "ニング": 1367,
    "tificial": 1368,
    "られる": 1369,
    "に対": 1370,
    "できる": 1371,
    "bold": 1372,
    "boldsy": 1373,
    "boldsym": 1374,
    "boldsymbol": 1375,
    "195": 1376,
    "AI": 1377,
    "年代": 1378,
    "深層": 1379,
    "統計": 1380,
    "降下": 1381,
    "バー": 1382,
    "1982": 1383,
    "およ": 1384,
    "および": 1385,
    "1991": 1386,
    "レイ": 1387,
    "Ar": 1388,
    "rain": 1389,
    "精度": 1390,
    "GAN": 1391,
    "ou": 1392,
    "Gen": 1393,
    "vers": 1394,
    "lex": 1395,
    "ment": 1396,
    "ary": 1397,
    "Quanti": 1398,
    "tical": 1399,
    "www": 1400,
    "view": 1401,
    "red": 1402,
    "IEE": 1403,
    "IEEE": 1404,
    "lass": 1405,
    "lassi": 1406,
    "ational": 1407,
    "ima": 1408,
    "Proceedings": 1409,
    "03": 1410,
    "cture": 1411,
    "Conference": 1412,
    "ski": 1413,
    "もの": 1414,
    "呼ば": 1415,
    "ズム": 1416,
    "なっ": 1417,
    "ite": 1418,
    "かっ": 1419,
    "られ": 1420,
    "=\\": 1421,
    "回帰": 1422,
    "単純": 1423,
    "これら": 1424,
    "最初": 1425,
    "実装": 1426,
    "開発": 1427,
    "ディープラー": 1428,
    "ディープラーニング": 1429,
    "論文": 1430,
    "ov": 1431,
    "なく": 1432,
    "ウェ": 1433,
    "正規": 1434,
    "ップ": 1435,
    "pag": 1436,
    "proce": 1437,
    "時間": 1438,
    "行列": 1439,
    "tive": 1440,
    "ンス": 1441,
    "レッ": 1442,
    "ff": 1443,
    "低下": 1444,
    "tten": 1445,
    "ll": 1446,
    "cur": 1447,
    "Gener": 1448,
    "ative": 1449,
    "fan": 1450,
    "}}_": 1451,
    "}}_{\\": 1452,
    "ain": 1453,
    "activ": 1454,
    "ast": 1455,
    "resent": 1456,
    "88": 1457,
    "18": 1458,
    "Inform": 1459,
    "Information": 1460,
    "1109": 1461,
    "04": 1462,
    "44": 1463,
    "lassific": 1464,
    "lassification": 1465,
    "erm": 1466,
    "Bo": 1467,
    "79": 1468,
    "cum": 1469,
    "38": 1470,
    "2016": 1471,
    "ee": 1472,
    "1162": 1473,
    "ついて": 1474,
    "end": 1475,
    "パター": 1476,
    "パターン": 1477,
    "次元": 1478,
    "初期": 1479,
    "フォ": 1480,
    "スト": 1481,
    "MI": 1482,
    "なかっ": 1483,
    "あっ": 1484,
    "甘利": 1485,
    "2023": 1486,
    "効率": 1487,
    "propag": 1488,
    "提案": 1489,
    "畳み": 1490,
    "畳み込": 1491,
    "畳み込み": 1492,
    "リング": 1493,
    "チャ": 1494,
    "リカレントニューラルネットワーク": 1495,
    "要素": 1496,
    "ap": 1497,
    "自己": 1498,
    "Am": 1499,
    "olog": 1500,
    "シュ": 1501,
    "1995": 1502,
    "もと": 1503,
    "以下": 1504,
    "複素": 1505,
    "表現": 1506,
    "ore": 1507,
    "low": 1508,
    "om": 1509,
    "Nor": 1510,
    "バッ": 1511,
    "バッチ": 1512,
    "1986": 1513,
    "fre": 1514,
    "lorot": 1515,
    "演算": 1516,
    "ynam": 1517,
    "parti": 1518,
    "partial": 1519,
    "ft": 1520,
    "iv": 1521,
    "Jü": 1522,
    "Jür": 1523,
    "Jürgen": 1524,
    "istory": 1525,
    "21": 1526,
    "Or": 1527,
    "Computer": 1528,
    "Te": 1529,
    "ly": 1530,
    "Science": 1531,
    "ell": 1532,
    "comp": 1533,
    "2025": 1534,
    "der": 1535,
    "Go": 1536,
    "pub": 1537,
    "Zh": 1538,
    "Zhang": 1539,
    "ian": 1540,
    "ann": 1541,
    "Yos": 1542,
    "hua": 1543,
    "io": 1544,
    "lec": 1545,
    "neco": 1546,
    "deep": 1547,
    "Ka": 1548,
    "iki": 1549,
    "sk": 1550,
    "について": 1551,
    "ベクト": 1552,
    "ベクトル": 1553,
    "知ら": 1554,
    "ヒト": 1555,
    "細胞": 1556,
    "取り": 1557,
    "与え": 1558,
    "ラベル": 1559,
    "しか": 1560,
    "まで": 1561,
    "活性": 1562,
    "コンピ": 1563,
    "コンピュー": 1564,
    "メモ": 1565,
    "メモリ": 1566,
    "アル": 1567,
    "書籍": 1568,
    "error": 1569,
    "ction": 1570,
    "01": 1571,
    "43": 1572,
    "認知": 1573,
    "train": 1574,
    "ニューラルネット": 1575,
    "ual": 1576,
    "機械": 1577,
    "2018": 1578,
    "方向": 1579,
    "lay": 1580,
    "curr": 1581,
    "current": 1582,
    "elf": 1583,
    "分布": 1584,
    "...": 1585,
    "bas": 1586,
    "ph": 1587,
    "))": 1588,
    "sq": 1589,
    "sqr": 1590,
    "sqrt": 1591,
    "rac": 1592,
    "}\\": 1593,
    "math": 1594,
    "av": 1595,
    "inear": 1596,
    "Appl": 1597,
    "mber": 1598,
    "ys": 1599,
    "05": 1600,
    "ley": 1601,
    "ani": 1602,
    "Transac": 1603,
    "Transactions": 1604,
    "using": 1605,
    "cept": 1606,
    "ceptron": 1607,
    "abil": 1608,
    "And": 1609,
    "ort": 1610,
    "edu": 1611,
    "yber": 1612,
    "yberne": 1613,
    "ybernetics": 1614,
    "lis": 1615,
    "pattern": 1616,
    "our": 1617,
    "Ge": 1618,
    "Vol": 1619,
    "閲覧": 1620,
    "tor": 1621,
    "tim": 1622,
    "cument": 1623,
    "vol": 1624,
    "rep": 1625,
    "represent": 1626,
    "ex": 1627,
    "Back": 1628,
    "We": 1629,
    "Yoshua": 1630,
    "Beng": 1631,
    "Bengio": 1632,
    "stru": 1633,
    "pers": 1634,
    "formance": 1635,
    "edia": 1636,
    "be": 1637,
    "ate": 1638,
    "示さ": 1639,
    "おり": 1640,
    "利用": 1641,
    "いく": 1642,
    "えば": 1643,
    "リン": 1644,
    "フィー": 1645,
    "非線形": 1646,
    "再帰": 1647,
    "多く": 1648,
    "近似": 1649,
    "ワード": 1650,
    "技術": 1651,
    "に対する": 1652,
    "回路": 1653,
    "において": 1654,
    "ロー": 1655,
    "アルゴ": 1656,
    "アルゴリ": 1657,
    "アルゴリズム": 1658,
    "シー": 1659,
    "また": 1660,
    "俊一": 1661,
    "^{(": 1662,
    "min": 1663,
    "数え": 1664,
    "エン": 1665,
    "存在": 1666,
    "ットフ": 1667,
    "ating": 1668,
    "適用": 1669,
    "サン": 1670,
    "ン・": 1671,
    "向上": 1672,
    "ImageNet": 1673,
    "arge": 1674,
    "Scal": 1675,
    "all": 1676,
    "2022": 1677,
    "並列": 1678,
    "ttention": 1679,
    "Transform": 1680,
    "記事": 1681,
    "Fe": 1682,
    "レイヤ": 1683,
    "gress": 1684,
    "},": 1685,
    "})": 1686,
    "Wa": 1687,
    "based": 1688,
    "avi": 1689,
    "/{": 1690,
    "/{{\\": 1691,
    "}}}}}": 1692,
    "Py": 1693,
    "frac": 1694,
    "old": 1695,
    "art": 1696,
    "スレッ": 1697,
    "スレッド": 1698,
    "ign": 1699,
    "^{\\": 1700,
    "mathr": 1701,
    "mathrm": 1702,
    "au": 1703,
    "Un": 1704,
    "det": 1705,
    "ics": 1706,
    "23": 1707,
    "Perceptron": 1708,
    "Pro": 1709,
    "003": 1710,
    "Artificial": 1711,
    "ach": 1712,
    "28": 1713,
    "pe": 1714,
    "uni": 1715,
    "les": 1716,
    "uro": 1717,
    "Cybernetics": 1718,
    "Tech": 1719,
    "1016": 1720,
    "Pattern": 1721,
    "Classification": 1722,
    "und": 1723,
    "training": 1724,
    "ir": 1725,
    "document": 1726,
    "67": 1727,
    "Ho": 1728,
    "Hint": 1729,
    "Hinton": 1730,
    "Geof": 1731,
    "Geoffre": 1732,
    "Geoffrey": 1733,
    "recognition": 1734,
    "science": 1735,
    "ver": 1736,
    "ip": 1737,
    "lecun": 1738,
    "02": 1739,
    "no": 1740,
    "ob": 1741,
    "ford": 1742,
    "Intern": 1743,
    "International": 1744,
    "papers": 1745,
    "volu": 1746,
    "Sha": 1747,
    "oh": 1748,
    "スパ": 1749,
    "スパイ": 1750,
    "イン": 1751,
    "介し": 1752,
    "情報処理": 1753,
    "weight": 1754,
    "予測": 1755,
    "フィード": 1756,
    "調整": 1757,
    "ニューラルネットワークモデル": 1758,
    "構成": 1759,
    "かる": 1760,
    "含む": 1761,
    "}}+": 1762,
    "}}+{\\": 1763,
    "分類": 1764,
    "ノード": 1765,
    "ステ": 1766,
    "分離": 1767,
    "ファ": 1768,
    "ラン": 1769,
    "さら": 1770,
    "さらに": 1771,
    "科学": 1772,
    "1970": 1773,
    "基礎": 1774,
    "1971": 1775,
    "力学": 1776,
    "現在": 1777,
    "50": 1778,
    "back": 1779,
    "テク": 1780,
    "ウェイ": 1781,
    "1988": 1782,
    "IP": 1783,
    "ジェ": 1784,
    "教師": 1785,
    "1980": 1786,
    "Amer": 1787,
    "Americ": 1788,
    "シュミ": 1789,
    "シュミットフ": 1790,
    "シュミットフー": 1791,
    "シュミットフーバー": 1792,
    "シーケ": 1793,
    "ーマ": 1794,
    "Large": 1795,
    "Scale": 1796,
    "Vis": 1797,
    "コー": 1798,
    "コーダ": 1799,
    "Attention": 1800,
    "1992": 1801,
    "FF": 1802,
    "FFN": 1803,
    "層間": 1804,
    "layer": 1805,
    "recurrent": 1806,
    "える": 1807,
    "Gra": 1808,
    "たら": 1809,
    "Au": 1810,
    "Norm": 1811,
    "alization": 1812,
    "Del": 1813,
    "dient": 1814,
    "thod": 1815,
    "2010": 1816,
    "584": 1817,
    "gain": 1818,
    "ャッ": 1819,
    "quantization": 1820,
    "Quantize": 1821,
    "スパー": 1822,
    "スパース": 1823,
    "ゼロ": 1824,
    "psi": 1825,
    "}{\\": 1826,
    "man": 1827,
    "51": 1828,
    "History": 1829,
    "amb": 1830,
    "ter": 1831,
    "Mathe": 1832,
    "Mathema": 1833,
    "1007": 1834,
    "tod": 1835,
    "today": 1836,
    "202410": 1837,
    "20241012": 1838,
    "Rep": 1839,
    "Nets": 1840,
    "als": 1841,
    "Uni": 1842,
    "ml": 1843,
    "onal": 1844,
    "New": 1845,
    "jp": 1846,
    "zing": 1847,
    "TI": 1848,
    "Ro": 1849,
    "theory": 1850,
    "comput": 1851,
    "redic": 1852,
    "oci": 1853,
    "cs": 1854,
    "Neuro": 1855,
    "enk": 1856,
    "king": 1857,
    "pi": 1858,
    "Alex": 1859,
    "Pol": 1860,
    "artic": 1861,
    "vel": 1862,
    "ied": 1863,
    "arm": 1864,
    "Boz": 1865,
    "Bozin": 1866,
    "Bozinov": 1867,
    "Bozinovski": 1868,
    "osi": 1869,
    "publis": 1870,
    "mem": 1871,
    "optim": 1872,
    "po": 1873,
    "alg": 1874,
    "algor": 1875,
    "algorith": 1876,
    "algorithm": 1877,
    "uer": 1878,
    "uergen": 1879,
    "Backpropag": 1880,
    "Backpropagation": 1881,
    "ift": 1882,
    "329": 1883,
    "Ph": 1884,
    "Us": 1885,
    "1989": 1886,
    "itecture": 1887,
    "Cun": 1888,
    "eli": 1889,
    "quence": 1890,
    "255": 1891,
    "Res": 1892,
    "earch": 1893,
    "35": 1894,
    "202409": 1895,
    "vis": 1896,
    "Ci": 1897,
    "volution": 1898,
    "ikip": 1899,
    "ikipedia": 1900,
    "ah": 1901,
    "ones": 1902,
    "出典": 1903,
    "フリー": 1904,
    "ート": 1905,
    "模倣": 1906,
    "artificial": 1907,
    "あるい": 1908,
    "あるいは": 1909,
    "部分": 1910,
    "参照": 1911,
    "シナ": 1912,
    "シナプ": 1913,
    "シナプス": 1914,
    "変化": 1915,
    "いくつ": 1916,
    "たと": 1917,
    "たとえば": 1918,
    "に対して": 1919,
    "行う": 1920,
    "実際": 1921,
    "かかる": 1922,
    "sig": 1923,
    "sigma": 1924,
    "}}{\\": 1925,
    "}})}": 1926,
    "ラス": 1927,
    "議論": 1928,
    "フィ": 1929,
    "命令": 1930,
    "組み": 1931,
    "システ": 1932,
    "システム": 1933,
    "せる": 1934,
    "応用": 1935,
    "1956": 1936,
    "MIT": 1937,
    "ローゼ": 1938,
    "ローゼン": 1939,
    "ローゼンブ": 1940,
    "ローゼンブラ": 1941,
    "ローゼンブラット": 1942,
    "しかし": 1943,
    "能力": 1944,
    "実用": 1945,
    "一般": 1946,
    "記述": 1947,
    "ごと": 1948,
    "不可能": 1949,
    "II": 1950,
    "1966": 1951,
    "ud": 1952,
    "1967": 1953,
    "当時": 1954,
    "発展": 1955,
    "256": 1956,
    "Ki": 1957,
    "1976": 1958,
    "よく": 1959,
    "ダウ": 1960,
    "ダウン": 1961,
    "cor": 1962,
    "文章": 1963,
    "1994": 1964,
    "サンプ": 1965,
    "サンプリング": 1966,
    "アーキ": 1967,
    "アーキテク": 1968,
    "アーキテクチャ": 1969,
    "コード": 1970,
    "aptive": 1971,
    "American": 1972,
    "Psy": 1973,
    "Psych": 1974,
    "Psycholog": 1975,
    "感情": 1976,
    "1990": 1977,
    "ユル": 1978,
    "ユルゲ": 1979,
    "ユルゲン・": 1980,
    "ユルゲン・シュミットフーバー": 1981,
    "LS": 1982,
    "特徴": 1983,
    "さい": 1984,
    "コンテ": 1985,
    "コンテスト": 1986,
    "フォーマ": 1987,
    "規模": 1988,
    "PU": 1989,
    "2013": 1990,
    "発生": 1991,
    "数値": 1992,
    "seq": 1993,
    "All": 1994,
    "高速": 1995,
    "ーム": 1996,
    "ward": 1997,
    "信号": 1998,
    "ies": 1999,
    "Generative": 2000,
    "Pi": 2001,
    "Wave": 2002,
    "bo": 2003,
    "Aug": 2004,
    "Comp": 2005,
    "分散": 2006,
    "up": 2007,
    "gra": 2008,
    "最適": 2009,
    "Xavi": 2010,
    "Xavier": 2011,
    "Glorot": 2012,
    "tan": 2013,
    ",{\\": 2014,
    "ele": 2015,
    "elh": 2016,
    "elhart": 2017,
    "ライブ": 2018,
    "ライブラ": 2019,
    "ライブラリ": 2020,
    "activation": 2021,
    "Quantization": 2022,
    "ake": 2023,
    "ant": 2024,
    "cir": 2025,
    "circ": 2026,
    "}}}&": 2027,
    ")^{\\": 2028,
    "Man": 2029,
    "eld": 2030,
    "Method": 2031,
    "ler": 2032,
    "63": 2033,
    "ret": 2034,
    "Linear": 2035,
    "Ann": 2036,
    "Stati": 2037,
    "Statis": 2038,
    "sti": 2039,
    "2024101222": 2040,
    "pr": 2041,
    "Univers": 2042,
    "University": 2043,
    "Press": 2044,
    "He": 2045,
    "49": 2046,
    "Org": 2047,
    "Sim": 2048,
    "igit": 2049,
    "Mach": 2050,
    "Model": 2051,
    "age": 2052,
    "37": 2053,
    "Predic": 2054,
    "oral": 2055,
    "AAJ": 2056,
    "ffic": 2057,
    "1177": 2058,
    "rib": 2059,
    "Pet": 2060,
    "英語": 2061,
    "ppro": 2062,
    "uc": 2063,
    "dynam": 2064,
    "La": 2065,
    "self": 2066,
    "70": 2067,
    "system": 2068,
    "net": 2069,
    "ich": 2070,
    "ctions": 2071,
    "Mar": 2072,
    "ry": 2073,
    "cc": 2074,
    "Fuk": 2075,
    "Fukus": 2076,
    "Fukush": 2077,
    "Fukushima": 2078,
    "fe": 2079,
    "ulti": 2080,
    "Ac": 2081,
    "matic": 2082,
    "\".": 2083,
    "ibni": 2084,
    "ibniz": 2085,
    "hard": 2086,
    "364": 2087,
    "doi": 2088,
    "Andre": 2089,
    "Volum": 2090,
    "Volume": 2091,
    "Sep": 2092,
    "exp": 2093,
    ".,": 2094,
    "iss": 2095,
    "Hoch": 2096,
    "wit": 2097,
    "mit": 2098,
    "学会": 2099,
    "Dav": 2100,
    "David": 2101,
    "533": 2102,
    "323": 2103,
    "shift": 2104,
    "ication": 2105,
    "39": 2106,
    "Wei": 2107,
    "architecture": 2108,
    "dr": 2109,
    "drive": 2110,
    "file": 2111,
    "usp": 2112,
    "shar": 2113,
    "sharing": 2114,
    "LeCun": 2115,
    "Yann": 2116,
    "appl": 2117,
    "Ap": 2118,
    "65": 2119,
    "icro": 2120,
    "59": 2121,
    "secon": 2122,
    "second": 2123,
    "secondary": 2124,
    "structure": 2125,
    "Jak": 2126,
    "Jakob": 2127,
    "iee": 2128,
    "NA": 2129,
    "107": 2130,
    "Gome": 2131,
    "Gomez": 2132,
    "use": 2133,
    "oug": 2134,
    "iter": 2135,
    "ult": 2136,
    "ong": 2137,
    "ony": 2138,
    "su": 2139,
    "Gamb": 2140,
    "Gambard": 2141,
    "Gambardel": 2142,
    "Gambardella": 2143,
    "Cires": 2144,
    "Ciresan": 2145,
    "Performance": 2146,
    "Convolution": 2147,
    "cont": 2148,
    "Jun": 2149,
    "June": 2150,
    "Jian": 2151,
    "Vas": 2152,
    "Vasw": 2153,
    "Vaswani": 2154,
    "Transformers": 2155,
    "wh": 2156,
    "glorot": 2157,
    "activations": 2158,
    "quantize": 2159,
    "ディ": 2160,
    "ディア": 2161,
    "キング": 2162,
    "ます": 2163,
    "サー": 2164,
    "メカ": 2165,
    "メカニ": 2166,
    "メカニズム": 2167,
    "人間": 2168,
    "説明": 2169,
    "がっ": 2170,
    "ただ": 2171,
    "強度": 2172,
    "作ら": 2173,
    "影響": 2174,
    "だけ": 2175,
    "weights": 2176,
    "しい": 2177,
    "減少": 2178,
    "多数": 2179,
    "繰り": 2180,
    "繰り返": 2181,
    "数学": 2182,
    "なお": 2183,
    "相互": 2184,
    "さま": 2185,
    "さまざ": 2186,
    "さまざま": 2187,
    "構造": 2188,
    "入出力": 2189,
    "に関": 2190,
    "({\\": 2191,
    "クラス": 2192,
    "タス": 2193,
    "タスク": 2194,
    "当初": 2195,
    "200": 2196,
    "以上": 2197,
    "基づ": 2198,
    "最も": 2199,
    "フィードフォ": 2200,
    "フィードフォワード": 2201,
    "持つ": 2202,
    "合計": 2203,
    "コンピュータ": 2204,
    "プロセ": 2205,
    "実行": 2206,
    "一方": 2207,
    "ノイ": 2208,
    "マン": 2209,
    "なり": 2210,
    "考察": 2211,
    "アプロ": 2212,
    "アプロー": 2213,
    "アプローチ": 2214,
    "当て": 2215,
    "1954": 2216,
    "ファー": 2217,
    "ファーリー": 2218,
    "クラー": 2219,
    "クラーク": 2220,
    "作成": 2221,
    "ジョ": 2222,
    "彼ら": 2223,
    "大幅": 2224,
    "増加": 2225,
    "適応": 2226,
    "隠れ": 2227,
    "なわ": 2228,
    "行わ": 2229,
    "アレ": 2230,
    "ネン": 2231,
    "なし": 2232,
    "abor": 2233,
    "日本": 2234,
    "幾何": 2235,
    "出版": 2236,
    "スカ": 2237,
    "Dud": 2238,
    "Duda": 2239,
    "手書": 2240,
    "手書き": 2241,
    "識別": 2242,
    "ハード": 2243,
    "ハードウェ": 2244,
    "ハードウェア": 2245,
    "限界": 2246,
    "東京": 2247,
    "東京大": 2248,
    "東京大学": 2249,
    "KiB": 2250,
    "述べ": 2251,
    "167": 2252,
    "propagating": 2253,
    "自動": 2254,
    "スキ": 2255,
    "スキー": 2256,
    "グラ": 2257,
    "特に": 2258,
    "複数": 2259,
    "出さ": 2260,
    "サイ": 2261,
    "活動": 2262,
    "過去": 2263,
    "Psychologist": 2264,
    "関係": 2265,
    "イア": 2266,
    "シーケンス": 2267,
    "事前": 2268,
    "Pre": 2269,
    "1993": 2270,
    "解決": 2271,
    "LST": 2272,
    "LSTM": 2273,
    "ジェフリー": 2274,
    "ヒン": 2275,
    "ヒント": 2276,
    "ヒントン": 2277,
    "ディープ・": 2278,
    "・ネットワーク": 2279,
    "もともと": 2280,
    "小さい": 2281,
    "作業": 2282,
    "パフォーマ": 2283,
    "パフォーマンス": 2284,
    "近づ": 2285,
    "Visual": 2286,
    "allen": 2287,
    "allenge": 2288,
    "概念": 2289,
    "Di": 2290,
    "デコーダ": 2291,
    "やす": 2292,
    "やすい": 2293,
    "ース": 2294,
    "しく": 2295,
    "Is": 2296,
    "You": 2297,
    "Need": 2298,
    "ert": 2299,
    "forward": 2300,
    "BF": 2301,
    "多い": 2302,
    "Self": 2303,
    "自然": 2304,
    "使わ": 2305,
    "複素数": 2306,
    "速度": 2307,
    "母集": 2308,
    "母集団": 2309,
    "gressive": 2310,
    "系列": 2311,
    "条件": 2312,
    "自体": 2313,
    "Advers": 2314,
    "Adversar": 2315,
    "Adversarial": 2316,
    "ator": 2317,
    "IC": 2318,
    "NV": 2319,
    "もたら": 2320,
    "put": 2321,
    "BN": 2322,
    "詳細": 2323,
    "それぞ": 2324,
    "それぞれ": 2325,
    "省略": 2326,
    "tanh": 2327,
    "(-": 2328,
    "(-{\\": 2329,
    "}}}}},{\\": 2330,
    "}}}}})}": 2331,
    "out": 2332,
    "PyT": 2333,
    "PyTor": 2334,
    "PyTorch": 2335,
    "pm": 2336,
    "anal": 2337,
    "resh": 2338,
    "reshold": 2339,
    "起こ": 2340,
    "基本": 2341,
    "ibr": 2342,
    "反復": 2343,
    "IN": 2344,
    "INT": 2345,
    "効果": 2346,
    "キャッ": 2347,
    "キャッシュ": 2348,
    "QD": 2349,
    "QDQ": 2350,
    "atic": 2351,
    "Dynam": 2352,
    "数式": 2353,
    "通り": 2354,
    "left": 2355,
    "right": 2356,
    "\\{\\": 2357,
    "ava": 2358,
    "つく": 2359,
    "つくる": 2360,
    "2008": 2361,
    "Rel": 2362,
    "ares": 2363,
    "Ste": 2364,
    "1981": 2365,
    "Inv": 2366,
    "ention": 2367,
    "45": 2368,
    "sch": 2369,
    "rd": 2370,
    ".).": 2371,
    "Pr": 2372,
    "enti": 2373,
    "Mod": 2374,
    "Statistics": 2375,
    "deta": 2376,
    "history": 2377,
    "Dece": 2378,
    "December": 2379,
    "ide": 2380,
    "erv": 2381,
    "tin": 2382,
    "Mathematical": 2383,
    "259": 2384,
    "Stu": 2385,
    "34": 2386,
    "41": 2387,
    "97814": 2388,
    "9781400": 2389,
    "978140088": 2390,
    "97814008826": 2391,
    "9781400882618": 2392,
    "anization": 2393,
    "Be": 2394,
    "York": 2395,
    "Wi": 2396,
    "Wiley": 2397,
    "anizing": 2398,
    "igital": 2399,
    "Theory": 2400,
    "che": 2401,
    "Hol": 2402,
    "land": 2403,
    "Ros": 2404,
    "Rosen": 2405,
    "Rosenb": 2406,
    "Rosenbla": 2407,
    "Rosenblatt": 2408,
    "istic": 2409,
    "Review": 2410,
    "004": 2411,
    "erb": 2412,
    "erbos": 2413,
    "ysis": 2414,
    "AC": 2415,
    "Fran": 2416,
    "aran": 2417,
    "ik": 2418,
    "Soci": 2419,
    "Peter": 2420,
    "Intell": 2421,
    "Intellig": 2422,
    "Intelligence": 2423,
    "ates": 2424,
    "peop": 2425,
    "people": 2426,
    "Iv": 2427,
    "Ivak": 2428,
    "Ivakh": 2429,
    "Ivakhn": 2430,
    "Ivakhnenk": 2431,
    "Ivakhnenko": 2432,
    "444": 2433,
    "March": 2434,
    "ms": 2435,
    "0005": 2436,
    "98": 2437,
    "pii": 2438,
    "systems": 2439,
    "TS": 2440,
    "320": 2441,
    "articles": 2442,
    "586": 2443,
    "ari": 2444,
    "Fo": 2445,
    "cri": 2446,
    "unctions": 2447,
    "Ele": 2448,
    "sky": 2449,
    "1969": 2450,
    "3022": 2451,
    "ature": 2452,
    "SC": 2453,
    "Son": 2454,
    "ata": 2455,
    "Applied": 2456,
    "mach": 2457,
    "oc": 2458,
    "Oc": 2459,
    "trans": 2460,
    "Infor": 2461,
    "matica": 2462,
    "paper": 2463,
    "Leibniz": 2464,
    "Fre": 2465,
    "ted": 2466,
    "rom": 2467,
    "tes": 2468,
    "Op": 2469,
    "90": 2470,
    "Gradient": 2471,
    "mple": 2472,
    "ivative": 2473,
    "791": 2474,
    "ented": 2475,
    "IS": 2476,
    "bi": 2477,
    "52": 2478,
    "ula": 2479,
    "round": 2480,
    "rounding": 2481,
    "local": 2482,
    "errors": 2483,
    "sin": 2484,
    "ID": 2485,
    "IA": 2486,
    "vance": 2487,
    "vances": 2488,
    "linear": 2489,
    "ensi": 2490,
    "optimization": 2491,
    "762": 2492,
    "press": 2493,
    "dire": 2494,
    "direct": 2495,
    "ts": 2496,
    "Rum": 2497,
    "Rumelhart": 2498,
    "ill": 2499,
    "536": 2500,
    "Nat": 2501,
    "Natur": 2502,
    "Jan": 2503,
    "Janu": 2504,
    "January": 2505,
    "Neo": 2506,
    "Neocog": 2507,
    "Neocogn": 2508,
    "Neocognit": 2509,
    "Neocognitron": 2510,
    "posi": 2511,
    "position": 2512,
    "mech": 2513,
    "mechan": 2514,
    "mechanis": 2515,
    "aff": 2516,
    "Jap": 2517,
    "Japan": 2518,
    "onem": 2519,
    "oneme": 2520,
    "Insti": 2521,
    "Instit": 2522,
    "ute": 2523,
    "mm": 2524,
    "inv": 2525,
    "invar": 2526,
    "invarian": 2527,
    "invariant": 2528,
    "its": 2529,
    "andw": 2530,
    "andwri": 2531,
    "andwritten": 2532,
    "ick": 2533,
    "yann": 2534,
    "exd": 2535,
    "exdb": 2536,
    "alle": 2537,
    "allel": 2538,
    "istrib": 2539,
    "istribut": 2540,
    "istributed": 2541,
    "processing": 2542,
    "Wo": 2543,
    "Tk": 2544,
    "uman": 2545,
    "zed": 2546,
    "ust": 2547,
    "642": 2548,
    "glo": 2549,
    "glob": 2550,
    "tein": 2551,
    "models": 2552,
    "ology": 2553,
    "run": 2554,
    "tter": 2555,
    "ces": 2556,
    "Sequence": 2557,
    "2554": 2558,
    "San": 2559,
    "ag": 2560,
    "Rober": 2561,
    "Robert": 2562,
    "Si": 2563,
    "her": 2564,
    "2019": 2565,
    "FK": 2566,
    "FKI": 2567,
    "148": 2568,
    "idsi": 2569,
    "idsia": 2570,
    "/~": 2571,
    "juergen": 2572,
    "Hochre": 2573,
    "Hochreiter": 2574,
    "nets": 2575,
    "),": 2576,
    "Cog": 2577,
    "Cogni": 2578,
    "super": 2579,
    "supervis": 2580,
    "supervised": 2581,
    "31": 2582,
    "Mei": 2583,
    "Meier": 2584,
    "High": 2585,
    "Convolutional": 2586,
    "210": 2587,
    "Cur": 2588,
    "Ass": 2589,
    "ges": 2590,
    "Multi": 2591,
    "classification": 2592,
    "he": 2593,
    "Kar": 2594,
    "Andrew": 2595,
    "research": 2596,
    "Non": 2597,
    "pati": 2598,
    "patio": 2599,
    "ability": 2600,
    "row": 2601,
    "mpro": 2602,
    "Sur": 2603,
    "Machine": 2604,
    "proceedings": 2605,
    "mlr": 2606,
    "Kaim": 2607,
    "Kaiming": 2608,
    "Xi": 2609,
    "Xiang": 2610,
    "Xiangy": 2611,
    "Xiangyu": 2612,
    "Ren": 2613,
    "Shao": 2614,
    "Shaoq": 2615,
    "Shaoqing": 2616,
    "Sun": 2617,
    "Rec": 2618,
    "Recti": 2619,
    "Rectifi": 2620,
    "Ash": 2621,
    "Ashis": 2622,
    "Ashish": 2623,
    "Shaze": 2624,
    "Shazeer": 2625,
    "Noam": 2626,
    "Parm": 2627,
    "Parmar": 2628,
    "Niki": 2629,
    "Usz": 2630,
    "Uszk": 2631,
    "Uszkore": 2632,
    "Uszkoreit": 2633,
    "Jones": 2634,
    "Ll": 2635,
    "Llion": 2636,
    "Aid": 2637,
    "Aidan": 2638,
    "Kais": 2639,
    "Kaiser": 2640,
    "ukas": 2641,
    "ukasz": 2642,
    "Polos": 2643,
    "Polosuk": 2644,
    "Polosukh": 2645,
    "Polosukhin": 2646,
    "Ill": 2647,
    "Illia": 2648,
    "olar": 2649,
    "angu": 2650,
    "has": 2651,
    "torch": 2652,
    "that": 2653,
    "ニューロ": 2654,
    "param": 2655,
    "paramet": 2656,
    "parameters": 2657,
    "performance": 2658,
    "ONN": 2659,
    "ONNX": 2660,
    "time": 2661,
    "リンク": 2662,
    "Wikipedia": 2663,
    "Bah": 2664,
    "ск": 2665,
    "cha": 2666,
    "スパイキング": 2667,
    "スパイキングニューラルネットワーク": 2668,
    "マシ": 2669,
    "マイ": 2670,
    "広く": 2671,
    "数理": 2672,
    "対象": 2673,
    "理解": 2674,
    "そも": 2675,
    "どの": 2676,
    "しよ": 2677,
    "ので": 2678,
    "互い": 2679,
    "互いに": 2680,
    "endr": 2681,
    "endrite": 2682,
    "突起": 2683,
    "受け": 2684,
    "受け取り": 2685,
    "そして": 2686,
    "拡大": 2687,
    "いただ": 2688,
    "いただき": 2689,
    "たい": 2690,
    "外的": 2691,
    "刺激": 2692,
    "反応": 2693,
    "ちょ": 2694,
    "ちょく": 2695,
    "がり": 2696,
    "ゆく": 2697,
    "過程": 2698,
    "まっ": 2699,
    "ほど": 2700,
    "正しい": 2701,
    "オレン": 2702,
    "オレンジ": 2703,
    "oran": 2704,
    "orange": 2705,
    "程度": 2706,
    "フィードバック": 2707,
    "提示": 2708,
    "設定": 2709,
    "とり": 2710,
    "種類": 2711,
    "階層": 2712,
    "選択": 2713,
    "提唱": 2714,
    "後続": 2715,
    ")=\\": 2716,
    "メン": 2717,
    "挙げ": 2718,
    "連続": 2719,
    "任意": 2720,
    "証明": 2721,
    "基づい": 2722,
    "フィードフォワードニューラルネットワーク": 2723,
    "単一": 2724,
    "直接": 2725,
    "目標": 2726,
    "95": 2727,
    "デジ": 2728,
    "デジタ": 2729,
    "デジタル": 2730,
    "プロセッ": 2731,
    "プロセッサ": 2732,
    "クセ": 2733,
    "動作": 2734,
    "焦点": 2735,
    "もう": 2736,
    "知能": 2737,
    "レート": 2738,
    "ランド": 2739,
    "ビット": 2740,
    "米国": 2741,
    "資金": 2742,
    "提供": 2743,
    "ジョセ": 2744,
    "ジョセフ": 2745,
    "装置": 2746,
    "カー": 2747,
    "に関する": 2748,
    "貢献": 2749,
    "1962": 2750,
    "ロック": 2751,
    "引用": 2752,
    "すなわ": 2753,
    "すなわち": 2754,
    "ブレ": 2755,
    "ルー": 2756,
    "イヴ": 2757,
    "イヴァ": 2758,
    "ネンコ": 2759,
    "深い": 2760,
    "多項": 2761,
    "多項式": 2762,
    "ディープネットワーク": 2763,
    "分析": 2764,
    "セット": 2765,
    "刈り": 2766,
    "または": 2767,
    "でも": 2768,
    "斎藤": 2769,
    "日本語": 2770,
    "修士": 2771,
    "1968": 2772,
    "スカラー": 2773,
    "文字": 2774,
    ")}\\": 2775,
    "max": 2776,
    "\\{": 2777,
    "1951": 2778,
    "よる": 2779,
    "その後": 2780,
    "ハイ": 2781,
    "エンド": 2782,
    "急激": 2783,
    "原因": 2784,
    "コンピューター": 2785,
    "性能": 2786,
    "すぎ": 2787,
    "5020": 2788,
    "ReL": 2789,
    "ReLU": 2790,
    "・ヴ": 2791,
    "・ヴィ": 2792,
    "ッツ": 2793,
    "では": 2794,
    "トップ": 2795,
    "トップダウン": 2796,
    "リバー": 2797,
    "リバース": 2798,
    "リバース・": 2799,
    "リバース・モ": 2800,
    "リバース・モード": 2801,
    "proced": 2802,
    "procedure": 2803,
    "手順": 2804,
    "用語": 2805,
    "初め": 2806,
    "初めて": 2807,
    "後半": 2808,
    "にて": 2809,
    "マー": 2810,
    "現代": 2811,
    "形式": 2812,
    "フスキー": 2813,
    "ール": 2814,
    "まだ": 2815,
    "定着": 2816,
    "とう": 2817,
    "1979": 2818,
    "福島": 2819,
    "邦彦": 2820,
    "プー": 2821,
    "プーリング": 2822,
    "1987": 2823,
    "アレック": 2824,
    "アレックス": 2825,
    "DNN": 2826,
    "チャン": 2827,
    "数字": 2828,
    "スケ": 2829,
    "加え": 2830,
    "1943": 2831,
    "受ける": 2832,
    "まり": 2833,
    "クロ": 2834,
    "クロス": 2835,
    "クロスバー": 2836,
    "アレイ": 2837,
    "Cro": 2838,
    "Adaptive": 2839,
    "接続": 2840,
    "決定": 2841,
    "結果": 2842,
    "心理": 2843,
    "同時": 2844,
    "機能": 2845,
    "ニューラルヒ": 2846,
    "ニューラルヒスト": 2847,
    "ニューラルヒストリー": 2848,
    "ニューラルヒストリーコン": 2849,
    "ニューラルヒストリーコンプ": 2850,
    "ニューラルヒストリーコンプレッ": 2851,
    "ニューラルヒストリーコンプレッサー": 2852,
    "1985": 2853,
    "ディープ・ビ": 2854,
    "ディープ・ビリー": 2855,
    "ディープ・ビリーフ": 2856,
    "ディープ・ビリーフ・ネットワーク": 2857,
    "同じ": 2858,
    "抽出": 2859,
    "し込": 2860,
    "2009": 2861,
    "レベル": 2862,
    "2011": 2863,
    "視覚": 2864,
    "達成": 2865,
    "従来": 2866,
    "示し": 2867,
    "Challenge": 2868,
    "アン": 2869,
    "VG": 2870,
    "GPU": 2871,
    "特性": 2872,
    "損失": 2873,
    "Style": 2874,
    "StyleGAN": 2875,
    "DA": 2876,
    "able": 2877,
    "テン": 2878,
    "追加": 2879,
    "Seq": 2880,
    "考え": 2881,
    "固定": 2882,
    "デコーダー": 2883,
    "エンコーダ": 2884,
    "Transformer": 2885,
    "ブーム": 2886,
    "フィン": 2887,
    "1964": 2888,
    "Weng": 2889,
    "Wengert": 2890,
    "代表": 2891,
    "全く": 2892,
    "Feed": 2893,
    "総称": 2894,
    "しば": 2895,
    "対比": 2896,
    "様式": 2897,
    "持た": 2898,
    "すべ": 2899,
    "すべて": 2900,
    "もつ": 2901,
    "シーケン": 2902,
    "シーケンシ": 2903,
    "シーケンシャ": 2904,
    "シーケンシャル": 2905,
    "繰り返す": 2906,
    "比較": 2907,
    "容易": 2908,
    "上限": 2909,
    "Regress": 2910,
    "Regression": 2911,
    "マップ": 2912,
    "一種": 2913,
    "リカレントニューラルネット": 2914,
    "全て": 2915,
    "持っ": 2916,
    "有効": 2917,
    "機構": 2918,
    "言語": 2919,
    "比べ": 2920,
    "乱数": 2921,
    "考える": 2922,
    "スパイク": 2923,
    "範囲": 2924,
    "逐次": 2925,
    "向け": 2926,
    "チップ": 2927,
    "波動": 2928,
    "振幅": 2929,
    "回転": 2930,
    "持ち": 2931,
    "レクト": 2932,
    "詳しく": 2933,
    "sim": 2934,
    "})=\\": 2935,
    "prod": 2936,
    "}^{": 2937,
    "}|": 2938,
    "_{<": 2939,
    "utore": 2940,
    "utoregressive": 2941,
    "xel": 2942,
    "WaveNet": 2943,
    "WaveRNN": 2944,
    "付け": 2945,
    "VA": 2946,
    "Generator": 2947,
    "Big": 2948,
    "flow": 2949,
    "ICE": 2950,
    "real": 2951,
    "グラフ": 2952,
    "組み合": 2953,
    "組み合わ": 2954,
    "組み合わせ": 2955,
    "dle": 2956,
    "Complex": 2957,
    "atch": 2958,
    "レイヤー": 2959,
    "おこ": 2960,
    "チャネ": 2961,
    "チャネル": 2962,
    "たり": 2963,
    "通す": 2964,
    "Ada": 2965,
    "ta": 2966,
    "命名": 2967,
    "手作業": 2968,
    "変形": 2969,
    "通常": 2970,
    "良い": 2971,
    "gradient": 2972,
    "収束": 2973,
    "715": 2974,
    "cosh": 2975,
    "^{-": 2976,
    "}(": 2977,
    "6584": 2978,
    "65848": 2979,
    "シャッ": 2980,
    "シャッフ": 2981,
    "シャッフル": 2982,
    "}{": 2983,
    "(\\": 2984,
    "analog": 2985,
    "threshold": 2986,
    "element": 2987,
    "Rem": 2988,
    "起こす": 2989,
    "消失": 2990,
    "とこ": 2991,
    "ところ": 2992,
    "単位": 2993,
    "簡単": 2994,
    "例えば": 2995,
    "Intel": 2996,
    "Libr": 2997,
    "Library": 2998,
    "技法": 2999,
    "マル": 3000,
    "マルチ": 3001,
    "マルチスレッド": 3002,
    "きい": 3003,
    "デルタ": 3004,
    "En": 3005,
    "bit": 3006,
    "FP": 3007,
    "生み": 3008,
    "生み出さ": 3009,
    "容量": 3010,
    "もたらす": 3011,
    "Static": 3012,
    "）:": 3013,
    "算出": 3014,
    "DeQuantize": 3015,
    "quant": 3016,
    "\\|": 3017,
    "align": 3018,
    "aligned": 3019,
    "}}}&=\\": 3020,
    "((": 3021,
    "'(": 3022,
    "})\\": 3023,
    "}\\\\{\\": 3024,
    "}}}&=": 3025,
    "Pyth": 3026,
    "Python": 3027,
    "ランダ": 3028,
    "ランダム": 3029,
    "エポ": 3030,
    "エポック": 3031,
    "形成": 3032,
    "巨大": 3033,
    "Char": 3034,
    "Ag": 3035,
    "サイエ": 3036,
    "サイエンス": 3037,
    "はじ": 3038,
    "はじめ": 3039,
    "1996": 3040,
    "平野": 3041,
    "廣美": 3042,
    "++": 3043,
    "Java": 3044,
    "パーソ": 3045,
    "パーソナル": 3046,
    "メディア": 3047,
    "株式": 3048,
    "株式会": 3049,
    "株式会社": 3050,
    "27": 3051,
    "89": 3052,
    "field": 3053,
    "Mer": 3054,
    "Merri": 3055,
    "Least": 3056,
    "Squ": 3057,
    "Squares": 3058,
    "Sti": 3059,
    "Stig": 3060,
    "Stigler": 3061,
    "Steph": 3062,
    "Stephen": 3063,
    "1214": 3064,
    "aos": 3065,
    "Applic": 3066,
    "Applications": 3067,
    "ated": 3068,
    "Modern": 3069,
    "detail": 3070,
    "details": 3071,
    "Mc": 3072,
    "War": 3073,
    "ren": 3074,
    "tts": 3075,
    "alter": 3076,
    "ous": 3077,
    "oph": 3078,
    "ysics": 3079,
    "024": 3080,
    "02478": 3081,
    "02478259": 3082,
    "202410122219": 3083,
    "lin": 3084,
    "pring": 3085,
    "pringer": 3086,
    "Represent": 3087,
    "ents": 3088,
    "toma": 3089,
    "Annals": 3090,
    "Mathematics": 3091,
    "Studi": 3092,
    "Studies": 3093,
    "Prin": 3094,
    "ton": 3095,
    "1908": 3096,
    "002": 3097,
    "onald": 3098,
    "Organization": 3099,
    "Beh": 3100,
    "Behavi": 3101,
    "Far": 3102,
    "Farley": 3103,
    "Cl": 3104,
    "Organizing": 3105,
    "IR": 3106,
    "IRE": 3107,
    "TIT": 3108,
    "105": 3109,
    "68": 3110,
    "Holland": 3111,
    "ass": 3112,
    "action": 3113,
    "digital": 3114,
    "computer": 3115,
    "ines": 3116,
    "Stor": 3117,
    "Werbos": 3118,
    "ond": 3119,
    "To": 3120,
    "Prediction": 3121,
    "Anal": 3122,
    "Analysis": 3123,
    "Sciences": 3124,
    "Frank": 3125,
    "Cor": 3126,
    "Corn": 3127,
    "Cornell": 3128,
    "Aer": 3129,
    "Aeron": 3130,
    "Aeronau": 3131,
    "Aeronautical": 3132,
    "Labor": 3133,
    "Laborat": 3134,
    "Laboratory": 3135,
    "Perceptrons": 3136,
    "Cont": 3137,
    "96": 3138,
    "005": 3139,
    "Report": 3140,
    "Bu": 3141,
    "Ru": 3142,
    "Russ": 3143,
    "Norv": 3144,
    "Norvig": 3145,
    "Appro": 3146,
    "604": 3147,
    "cip": 3148,
    "Spar": 3149,
    "Fore": 3150,
    "Forec": 3151,
    "Forecas": 3152,
    "Forecasting": 3153,
    "sevi": 3154,
    "sevier": 3155,
    "Pub": 3156,
    "Publis": 3157,
    "Publish": 3158,
    "000": 3159,
    "AAAA": 3160,
    "1098": 3161,
    "900": 3162,
    "202408": 3163,
    "rie": 3164,
    "ynom": 3165,
    "ynomial": 3166,
    "complex": 3167,
    "MC": 3168,
    "201708": 3169,
    "Amari": 3170,
    "adaptive": 3171,
    "Det": 3172,
    "Functions": 3173,
    "Elect": 3174,
    "Computers": 3175,
    "EC": 3176,
    "302": 3177,
    "Min": 3178,
    "Computational": 3179,
    "262": 3180,
    "コンピューテ": 3181,
    "コンピューティ": 3182,
    "コンピューティング": 3183,
    "ky": 3184,
    "kyo": 3185,
    "IT": 3186,
    "HP": 3187,
    "HPC": 3188,
    "ext": 3189,
    "bor": 3190,
    "appro": 3191,
    "Harm": 3192,
    "Ra": 3193,
    "Quoc": 3194,
    "Octo": 3195,
    "October": 3196,
    "fl": 3197,
    "transfer": 3198,
    "Informatica": 3199,
    "led": 3200,
    "elm": 3201,
    "uscri": 3202,
    "uscript": 3203,
    "uscripts": 3204,
    "from": 3205,
    "uel": 3206,
    "Hist": 3207,
    "Notes": 3208,
    "publish": 3209,
    "Hen": 3210,
    "optimal": 3211,
    "derivative": 3212,
    "val": 3213,
    "valu": 3214,
    "1145": 3215,
    "355": 3216,
    "355586": 3217,
    "364791": 3218,
    "dl": 3219,
    "acm": 3220,
    "riew": 3221,
    "riewan": 3222,
    "riewank": 3223,
    "Wh": 3224,
    "Who": 3225,
    "Invented": 3226,
    "Optim": 3227,
    "Do": 3228,
    "Ext": 3229,
    "MP": 3230,
    "andre": 3231,
    "Lin": 3232,
    "Linn": 3233,
    "representation": 3234,
    "cumula": 3235,
    "Tay": 3236,
    "Taylor": 3237,
    "expan": 3238,
    "expansi": 3239,
    "expansion": 3240,
    "bf": 3241,
    "313": 3242,
    "Bor": 3243,
    "computation": 3244,
    "Juergen": 3245,
    "Swit": 3246,
    "non": 3247,
    "ensitiv": 3248,
    "ensitivity": 3249,
    "modeling": 3250,
    "770": 3251,
    "Septe": 3252,
    "September": 3253,
    "erson": 3254,
    "Jam": 3255,
    "James": 3256,
    "Tal": 3257,
    "Talking": 3258,
    "Oral": 3259,
    "755": 3260,
    "Paul": 3261,
    "Joh": 3262,
    "John": 3263,
    "Sons": 3264,
    "representations": 3265,
    "1038": 3266,
    "323533": 3267,
    "2021": 3268,
    "nature": 3269,
    "new": 3270,
    "Pat": 3271,
    "sciencedirect": 3272,
    "article": 3273,
    "abs": 3274,
    "mechanism": 3275,
    "unaff": 3276,
    "unaffe": 3277,
    "unaffect": 3278,
    "unaffected": 3279,
    "neun": 3280,
    "neunet": 3281,
    "Waib": 3282,
    "Waibel": 3283,
    "Phoneme": 3284,
    "Using": 3285,
    "Ti": 3286,
    "Time": 3287,
    "Mee": 3288,
    "Meeting": 3289,
    "Institute": 3290,
    "ander": 3291,
    "Sign": 3292,
    "Signal": 3293,
    "339": 3294,
    "optical": 3295,
    "Es": 3296,
    "Handwritten": 3297,
    "Bott": 3298,
    "Bottou": 3299,
    "1998": 3300,
    "applied": 3301,
    "232": 3302,
    "Par": 3303,
    "Parallel": 3304,
    "distributed": 3305,
    "inter": 3306,
    "ApO": 3307,
    "ApOpt": 3308,
    "790": 3309,
    "1364": 3310,
    "AO": 3311,
    "20170": 3312,
    "206": 3313,
    "211": 3314,
    "202406": 3315,
    "ection": 3316,
    "micro": 3317,
    "Med": 3318,
    "Terr": 3319,
    "Terrence": 3320,
    "Sej": 3321,
    "Sejno": 3322,
    "Sejnow": 3323,
    "Sejnowski": 3324,
    "ular": 3325,
    "protein": 3326,
    "ourn": 3327,
    "mo": 3328,
    "Boh": 3329,
    "Bohr": 3330,
    "Ben": 3331,
    "Ol": 3332,
    "Chr": 3333,
    "Chris": 3334,
    "better": 3335,
    "than": 3336,
    "Nove": 3337,
    "November": 3338,
    "1972": 3339,
    "ieeexp": 3340,
    "ieeexplor": 3341,
    "ieeexplore": 3342,
    "ieee": 3343,
    "col": 3344,
    "nl": 3345,
    "Jul": 3346,
    "aj": 3347,
    "10738": 3348,
    "10738584": 3349,
    "1073858423": 3350,
    "107385842311": 3351,
    "10738584231179": 3352,
    "107385842311799": 3353,
    "10738584231179932": 3354,
    "rein": 3355,
    "reinfor": 3356,
    "reinforce": 3357,
    "reinforcement": 3358,
    "Research": 3359,
    "ISBN": 3360,
    "Techn": 3361,
    "ferences": 3362,
    "need": 3363,
    "ough": 3364,
    "emo": 3365,
    "emotion": 3366,
    "dow": 3367,
    "down": 3368,
    "downlo": 3369,
    "download": 3370,
    "unk": 3371,
    "TR": 3372,
    "Muni": 3373,
    "Munich": 3374,
    "20240914": 3375,
    "202409141": 3376,
    "20240914162": 3377,
    "202409141627": 3378,
    "20240914162750": 3379,
    "91": 3380,
    "sequence": 3381,
    ")”": 3382,
    "sfer": 3383,
    "sferics": 3384,
    "abilit": 3385,
    "abilitation": 3386,
    "thes": 3387,
    "thesis": 3388,
    "dem": 3389,
    "onst": 3390,
    "equ": 3391,
    "layers": 3392,
    "zu": 3393,
    "neur": 3394,
    "neuronal": 3395,
    "diffic": 3396,
    "difficult": 3397,
    "difficulty": 3398,
    "dep": 3399,
    "depend": 3400,
    "Dynamical": 3401,
    "Recurrent": 3402,
    "August": 3403,
    "Long": 3404,
    "Short": 3405,
    "Term": 3406,
    "Mem": 3407,
    "Memory": 3408,
    "1997": 3409,
    "1735": 3410,
    "1999": 3411,
    "get": 3412,
    "tz": 3413,
    "Cognitive": 3414,
    "0364": 3415,
    "0213": 3416,
    "0012": 3417,
    "48": 3418,
    "Sm": 3419,
    "Cha": 3420,
    "Found": 3421,
    "Foundations": 3422,
    "Micro": 3423,
    "stan": 3424,
    "stanford": 3425,
    "PD": 3426,
    "PDP": 3427,
    "Day": 3428,
    "Dayan": 3429,
    "Neal": 3430,
    "Rad": 3431,
    "Radford": 3432,
    ".”": 3433,
    "116": 3434,
    "May": 3435,
    "1158": 3436,
    "268": 3437,
    "cing": 3438,
    "fast": 3439,
    "compe": 3440,
    "competi": 3441,
    "competitions": 3442,
    "ins": 3443,
    "win": 3444,
    "Dan": 3445,
    "Luc": 3446,
    "Luca": 3447,
    "516": 3448,
    "ij": 3449,
    "ijc": 3450,
    "ijca": 3451,
    "ijcai": 3452,
    "CAI": 3453,
    "Gi": 3454,
    "Gius": 3455,
    "Giusti": 3456,
    "less": 3457,
    "Advances": 3458,
    "Curran": 3459,
    "Associ": 3460,
    "Associates": 3461,
    "Inc": 3462,
    "nip": 3463,
    "nips": 3464,
    "py": 3465,
    "images": 3466,
    "uting": 3467,
    "MIC": 3468,
    "Vision": 3469,
    "467": 3470,
    "4673": 3471,
    "riz": 3472,
    "Sut": 3473,
    "Sutsk": 3474,
    "Sutske": 3475,
    "Sutskever": 3476,
    "Ily": 3477,
    "Ilya": 3478,
    "NIP": 3479,
    "NIPS": 3480,
    "Simony": 3481,
    "Simonyan": 3482,
    "Karen": 3483,
    "Ziss": 3484,
    "Zisserm": 3485,
    "Zisserman": 3486,
    "Ver": 3487,
    "Very": 3488,
    "Je": 3489,
    "ild": 3490,
    "ilding": 3491,
    "ures": 3492,
    "Unsupervised": 3493,
    "Ian": 3494,
    "Good": 3495,
    "Goodf": 3496,
    "Goodfel": 3497,
    "Goodfellow": 3498,
    "Aar": 3499,
    "Aaron": 3500,
    "Cour": 3501,
    "Courv": 3502,
    "Courvil": 3503,
    "Courville": 3504,
    "Apri": 3505,
    "April": 3506,
    "Methods": 3507,
    "cy": 3508,
    "Spatio": 3509,
    "Tem": 3510,
    "Temp": 3511,
    "Temporal": 3512,
    "za": 3513,
    "ios": 3514,
    "iosity": 3515,
    "contro": 3516,
    "ras": 3517,
    "Qual": 3518,
    "NVID": 3519,
    "NVIDIA": 3520,
    "ace": 3521,
    "Syn": 3522,
    "ced": 3523,
    "ohl": 3524,
    "ickst": 3525,
    "ickste": 3526,
    "ickstein": 3527,
    "653": 3528,
    "Delv": 3529,
    "Delving": 3530,
    "into": 3531,
    "Rectifiers": 3532,
    "Surpa": 3533,
    "Surpassing": 3534,
    "Human": 3535,
    "Level": 3536,
    "Resid": 3537,
    "Residual": 3538,
    "Kla": 3539,
    "Klaus": 3540,
    "way": 3541,
    "CV": 3542,
    "CVP": 3543,
    "CVPR": 3544,
    "778": 3545,
    "Ori": 3546,
    "yun": 3547,
    "dan": 3548,
    "ger": 3549,
    "coder": 3550,
    "Lukasz": 3551,
    "131": 3552,
    "wikipedia": 3553,
    "zip": 3554,
    "Fast": 3555,
    "Natural": 3556,
    "Langu": 3557,
    "Language": 3558,
    "idrow": 3559,
    "ching": 3560,
    "ON": 3561,
    "osh": 3562,
    "ipolar": 3563,
    "application": 3564,
    "Generalization": 3565,
    "can": 3566,
    "Ser": 3567,
    "Arch": 3568,
    "01199": 3569,
    "1706": 3570,
    "03762": 3571,
    "aro": 3572,
    "herence": 3573,
    "prop": 3574,
    "feed": 3575,
    "global": 3576,
    "nor": 3577,
    "norm": 3578,
    "normalization": 3579,
    "part": 3580,
    "ient": 3581,
    "documentation": 3582,
    "des": 3583,
    "so": 3584,
    "not": 3585,
    "oper": 3586,
    "one": 3587,
    "pre": 3588,
    "prec": 3589,
    "precis": 3590,
    "precision": 3591,
    "num": 3592,
    "numb": 3593,
    "numbers": 3594,
    "which": 3595,
    "conver": 3596,
    "instru": 3597,
    "instruction": 3598,
    "memory": 3599,
    "your": 3600,
    "hardw": 3601,
    "hardware": 3602,
    "dequantize": 3603,
    "determ": 3604,
    "determine": 3605,
    "学ぶ": 3606,
    "5555": 3607,
    "3295": 3608,
    "329522": 3609,
    "3295222": 3610,
    "32953": 3611,
    "3295349": 3612,
    "108": 3613,
    "Bahas": 3614,
    "Bahasa": 3615,
    "Ind": 3616,
    "Indones": 3617,
    "Indonesia": 3618,
    "Sr": 3619,
    "Srp": 3620,
    "Srpsk": 3621,
    "Srpskoh": 3622,
    "Srpskohr": 3623,
    "Srpskohrv": 3624,
    "Srpskohrvat": 3625,
    "Srpskohrvatski": 3626,
    "ср": 3627,
    "срп": 3628,
    "српск": 3629,
    "српско": 3630,
    "српскох": 3631,
    "српскохр": 3632,
    "српскохрв": 3633,
    "српскохрва": 3634,
    "српскохрват": 3635,
    "српскохрватск": 3636,
    "српскохрватски": 3637,
    "zbe": 3638,
    "zbek": 3639,
    "zbekcha": 3640,
    "ўз": 3641,
    "ўзб": 3642,
    "ўзбе": 3643,
    "ўзбек": 3644,
    "ўзбекч": 3645,
    "ўзбекча": 3646,
    "閩南": 3647,
    "閩南語": 3648,
    "Bâ": 3649,
    "Bân": 3650,
    "lâ": 3651,
    "lâm": 3652,
    "gí": 3653,
    "百科": 3654,
    "事典": 3655,
    "ウィ": 3656,
    "ウィキ": 3657,
    "ウィキペ": 3658,
    "ウィキペディア": 3659,
    "インター": 3660,
    "インターネット": 3661,
    "サービ": 3662,
    "サービス": 3663,
    "サポ": 3664,
    "サポート": 3665,
    "サポートベクトル": 3666,
    "サポートベクトルマシ": 3667,
    "サポートベクトルマシン": 3668,
    "SV": 3669,
    "SVM": 3670,
    "Cate": 3671,
    "Categ": 3672,
    "Category": 3673,
    "マイニング": 3674,
    "もち": 3675,
    "はっ": 3676,
    "はっき": 3677,
    "はっきり": 3678,
    "区別": 3679,
    "ほう": 3680,
    "単に": 3681,
    "呼び": 3682,
    "頭脳": 3683,
    "表記": 3684,
    "そもそも": 3685,
    "知っ": 3686,
    "おく": 3687,
    "同士": 3688,
    "dendrite": 3689,
    "繋がっ": 3690,
    "伝達": 3691,
    "クリ": 3692,
    "クリック": 3693,
    "紫色": 3694,
    "ひと": 3695,
    "ひとつ": 3696,
    "Dendrite": 3697,
    "Ax": 3698,
    "Axon": 3699,
    "ちょくちょく": 3700,
    "こそ": 3701,
    "繋がり": 3702,
    "役割": 3703,
    "担っ": 3704,
    "与える": 3705,
    "向かっ": 3706,
    "ただし": 3707,
    "決まっ": 3708,
    "出る": 3709,
    "さほど": 3710,
    "有益": 3711,
    "わけ": 3712,
    "起き": 3713,
    "起きる": 3714,
    "囲ま": 3715,
    "並ん": 3716,
    "相当": 3717,
    "リンゴ": 3718,
    "app": 3719,
    "apple": 3720,
    "本当": 3721,
    "一致": 3722,
    "応じ": 3723,
    "繰り返し": 3724,
    "次第": 3725,
    "次第に": 3726,
    "改善": 3727,
    "正確": 3728,
    "答え": 3729,
    "作用": 3730,
    "ほん": 3731,
    "ほんの": 3732,
    "しかた": 3733,
    "あく": 3734,
    "あくまで": 3735,
    "とりあ": 3736,
    "とりあえ": 3737,
    "とりあえず": 3738,
    "とりかかる": 3739,
    "有無": 3740,
    "に関して": 3741,
    "選択肢": 3742,
    "必ず": 3743,
    "含み": 3744,
    "unit": 3745,
    "}})=\\": 3746,
    "レコ": 3747,
    "レコメン": 3748,
    "レコメンデ": 3749,
    "レコメンデーション": 3750,
    "源流": 3751,
    "探求": 3752,
    "進展": 3753,
    "相違": 3754,
    "今日": 3755,
    "ディープニューラルネットワーク": 3756,
    "FNN": 3757,
    "一連": 3758,
    "供給": 3759,
    "最小": 3760,
    "世紀": 3761,
    "にわ": 3762,
    "にわた": 3763,
    "にわたって": 3764,
    "惑星": 3765,
    "動き": 3766,
    "1795": 3767,
    "集合": 3768,
    "良好": 3769,
    "フィット": 3770,
    "見つ": 3771,
    "見つける": 3772,
    "手段": 3773,
    "アクセ": 3774,
    "アクセス": 3775,
    "伴う": 3776,
    "明示": 3777,
    "一部": 3778,
    "枠組み": 3779,
    "を通": 3780,
    "を通じ": 3781,
    "を通じて": 3782,
    "試み": 3783,
    "生ま": 3784,
    "生まれ": 3785,
    "異なり": 3786,
    "コネ": 3787,
    "コネク": 3788,
    "コネクショ": 3789,
    "コネクショニ": 3790,
    "コネクショニスト": 3791,
    "分岐": 3792,
    "開い": 3793,
    "プロセス": 3794,
    "可塑": 3795,
    "ヘッ": 3796,
    "ヘッブ": 3797,
    "シミ": 3798,
    "シミュ": 3799,
    "シミュレート": 3800,
    "ロチ": 3801,
    "ロチェ": 3802,
    "ロチェス": 3803,
    "ロチェスター": 3804,
    "ホランド": 3805,
    "ハビット": 3806,
    "デュー": 3807,
    "デューダ": 3808,
    "海軍": 3809,
    "言及": 3810,
    "リンカー": 3811,
    "リンカーン": 3812,
    "研究所": 3813,
    "先行": 3814,
    "主題": 3815,
    "断念": 3816,
    "世間": 3817,
    "興奮": 3818,
    "高め": 3819,
    "政府": 3820,
    "楽観": 3821,
    "主張": 3822,
    "煽ら": 3823,
    "黄金": 3824,
    "時代": 3825,
    "ブロック": 3826,
    "ナイ": 3827,
    "ナイト": 3828,
    "アイ": 3829,
    "アイデ": 3830,
    "アイデア": 3831,
    "採用": 3832,
    "残念": 3833,
    "なが": 3834,
    "ながら": 3835,
    "取り組み": 3836,
    "ブレー": 3837,
    "ブレーク": 3838,
    "スルー": 3839,
    "アレク": 3840,
    "アレクシー": 3841,
    "アレクシー・": 3842,
    "アレクシー・イヴァ": 3843,
    "アレクシー・イヴァネンコ": 3844,
    "ラパ": 3845,
    "ディープラーニングアルゴリズム": 3846,
    "グルー": 3847,
    "グループ": 3848,
    "形態": 3849,
    "見なし": 3850,
    "余分": 3851,
    "検証": 3852,
    "刈り込": 3853,
    "刈り込ま": 3854,
    "Kol": 3855,
    "Kolm": 3856,
    "Kolmog": 3857,
    "Kolmogor": 3858,
    "Kolmogorov": 3859,
    "Gabor": 3860,
    "乗法": 3861,
    "ゲート": 3862,
    "解析": 3863,
    "学生": 3864,
    "庄司": 3865,
    "実験": 3866,
    "修正": 3867,
    "多層": 3868,
    "解説": 3869,
    "扱っ": 3870,
    "\\}": 3871,
    "\\}+": 3872,
    "\\}}": 3873,
    "69": 3874,
    "数える": 3875,
    "更に": 3876,
    "普通": 3877,
    "よって": 3878,
    "発見": 3879,
    "ハイパー": 3880,
    "ハイパーパラメータ": 3881,
    "エンドツ": 3882,
    "エンドツー": 3883,
    "エンドツーエンド": 3884,
    "主流": 3885,
    "判別": 3886,
    "扱え": 3887,
    "排他": 3888,
    "論理": 3889,
    "記載": 3890,
    "期待": 3891,
    "一気": 3892,
    "一気に": 3893,
    "しぼ": 3894,
    "しぼみ": 3895,
    "減っ": 3896,
    "しまっ": 3897,
    "上述": 3898,
    "イヴァフ": 3899,
    "イヴァフネンコ": 3900,
    "大型": 3901,
    "流行": 3902,
    "流行ら": 3903,
    "書か": 3904,
    "納入": 3905,
    "さし": 3906,
    "はず": 3907,
    "人気": 3908,
    "転移": 3909,
    "1673": 3910,
    "ゴットフ": 3911,
    "ゴットフリー": 3912,
    "ゴットフリート": 3913,
    "ゴットフリート・ヴィ": 3914,
    "ゴットフリート・ヴィル": 3915,
    "ゴットフリート・ヴィルヘ": 3916,
    "ゴットフリート・ヴィルヘル": 3917,
    "ゴットフリート・ヴィルヘルム": 3918,
    "ゴットフリート・ヴィルヘルム・": 3919,
    "ゴットフリート・ヴィルヘルム・ラ": 3920,
    "ゴットフリート・ヴィルヘルム・ライ": 3921,
    "ゴットフリート・ヴィルヘルム・ライプ": 3922,
    "ゴットフリート・ヴィルヘルム・ライプニ": 3923,
    "ゴットフリート・ヴィルヘルム・ライプニッツ": 3924,
    "corre": 3925,
    "correction": 3926,
    "訂正": 3927,
    "言葉": 3928,
    "ヘン": 3929,
    "ヘンリー": 3930,
    "ケリー": 3931,
    "文脈": 3932,
    "前駆": 3933,
    "セッ": 3934,
    "セッポ": 3935,
    "セッポ・": 3936,
    "セッポ・リン": 3937,
    "セッポ・リンナ": 3938,
    "セッポ・リンナイン": 3939,
    "セッポ・リンナインマー": 3940,
    "オスト": 3941,
    "オストロ": 3942,
    "オストロフスキー": 3943,
    "ポール": 3944,
    "ワーボ": 3945,
    "ワーボス": 3946,
    "1974": 3947,
    "博士": 3948,
    "著書": 3949,
    "再版": 3950,
    "突破": 3951,
    "とうとう": 3952,
    "開け": 3953,
    "注目": 3954,
    "浴び": 3955,
    "浴びる": 3956,
    "複製": 3957,
    "備え": 3958,
    "ディープラーニングアーキテクチャ": 3959,
    "ウェイベル": 3960,
    "音素": 3961,
    "遅延": 3962,
    "TDNN": 3963,
    "共有": 3964,
    "アルファ": 3965,
    "アルファベ": 3966,
    "アルファベット": 3967,
    "郵便": 3968,
    "ZIP": 3969,
    "要し": 3970,
    "銀行": 3971,
    "ピクセ": 3972,
    "ピクセル": 3973,
    "小切": 3974,
    "小切手": 3975,
    "医用": 3976,
    "オブ": 3977,
    "オブジェ": 3978,
    "オブジェクト": 3979,
    "セグ": 3980,
    "セグメン": 3981,
    "セグメンテ": 3982,
    "セグメンテーション": 3983,
    "マンモ": 3984,
    "マンモグラ": 3985,
    "マンモグラム": 3986,
    "乳が": 3987,
    "乳がん": 3988,
    "検出": 3989,
    "カスケ": 3990,
    "カスケード": 3991,
    "プロファ": 3992,
    "プロファイ": 3993,
    "プロファイル": 3994,
    "とき": 3995,
    "学問": 3996,
    "見出さ": 3997,
    "ホップ": 3998,
    "フィール": 3999,
    "フィールド": 4000,
    "普及": 4001,
    "1901": 4002,
    "皮質": 4003,
    "半円": 4004,
    "観察": 4005,
    "短期": 4006,
    "記憶": 4007,
    "反響": 4008,
    "マカ": 4009,
    "マカロック": 4010,
    "ピッツ": 4011,
    "サイク": 4012,
    "サイクル": 4013,
    "無限": 4014,
    "遡る": 4015,
    "つまり": 4016,
    "Cross": 4017,
    "Crossb": 4018,
    "Crossbar": 4019,
    "Arra": 4020,
    "Array": 4021,
    "教示": 4022,
    "直接的": 4023,
    "行動": 4024,
    "状況": 4025,
    "内部": 4026,
    "状態": 4027,
    "評価": 4028,
    "外部": 4029,
    "排除": 4030,
    "初頭": 4031,
    "学術": 4032,
    "ザイア": 4033,
    "ザイアンス": 4034,
    "独立": 4035,
    "ラザ": 4036,
    "ラザル": 4037,
    "ラザルス": 4038,
    "不可": 4039,
    "不可分": 4040,
    "同時に": 4041,
    "取り組": 4042,
    "取り組ま": 4043,
    "うま": 4044,
    "うまく": 4045,
    "克服": 4046,
    "ニューラルシーケンス": 4047,
    "ニューラルシーケンスチャン": 4048,
    "ニューラルシーケンスチャンカー": 4049,
    "trained": 4050,
    "展開": 4051,
    "1000": 4052,
    "ゼップ": 4053,
    "ゼップ・": 4054,
    "ゼップ・ホ": 4055,
    "ゼップ・ホフ": 4056,
    "ゼップ・ホフレイ": 4057,
    "ゼップ・ホフレイター": 4058,
    "領域": 4059,
    "記録": 4060,
    "打ち": 4061,
    "打ち立": 4062,
    "打ち立て": 4063,
    "忘却": 4064,
    "デフォ": 4065,
    "デフォル": 4066,
    "デフォルト": 4067,
    "テリー": 4068,
    "セジ": 4069,
    "セジュ": 4070,
    "セジュノ": 4071,
    "セジュノウ": 4072,
    "セジュノウスキー": 4073,
    "ピータ": 4074,
    "ピーター": 4075,
    "デイア": 4076,
    "デイアン": 4077,
    "ウェイク": 4078,
    "スリー": 4079,
    "スリープ": 4080,
    "スリープアルゴリズム": 4081,
    "設計": 4082,
    "2006": 4083,
    "削減": 4084,
    "とい": 4085,
    "といっ": 4086,
    "といった": 4087,
    "落と": 4088,
    "落とし込": 4089,
    "落とし込む": 4090,
    "差分": 4091,
    "とる": 4092,
    "にか": 4093,
    "にかけ": 4094,
    "にかけて": 4095
  },
  "next_id": 4096,
  "merges": [
    [
      "t",
      "i"
    ],
    [
      "o",
      "n"
    ],
    [
      "e",
      "r"
    ],
    [
      "i",
      "n"
    ],
    [
      "o",
      "r"
    ],
    [
      "a",
      "n"
    ],
    [
      "a",
      "r"
    ],
    [
      "a",
      "l"
    ],
    [
      "2",
      "0"
    ],
    [
      "e",
      "n"
    ],
    [
      "ッ",
      "ト"
    ],
    [
      "ti",
      "on"
    ],
    [
      "1",
      "9"
    ],
    [
      "ネ",
      "ット"
    ],
    [
      "ワ",
      "ー"
    ],
    [
      "l",
      "e"
    ],
    [
      "ワー",
      "ク"
    ],
    [
      "ュ",
      "ー"
    ],
    [
      "ネット",
      "ワーク"
    ],
    [
      "in",
      "g"
    ],
    [
      "t",
      "h"
    ],
    [
      "r",
      "e"
    ],
    [
      "ニ",
      "ュー"
    ],
    [
      "c",
      "h"
    ],
    [
      "1",
      "0"
    ],
    [
      "す",
      "る"
    ],
    [
      "s",
      "t"
    ],
    [
      "c",
      "e"
    ],
    [
      ")",
      "."
    ],
    [
      "ニュー",
      "ラ"
    ],
    [
      "ニューラ",
      "ル"
    ],
    [
      "t",
      "t"
    ],
    [
      "e",
      "t"
    ],
    [
      "a",
      "tion"
    ],
    [
      "o",
      "f"
    ],
    [
      "ニューラル",
      "ネットワーク"
    ],
    [
      "e",
      "d"
    ],
    [
      "r",
      "o"
    ],
    [
      "i",
      "s"
    ],
    [
      "{",
      "\\"
    ],
    [
      "c",
      "o"
    ],
    [
      "e",
      "l"
    ],
    [
      "u",
      "r"
    ],
    [
      "20",
      "1"
    ],
    [
      "an",
      "d"
    ],
    [
      "i",
      "c"
    ],
    [
      "th",
      "e"
    ],
    [
      "/",
      "/"
    ],
    [
      "あ",
      "る"
    ],
    [
      "h",
      "tt"
    ],
    [
      "htt",
      "p"
    ],
    [
      ":",
      "//"
    ],
    [
      "o",
      "l"
    ],
    [
      "f",
      "or"
    ],
    [
      "}",
      "}"
    ],
    [
      "l",
      "a"
    ],
    [
      "i",
      "t"
    ],
    [
      "v",
      "e"
    ],
    [
      "m",
      "a"
    ],
    [
      "20",
      "2"
    ],
    [
      "or",
      "k"
    ],
    [
      "学",
      "習"
    ],
    [
      "http",
      "s"
    ],
    [
      "s",
      "s"
    ],
    [
      "w",
      "ork"
    ],
    [
      "et",
      "work"
    ],
    [
      "計",
      "算"
    ],
    [
      "u",
      "n"
    ],
    [
      "t",
      "e"
    ],
    [
      "e",
      "ur"
    ],
    [
      "en",
      "t"
    ],
    [
      "eur",
      "al"
    ],
    [
      "に",
      "よ"
    ],
    [
      "y",
      "st"
    ],
    [
      "1",
      "1"
    ],
    [
      "a",
      "c"
    ],
    [
      "い",
      "る"
    ],
    [
      "れ",
      "る"
    ],
    [
      "w",
      "e"
    ],
    [
      "e",
      "m"
    ],
    [
      "t",
      "o"
    ],
    [
      "N",
      "N"
    ],
    [
      "19",
      "9"
    ],
    [
      "0",
      "0"
    ],
    [
      "er",
      "s"
    ],
    [
      "e",
      "p"
    ],
    [
      "e",
      "s"
    ],
    [
      "ー",
      "タ"
    ],
    [
      "I",
      "n"
    ],
    [
      "i",
      "d"
    ],
    [
      "ti",
      "c"
    ],
    [
      "m",
      "p"
    ],
    [
      "ar",
      "ch"
    ],
    [
      "出",
      "力"
    ],
    [
      "19",
      "8"
    ],
    [
      "en",
      "ce"
    ],
    [
      "デ",
      "ル"
    ],
    [
      "n",
      "i"
    ],
    [
      "a",
      "s"
    ],
    [
      "に",
      "お"
    ],
    [
      "L",
      "e"
    ],
    [
      "we",
      "b"
    ],
    [
      "モ",
      "デル"
    ],
    [
      "け",
      "る"
    ],
    [
      "1",
      "2"
    ],
    [
      "o",
      "s"
    ],
    [
      "i",
      "g"
    ],
    [
      "a",
      "t"
    ],
    [
      "p",
      "p"
    ],
    [
      "u",
      "s"
    ],
    [
      "i",
      "ve"
    ],
    [
      "o",
      "d"
    ],
    [
      "b",
      "er"
    ],
    [
      "か",
      "ら"
    ],
    [
      "g",
      "e"
    ],
    [
      "u",
      "t"
    ],
    [
      "n",
      "ing"
    ],
    [
      "or",
      "g"
    ],
    [
      "202",
      "4"
    ],
    [
      "た",
      "め"
    ],
    [
      "p",
      "a"
    ],
    [
      "時",
      "点"
    ],
    [
      "r",
      "a"
    ],
    [
      "N",
      "eural"
    ],
    [
      "ar",
      "ning"
    ],
    [
      "にお",
      "ける"
    ],
    [
      "y",
      "le"
    ],
    [
      "o",
      "o"
    ],
    [
      "こ",
      "と"
    ],
    [
      "19",
      "6"
    ],
    [
      "ro",
      "ce"
    ],
    [
      "N",
      "etwork"
    ],
    [
      "_",
      "{"
    ],
    [
      "c",
      "i"
    ],
    [
      "u",
      "m"
    ],
    [
      "デ",
      "ータ"
    ],
    [
      "d",
      "is"
    ],
    [
      "dis",
      "p"
    ],
    [
      "disp",
      "la"
    ],
    [
      "displa",
      "yst"
    ],
    [
      "displayst",
      "yle"
    ],
    [
      "こ",
      "れ"
    ],
    [
      "し",
      "て"
    ],
    [
      "D",
      "e"
    ],
    [
      "T",
      "h"
    ],
    [
      ".",
      ";"
    ],
    [
      "重",
      "み"
    ],
    [
      "R",
      "e"
    ],
    [
      "ア",
      "ー"
    ],
    [
      "イ",
      "ブ"
    ],
    [
      "7",
      "8"
    ],
    [
      "r",
      "i"
    ],
    [
      "arch",
      "ive"
    ],
    [
      "ロ",
      "ン"
    ],
    [
      "co",
      "g"
    ],
    [
      "r",
      "an"
    ],
    [
      "p",
      "d"
    ],
    [
      "ッ",
      "ク"
    ],
    [
      ".",
      "."
    ],
    [
      "C",
      "o"
    ],
    [
      "x",
      "t"
    ],
    [
      "pd",
      "f"
    ],
    [
      "f",
      "ic"
    ],
    [
      "for",
      "m"
    ],
    [
      "a",
      "m"
    ],
    [
      "q",
      "u"
    ],
    [
      "n",
      "e"
    ],
    [
      "ン",
      "グ"
    ],
    [
      "神",
      "経"
    ],
    [
      "入",
      "力"
    ],
    [
      "パ",
      "ー"
    ],
    [
      "er",
      "n"
    ],
    [
      "h",
      "u"
    ],
    [
      "i",
      "l"
    ],
    [
      "アー",
      "カ"
    ],
    [
      "アーカ",
      "イブ"
    ],
    [
      "co",
      "m"
    ],
    [
      "or",
      "y"
    ],
    [
      "n",
      "etwork"
    ],
    [
      "よ",
      "う"
    ],
    [
      "3",
      "2"
    ],
    [
      "a",
      "ti"
    ],
    [
      "re",
      "s"
    ],
    [
      "5",
      "5"
    ],
    [
      "Th",
      "e"
    ],
    [
      "u",
      "l"
    ],
    [
      "と",
      "して"
    ],
    [
      "情",
      "報"
    ],
    [
      "線",
      "形"
    ],
    [
      "19",
      "7"
    ],
    [
      "cog",
      "ni"
    ],
    [
      "z",
      "ation"
    ],
    [
      "0",
      "8"
    ],
    [
      "6",
      "2"
    ],
    [
      "P",
      "roce"
    ],
    [
      "処",
      "理"
    ],
    [
      "ィ",
      "ー"
    ],
    [
      "b",
      "ol"
    ],
    [
      "によ",
      "る"
    ],
    [
      "v",
      "i"
    ],
    [
      "te",
      "xt"
    ],
    [
      "an",
      "ti"
    ],
    [
      "d",
      "e"
    ],
    [
      "i",
      "th"
    ],
    [
      "A",
      "n"
    ],
    [
      "な",
      "ど"
    ],
    [
      "そ",
      "の"
    ],
    [
      ")",
      "}"
    ],
    [
      "プ",
      "ロ"
    ],
    [
      "i",
      "st"
    ],
    [
      "0",
      "9"
    ],
    [
      "cogni",
      "tion"
    ],
    [
      "l",
      "o"
    ],
    [
      "1",
      "4"
    ],
    [
      "9",
      "78"
    ],
    [
      "De",
      "ep"
    ],
    [
      "2",
      "2"
    ],
    [
      "w",
      "w"
    ],
    [
      "Network",
      "s"
    ],
    [
      "E",
      "E"
    ],
    [
      "c",
      "t"
    ],
    [
      "k",
      "i"
    ],
    [
      "手",
      "法"
    ],
    [
      "よ",
      "り"
    ],
    [
      "研",
      "究"
    ],
    [
      "使",
      "用"
    ],
    [
      "1",
      "6"
    ],
    [
      "S",
      "t"
    ],
    [
      "N",
      "e"
    ],
    [
      "ran",
      "s"
    ],
    [
      "Le",
      "arning"
    ],
    [
      "yst",
      "em"
    ],
    [
      "od",
      "el"
    ],
    [
      "f",
      "er"
    ],
    [
      "結",
      "合"
    ],
    [
      "こ",
      "の"
    ],
    [
      "っ",
      "て"
    ],
    [
      "関",
      "数"
    ],
    [
      "な",
      "い"
    ],
    [
      "方",
      "法"
    ],
    [
      "生",
      "成"
    ],
    [
      "シ",
      "ョ"
    ],
    [
      "p",
      "ro"
    ],
    [
      "n",
      "g"
    ],
    [
      "R",
      "NN"
    ],
    [
      "3",
      "0"
    ],
    [
      "p",
      "ar"
    ],
    [
      "in",
      "e"
    ],
    [
      "oo",
      "k"
    ],
    [
      "mp",
      "ut"
    ],
    [
      "C",
      "on"
    ],
    [
      "リ",
      "ー"
    ],
    [
      "i",
      "al"
    ],
    [
      "い",
      "う"
    ],
    [
      "訓",
      "練"
    ],
    [
      "ショ",
      "ン"
    ],
    [
      "発",
      "表"
    ],
    [
      "確",
      "率"
    ],
    [
      "u",
      "re"
    ],
    [
      "s",
      "i"
    ],
    [
      "it",
      "y"
    ],
    [
      ")",
      ":"
    ],
    [
      "ation",
      "s"
    ],
    [
      "S",
      "ch"
    ],
    [
      "g",
      "en"
    ],
    [
      "o",
      "p"
    ],
    [
      "201",
      "7"
    ],
    [
      "n",
      "eural"
    ],
    [
      "ー",
      "ション"
    ],
    [
      "ー",
      "ド"
    ],
    [
      "201",
      "5"
    ],
    [
      "s",
      "e"
    ],
    [
      "T",
      "rans"
    ],
    [
      "ar",
      "d"
    ],
    [
      "m",
      "id"
    ],
    [
      "a",
      "y"
    ],
    [
      "d",
      "i"
    ],
    [
      "m",
      "e"
    ],
    [
      "b",
      "ook"
    ],
    [
      "1",
      "3"
    ],
    [
      "ss",
      "ing"
    ],
    [
      "an",
      "g"
    ],
    [
      ".",
      "\""
    ],
    [
      "そ",
      "れ"
    ],
    [
      "と",
      "いう"
    ],
    [
      "によ",
      "って"
    ],
    [
      "画",
      "像"
    ],
    [
      "誤",
      "差"
    ],
    [
      "s",
      "y"
    ],
    [
      "デ",
      "ィー"
    ],
    [
      "ディー",
      "プ"
    ],
    [
      "コ",
      "ン"
    ],
    [
      "ラ",
      "ー"
    ],
    [
      "パー",
      "セ"
    ],
    [
      "パーセ",
      "プ"
    ],
    [
      "パーセプ",
      "ト"
    ],
    [
      "パーセプト",
      "ロン"
    ],
    [
      "a",
      "b"
    ],
    [
      "6",
      "4"
    ],
    [
      "C",
      "NN"
    ],
    [
      "N",
      "et"
    ],
    [
      "b",
      "y"
    ],
    [
      "Sch",
      "mid"
    ],
    [
      "Schmid",
      "hu"
    ],
    [
      "Schmidhu",
      "ber"
    ],
    [
      "S",
      "ystem"
    ],
    [
      "tion",
      "s"
    ],
    [
      "p",
      "er"
    ],
    [
      "w",
      "ith"
    ],
    [
      "d",
      "o"
    ],
    [
      "m",
      "odel"
    ],
    [
      "タ",
      "ー"
    ],
    [
      "い",
      "て"
    ],
    [
      "生",
      "物"
    ],
    [
      "場",
      "合"
    ],
    [
      "人",
      "工"
    ],
    [
      "ig",
      "h"
    ],
    [
      "レ",
      "ン"
    ],
    [
      "バ",
      "ック"
    ],
    [
      "問",
      "題"
    ],
    [
      "勾",
      "配"
    ],
    [
      "導",
      "入"
    ],
    [
      "201",
      "2"
    ],
    [
      "I",
      "ma"
    ],
    [
      "re",
      "ss"
    ],
    [
      "In",
      "t"
    ],
    [
      "M",
      "a"
    ],
    [
      "Q",
      "u"
    ],
    [
      "a",
      "k"
    ],
    [
      "z",
      "e"
    ],
    [
      "ナ",
      "ル"
    ],
    [
      "a",
      "d"
    ],
    [
      "tic",
      "s"
    ],
    [
      "book",
      "s"
    ],
    [
      "ci",
      "ence"
    ],
    [
      "le",
      "arning"
    ],
    [
      "ing",
      "s"
    ],
    [
      "あ",
      "り"
    ],
    [
      "で",
      "き"
    ],
    [
      "可",
      "能"
    ],
    [
      "微",
      "分"
    ],
    [
      "によ",
      "り"
    ],
    [
      "理",
      "論"
    ],
    [
      "196",
      "0"
    ],
    [
      "^",
      "{"
    ],
    [
      "2",
      "5"
    ],
    [
      "ac",
      "k"
    ],
    [
      "リ",
      "ジ"
    ],
    [
      "Ima",
      "ge"
    ],
    [
      "c",
      "al"
    ],
    [
      "C",
      "h"
    ],
    [
      "oo",
      "g"
    ],
    [
      "oog",
      "le"
    ],
    [
      "i",
      "zation"
    ],
    [
      "l",
      "or"
    ],
    [
      "1",
      "5"
    ],
    [
      "s",
      "h"
    ],
    [
      "}}",
      "}"
    ],
    [
      "20",
      "20"
    ],
    [
      "2",
      "4"
    ],
    [
      "ic",
      "al"
    ],
    [
      "i",
      "m"
    ],
    [
      "e",
      "w"
    ],
    [
      "2",
      "6"
    ],
    [
      "Co",
      "mput"
    ],
    [
      "r",
      "on"
    ],
    [
      "N",
      "o"
    ],
    [
      "S",
      "h"
    ],
    [
      "tt",
      "ern"
    ],
    [
      "P",
      "a"
    ],
    [
      "ed",
      "ings"
    ],
    [
      "fer",
      "ence"
    ],
    [
      "c",
      "on"
    ],
    [
      "i",
      "a"
    ],
    [
      "ユ",
      "ニ"
    ],
    [
      "ユニ",
      "ット"
    ],
    [
      "必",
      "要"
    ],
    [
      "ニュー",
      "ロン"
    ],
    [
      "伝",
      "播"
    ],
    [
      "な",
      "る"
    ],
    [
      "変",
      "換"
    ],
    [
      "認",
      "識"
    ],
    [
      "1",
      "7"
    ],
    [
      "o",
      "g"
    ],
    [
      "プロ",
      "パ"
    ],
    [
      "プロパ",
      "ゲ"
    ],
    [
      "プロパゲ",
      "ーション"
    ],
    [
      "カ",
      "レン"
    ],
    [
      "Re",
      "cognition"
    ],
    [
      "201",
      "4"
    ],
    [
      "i",
      "on"
    ],
    [
      "en",
      "g"
    ],
    [
      "量",
      "子"
    ],
    [
      "an",
      "ce"
    ],
    [
      "o",
      "t"
    ],
    [
      "5",
      "8"
    ],
    [
      "i",
      "b"
    ],
    [
      "ti",
      "v"
    ],
    [
      "y",
      "n"
    ],
    [
      "f",
      "i"
    ],
    [
      "pp",
      "l"
    ],
    [
      "in",
      "t"
    ],
    [
      "0",
      "7"
    ],
    [
      "r",
      "u"
    ],
    [
      "g",
      "oogle"
    ],
    [
      "A",
      "A"
    ],
    [
      "p",
      "t"
    ],
    [
      "u",
      "b"
    ],
    [
      "2",
      "9"
    ],
    [
      "オ",
      "リジ"
    ],
    [
      "オリジ",
      "ナル"
    ],
    [
      "5",
      "3"
    ],
    [
      "ti",
      "fic"
    ],
    [
      "パ",
      "ラ"
    ],
    [
      "パラ",
      "メ"
    ],
    [
      "パラメ",
      "ータ"
    ],
    [
      "igh",
      "t"
    ],
    [
      "ベ",
      "ル"
    ],
    [
      "様",
      "々"
    ],
    [
      "用",
      "い"
    ],
    [
      "バック",
      "プロパゲーション"
    ],
    [
      "er",
      "r"
    ],
    [
      "リ",
      "カレン"
    ],
    [
      "リカレン",
      "ト"
    ],
    [
      "A",
      "d"
    ],
    [
      "0",
      "6"
    ],
    [
      "A",
      "N"
    ],
    [
      "S",
      "e"
    ],
    [
      "network",
      "s"
    ],
    [
      "qu",
      "anti"
    ],
    [
      "ti",
      "ng"
    ],
    [
      "M",
      "e"
    ],
    [
      "System",
      "s"
    ],
    [
      "1",
      "10"
    ],
    [
      "P",
      "er"
    ],
    [
      "7",
      "7"
    ],
    [
      "u",
      "k"
    ],
    [
      "Proce",
      "ssing"
    ],
    [
      "ar",
      "e"
    ],
    [
      "ク",
      "ト"
    ],
    [
      "ニ",
      "ング"
    ],
    [
      "tific",
      "ial"
    ],
    [
      "ら",
      "れる"
    ],
    [
      "に",
      "対"
    ],
    [
      "でき",
      "る"
    ],
    [
      "bol",
      "d"
    ],
    [
      "bold",
      "sy"
    ],
    [
      "boldsy",
      "m"
    ],
    [
      "boldsym",
      "bol"
    ],
    [
      "19",
      "5"
    ],
    [
      "A",
      "I"
    ],
    [
      "年",
      "代"
    ],
    [
      "深",
      "層"
    ],
    [
      "統",
      "計"
    ],
    [
      "降",
      "下"
    ],
    [
      "バ",
      "ー"
    ],
    [
      "198",
      "2"
    ],
    [
      "お",
      "よ"
    ],
    [
      "およ",
      "び"
    ],
    [
      "199",
      "1"
    ],
    [
      "レ",
      "イ"
    ],
    [
      "A",
      "r"
    ],
    [
      "ra",
      "in"
    ],
    [
      "精",
      "度"
    ],
    [
      "G",
      "AN"
    ],
    [
      "o",
      "u"
    ],
    [
      "G",
      "en"
    ],
    [
      "v",
      "ers"
    ],
    [
      "le",
      "x"
    ],
    [
      "m",
      "ent"
    ],
    [
      "ar",
      "y"
    ],
    [
      "Qu",
      "anti"
    ],
    [
      "tic",
      "al"
    ],
    [
      "ww",
      "w"
    ],
    [
      "vi",
      "ew"
    ],
    [
      "re",
      "d"
    ],
    [
      "I",
      "EE"
    ],
    [
      "IEE",
      "E"
    ],
    [
      "la",
      "ss"
    ],
    [
      "lass",
      "i"
    ],
    [
      "ation",
      "al"
    ],
    [
      "i",
      "ma"
    ],
    [
      "Proce",
      "edings"
    ],
    [
      "0",
      "3"
    ],
    [
      "ct",
      "ure"
    ],
    [
      "Con",
      "ference"
    ],
    [
      "s",
      "ki"
    ],
    [
      "も",
      "の"
    ],
    [
      "呼",
      "ば"
    ],
    [
      "ズ",
      "ム"
    ],
    [
      "な",
      "っ"
    ],
    [
      "it",
      "e"
    ],
    [
      "か",
      "っ"
    ],
    [
      "ら",
      "れ"
    ],
    [
      "=",
      "\\"
    ],
    [
      "回",
      "帰"
    ],
    [
      "単",
      "純"
    ],
    [
      "これ",
      "ら"
    ],
    [
      "最",
      "初"
    ],
    [
      "実",
      "装"
    ],
    [
      "開",
      "発"
    ],
    [
      "ディープ",
      "ラー"
    ],
    [
      "ディープラー",
      "ニング"
    ],
    [
      "論",
      "文"
    ],
    [
      "o",
      "v"
    ],
    [
      "な",
      "く"
    ],
    [
      "ウ",
      "ェ"
    ],
    [
      "正",
      "規"
    ],
    [
      "ッ",
      "プ"
    ],
    [
      "pa",
      "g"
    ],
    [
      "p",
      "roce"
    ],
    [
      "時",
      "間"
    ],
    [
      "行",
      "列"
    ],
    [
      "ti",
      "ve"
    ],
    [
      "ン",
      "ス"
    ],
    [
      "レ",
      "ッ"
    ],
    [
      "f",
      "f"
    ],
    [
      "低",
      "下"
    ],
    [
      "tt",
      "en"
    ],
    [
      "l",
      "l"
    ],
    [
      "c",
      "ur"
    ],
    [
      "Gen",
      "er"
    ],
    [
      "ati",
      "ve"
    ],
    [
      "f",
      "an"
    ],
    [
      "}}",
      "_"
    ],
    [
      "}}_",
      "{\\"
    ],
    [
      "a",
      "in"
    ],
    [
      "ac",
      "tiv"
    ],
    [
      "a",
      "st"
    ],
    [
      "res",
      "ent"
    ],
    [
      "8",
      "8"
    ],
    [
      "1",
      "8"
    ],
    [
      "In",
      "form"
    ],
    [
      "Inform",
      "ation"
    ],
    [
      "110",
      "9"
    ],
    [
      "0",
      "4"
    ],
    [
      "4",
      "4"
    ],
    [
      "lassi",
      "fic"
    ],
    [
      "lassific",
      "ation"
    ],
    [
      "er",
      "m"
    ],
    [
      "B",
      "o"
    ],
    [
      "7",
      "9"
    ],
    [
      "c",
      "um"
    ],
    [
      "3",
      "8"
    ],
    [
      "201",
      "6"
    ],
    [
      "e",
      "e"
    ],
    [
      "11",
      "62"
    ],
    [
      "つ",
      "いて"
    ],
    [
      "en",
      "d"
    ],
    [
      "パ",
      "ター"
    ],
    [
      "パター",
      "ン"
    ],
    [
      "次",
      "元"
    ],
    [
      "初",
      "期"
    ],
    [
      "フ",
      "ォ"
    ],
    [
      "ス",
      "ト"
    ],
    [
      "M",
      "I"
    ],
    [
      "な",
      "かっ"
    ],
    [
      "あ",
      "っ"
    ],
    [
      "甘",
      "利"
    ],
    [
      "202",
      "3"
    ],
    [
      "効",
      "率"
    ],
    [
      "pro",
      "pag"
    ],
    [
      "提",
      "案"
    ],
    [
      "畳",
      "み"
    ],
    [
      "畳み",
      "込"
    ],
    [
      "畳み込",
      "み"
    ],
    [
      "リ",
      "ング"
    ],
    [
      "チ",
      "ャ"
    ],
    [
      "リカレント",
      "ニューラルネットワーク"
    ],
    [
      "要",
      "素"
    ],
    [
      "a",
      "p"
    ],
    [
      "自",
      "己"
    ],
    [
      "A",
      "m"
    ],
    [
      "ol",
      "og"
    ],
    [
      "シ",
      "ュ"
    ],
    [
      "199",
      "5"
    ],
    [
      "も",
      "と"
    ],
    [
      "以",
      "下"
    ],
    [
      "複",
      "素"
    ],
    [
      "表",
      "現"
    ],
    [
      "or",
      "e"
    ],
    [
      "lo",
      "w"
    ],
    [
      "o",
      "m"
    ],
    [
      "N",
      "or"
    ],
    [
      "バ",
      "ッ"
    ],
    [
      "バッ",
      "チ"
    ],
    [
      "198",
      "6"
    ],
    [
      "f",
      "re"
    ],
    [
      "lor",
      "ot"
    ],
    [
      "演",
      "算"
    ],
    [
      "yn",
      "am"
    ],
    [
      "par",
      "ti"
    ],
    [
      "parti",
      "al"
    ],
    [
      "f",
      "t"
    ],
    [
      "i",
      "v"
    ],
    [
      "J",
      "ü"
    ],
    [
      "Jü",
      "r"
    ],
    [
      "Jür",
      "gen"
    ],
    [
      "ist",
      "ory"
    ],
    [
      "2",
      "1"
    ],
    [
      "O",
      "r"
    ],
    [
      "Comput",
      "er"
    ],
    [
      "T",
      "e"
    ],
    [
      "l",
      "y"
    ],
    [
      "S",
      "cience"
    ],
    [
      "el",
      "l"
    ],
    [
      "co",
      "mp"
    ],
    [
      "202",
      "5"
    ],
    [
      "d",
      "er"
    ],
    [
      "G",
      "o"
    ],
    [
      "p",
      "ub"
    ],
    [
      "Z",
      "h"
    ],
    [
      "Zh",
      "ang"
    ],
    [
      "i",
      "an"
    ],
    [
      "an",
      "n"
    ],
    [
      "Y",
      "os"
    ],
    [
      "hu",
      "a"
    ],
    [
      "i",
      "o"
    ],
    [
      "le",
      "c"
    ],
    [
      "ne",
      "co"
    ],
    [
      "de",
      "ep"
    ],
    [
      "K",
      "a"
    ],
    [
      "i",
      "ki"
    ],
    [
      "s",
      "k"
    ],
    [
      "に",
      "ついて"
    ],
    [
      "ベ",
      "クト"
    ],
    [
      "ベクト",
      "ル"
    ],
    [
      "知",
      "ら"
    ],
    [
      "ヒ",
      "ト"
    ],
    [
      "細",
      "胞"
    ],
    [
      "取",
      "り"
    ],
    [
      "与",
      "え"
    ],
    [
      "ラ",
      "ベル"
    ],
    [
      "し",
      "か"
    ],
    [
      "ま",
      "で"
    ],
    [
      "活",
      "性"
    ],
    [
      "コン",
      "ピ"
    ],
    [
      "コンピ",
      "ュー"
    ],
    [
      "メ",
      "モ"
    ],
    [
      "メモ",
      "リ"
    ],
    [
      "ア",
      "ル"
    ],
    [
      "書",
      "籍"
    ],
    [
      "err",
      "or"
    ],
    [
      "c",
      "tion"
    ],
    [
      "0",
      "1"
    ],
    [
      "4",
      "3"
    ],
    [
      "認",
      "知"
    ],
    [
      "t",
      "rain"
    ],
    [
      "ニューラル",
      "ネット"
    ],
    [
      "u",
      "al"
    ],
    [
      "機",
      "械"
    ],
    [
      "201",
      "8"
    ],
    [
      "方",
      "向"
    ],
    [
      "la",
      "y"
    ],
    [
      "cur",
      "r"
    ],
    [
      "curr",
      "ent"
    ],
    [
      "el",
      "f"
    ],
    [
      "分",
      "布"
    ],
    [
      "..",
      "."
    ],
    [
      "b",
      "as"
    ],
    [
      "p",
      "h"
    ],
    [
      ")",
      ")"
    ],
    [
      "s",
      "q"
    ],
    [
      "sq",
      "r"
    ],
    [
      "sqr",
      "t"
    ],
    [
      "r",
      "ac"
    ],
    [
      "}",
      "\\"
    ],
    [
      "ma",
      "th"
    ],
    [
      "a",
      "v"
    ],
    [
      "ine",
      "ar"
    ],
    [
      "A",
      "ppl"
    ],
    [
      "m",
      "ber"
    ],
    [
      "y",
      "s"
    ],
    [
      "0",
      "5"
    ],
    [
      "le",
      "y"
    ],
    [
      "an",
      "i"
    ],
    [
      "Trans",
      "ac"
    ],
    [
      "Transac",
      "tions"
    ],
    [
      "us",
      "ing"
    ],
    [
      "ce",
      "pt"
    ],
    [
      "cept",
      "ron"
    ],
    [
      "ab",
      "il"
    ],
    [
      "An",
      "d"
    ],
    [
      "or",
      "t"
    ],
    [
      "ed",
      "u"
    ],
    [
      "y",
      "ber"
    ],
    [
      "yber",
      "ne"
    ],
    [
      "yberne",
      "tics"
    ],
    [
      "l",
      "is"
    ],
    [
      "pa",
      "ttern"
    ],
    [
      "o",
      "ur"
    ],
    [
      "G",
      "e"
    ],
    [
      "V",
      "ol"
    ],
    [
      "閲",
      "覧"
    ],
    [
      "t",
      "or"
    ],
    [
      "ti",
      "m"
    ],
    [
      "cum",
      "ent"
    ],
    [
      "v",
      "ol"
    ],
    [
      "re",
      "p"
    ],
    [
      "rep",
      "resent"
    ],
    [
      "e",
      "x"
    ],
    [
      "B",
      "ack"
    ],
    [
      "W",
      "e"
    ],
    [
      "Yos",
      "hua"
    ],
    [
      "B",
      "eng"
    ],
    [
      "Beng",
      "io"
    ],
    [
      "st",
      "ru"
    ],
    [
      "p",
      "ers"
    ],
    [
      "form",
      "ance"
    ],
    [
      "ed",
      "ia"
    ],
    [
      "b",
      "e"
    ],
    [
      "a",
      "te"
    ],
    [
      "示",
      "さ"
    ],
    [
      "お",
      "り"
    ],
    [
      "利",
      "用"
    ],
    [
      "い",
      "く"
    ],
    [
      "え",
      "ば"
    ],
    [
      "リ",
      "ン"
    ],
    [
      "フ",
      "ィー"
    ],
    [
      "非",
      "線形"
    ],
    [
      "再",
      "帰"
    ],
    [
      "多",
      "く"
    ],
    [
      "近",
      "似"
    ],
    [
      "ワー",
      "ド"
    ],
    [
      "技",
      "術"
    ],
    [
      "に対",
      "する"
    ],
    [
      "回",
      "路"
    ],
    [
      "にお",
      "いて"
    ],
    [
      "ロ",
      "ー"
    ],
    [
      "アル",
      "ゴ"
    ],
    [
      "アルゴ",
      "リ"
    ],
    [
      "アルゴリ",
      "ズム"
    ],
    [
      "シ",
      "ー"
    ],
    [
      "ま",
      "た"
    ],
    [
      "俊",
      "一"
    ],
    [
      "^{",
      "("
    ],
    [
      "m",
      "in"
    ],
    [
      "数",
      "え"
    ],
    [
      "エ",
      "ン"
    ],
    [
      "存",
      "在"
    ],
    [
      "ット",
      "フ"
    ],
    [
      "ati",
      "ng"
    ],
    [
      "適",
      "用"
    ],
    [
      "サ",
      "ン"
    ],
    [
      "ン",
      "・"
    ],
    [
      "向",
      "上"
    ],
    [
      "Image",
      "Net"
    ],
    [
      "ar",
      "ge"
    ],
    [
      "S",
      "cal"
    ],
    [
      "al",
      "l"
    ],
    [
      "202",
      "2"
    ],
    [
      "並",
      "列"
    ],
    [
      "tten",
      "tion"
    ],
    [
      "Trans",
      "form"
    ],
    [
      "記",
      "事"
    ],
    [
      "F",
      "e"
    ],
    [
      "レイ",
      "ヤ"
    ],
    [
      "g",
      "ress"
    ],
    [
      "}",
      ","
    ],
    [
      "}",
      ")"
    ],
    [
      "W",
      "a"
    ],
    [
      "bas",
      "ed"
    ],
    [
      "a",
      "vi"
    ],
    [
      "/",
      "{"
    ],
    [
      "/{",
      "{\\"
    ],
    [
      "}}",
      "}}}"
    ],
    [
      "P",
      "y"
    ],
    [
      "f",
      "rac"
    ],
    [
      "ol",
      "d"
    ],
    [
      "ar",
      "t"
    ],
    [
      "ス",
      "レッ"
    ],
    [
      "スレッ",
      "ド"
    ],
    [
      "ig",
      "n"
    ],
    [
      "^",
      "{\\"
    ],
    [
      "math",
      "r"
    ],
    [
      "mathr",
      "m"
    ],
    [
      "a",
      "u"
    ],
    [
      "U",
      "n"
    ],
    [
      "d",
      "et"
    ],
    [
      "ic",
      "s"
    ],
    [
      "2",
      "3"
    ],
    [
      "Per",
      "ceptron"
    ],
    [
      "P",
      "ro"
    ],
    [
      "00",
      "3"
    ],
    [
      "Ar",
      "tificial"
    ],
    [
      "a",
      "ch"
    ],
    [
      "2",
      "8"
    ],
    [
      "p",
      "e"
    ],
    [
      "un",
      "i"
    ],
    [
      "le",
      "s"
    ],
    [
      "u",
      "ro"
    ],
    [
      "C",
      "ybernetics"
    ],
    [
      "Te",
      "ch"
    ],
    [
      "10",
      "16"
    ],
    [
      "Pa",
      "ttern"
    ],
    [
      "C",
      "lassification"
    ],
    [
      "un",
      "d"
    ],
    [
      "train",
      "ing"
    ],
    [
      "i",
      "r"
    ],
    [
      "do",
      "cument"
    ],
    [
      "6",
      "7"
    ],
    [
      "H",
      "o"
    ],
    [
      "H",
      "int"
    ],
    [
      "Hint",
      "on"
    ],
    [
      "Ge",
      "of"
    ],
    [
      "Geof",
      "fre"
    ],
    [
      "Geoffre",
      "y"
    ],
    [
      "re",
      "cognition"
    ],
    [
      "s",
      "cience"
    ],
    [
      "v",
      "er"
    ],
    [
      "i",
      "p"
    ],
    [
      "lec",
      "un"
    ],
    [
      "0",
      "2"
    ],
    [
      "n",
      "o"
    ],
    [
      "o",
      "b"
    ],
    [
      "for",
      "d"
    ],
    [
      "Int",
      "ern"
    ],
    [
      "Intern",
      "ational"
    ],
    [
      "pa",
      "pers"
    ],
    [
      "vol",
      "u"
    ],
    [
      "Sh",
      "a"
    ],
    [
      "o",
      "h"
    ],
    [
      "ス",
      "パ"
    ],
    [
      "スパ",
      "イ"
    ],
    [
      "イ",
      "ン"
    ],
    [
      "介",
      "し"
    ],
    [
      "情報",
      "処理"
    ],
    [
      "we",
      "ight"
    ],
    [
      "予",
      "測"
    ],
    [
      "フィー",
      "ド"
    ],
    [
      "調",
      "整"
    ],
    [
      "ニューラルネットワーク",
      "モデル"
    ],
    [
      "構",
      "成"
    ],
    [
      "か",
      "る"
    ],
    [
      "含",
      "む"
    ],
    [
      "}}",
      "+"
    ],
    [
      "}}+",
      "{\\"
    ],
    [
      "分",
      "類"
    ],
    [
      "ノ",
      "ード"
    ],
    [
      "ス",
      "テ"
    ],
    [
      "分",
      "離"
    ],
    [
      "フ",
      "ァ"
    ],
    [
      "ラ",
      "ン"
    ],
    [
      "さ",
      "ら"
    ],
    [
      "さら",
      "に"
    ],
    [
      "科",
      "学"
    ],
    [
      "197",
      "0"
    ],
    [
      "基",
      "礎"
    ],
    [
      "197",
      "1"
    ],
    [
      "力",
      "学"
    ],
    [
      "現",
      "在"
    ],
    [
      "5",
      "0"
    ],
    [
      "b",
      "ack"
    ],
    [
      "テ",
      "ク"
    ],
    [
      "ウェ",
      "イ"
    ],
    [
      "198",
      "8"
    ],
    [
      "I",
      "P"
    ],
    [
      "ジ",
      "ェ"
    ],
    [
      "教",
      "師"
    ],
    [
      "198",
      "0"
    ],
    [
      "Am",
      "er"
    ],
    [
      "Amer",
      "ic"
    ],
    [
      "シュ",
      "ミ"
    ],
    [
      "シュミ",
      "ットフ"
    ],
    [
      "シュミットフ",
      "ー"
    ],
    [
      "シュミットフー",
      "バー"
    ],
    [
      "シー",
      "ケ"
    ],
    [
      "ー",
      "マ"
    ],
    [
      "L",
      "arge"
    ],
    [
      "Scal",
      "e"
    ],
    [
      "V",
      "is"
    ],
    [
      "コ",
      "ー"
    ],
    [
      "コー",
      "ダ"
    ],
    [
      "A",
      "ttention"
    ],
    [
      "199",
      "2"
    ],
    [
      "F",
      "F"
    ],
    [
      "FF",
      "N"
    ],
    [
      "層",
      "間"
    ],
    [
      "lay",
      "er"
    ],
    [
      "re",
      "current"
    ],
    [
      "え",
      "る"
    ],
    [
      "G",
      "ra"
    ],
    [
      "た",
      "ら"
    ],
    [
      "A",
      "u"
    ],
    [
      "Nor",
      "m"
    ],
    [
      "al",
      "ization"
    ],
    [
      "D",
      "el"
    ],
    [
      "di",
      "ent"
    ],
    [
      "th",
      "od"
    ],
    [
      "20",
      "10"
    ],
    [
      "58",
      "4"
    ],
    [
      "g",
      "ain"
    ],
    [
      "ャ",
      "ッ"
    ],
    [
      "quanti",
      "zation"
    ],
    [
      "Quanti",
      "ze"
    ],
    [
      "ス",
      "パー"
    ],
    [
      "スパー",
      "ス"
    ],
    [
      "ゼ",
      "ロ"
    ],
    [
      "p",
      "si"
    ],
    [
      "}",
      "{\\"
    ],
    [
      "m",
      "an"
    ],
    [
      "5",
      "1"
    ],
    [
      "H",
      "istory"
    ],
    [
      "am",
      "b"
    ],
    [
      "t",
      "er"
    ],
    [
      "Ma",
      "the"
    ],
    [
      "Mathe",
      "ma"
    ],
    [
      "10",
      "07"
    ],
    [
      "to",
      "d"
    ],
    [
      "tod",
      "ay"
    ],
    [
      "2024",
      "10"
    ],
    [
      "202410",
      "12"
    ],
    [
      "R",
      "ep"
    ],
    [
      "Net",
      "s"
    ],
    [
      "al",
      "s"
    ],
    [
      "U",
      "ni"
    ],
    [
      "m",
      "l"
    ],
    [
      "on",
      "al"
    ],
    [
      "Ne",
      "w"
    ],
    [
      "j",
      "p"
    ],
    [
      "z",
      "ing"
    ],
    [
      "T",
      "I"
    ],
    [
      "R",
      "o"
    ],
    [
      "the",
      "ory"
    ],
    [
      "co",
      "mput"
    ],
    [
      "red",
      "ic"
    ],
    [
      "o",
      "ci"
    ],
    [
      "c",
      "s"
    ],
    [
      "Ne",
      "uro"
    ],
    [
      "en",
      "k"
    ],
    [
      "k",
      "ing"
    ],
    [
      "p",
      "i"
    ],
    [
      "A",
      "lex"
    ],
    [
      "P",
      "ol"
    ],
    [
      "ar",
      "tic"
    ],
    [
      "v",
      "el"
    ],
    [
      "i",
      "ed"
    ],
    [
      "ar",
      "m"
    ],
    [
      "Bo",
      "z"
    ],
    [
      "Boz",
      "in"
    ],
    [
      "Bozin",
      "ov"
    ],
    [
      "Bozinov",
      "ski"
    ],
    [
      "os",
      "i"
    ],
    [
      "pub",
      "lis"
    ],
    [
      "m",
      "em"
    ],
    [
      "op",
      "tim"
    ],
    [
      "p",
      "o"
    ],
    [
      "al",
      "g"
    ],
    [
      "alg",
      "or"
    ],
    [
      "algor",
      "ith"
    ],
    [
      "algorith",
      "m"
    ],
    [
      "u",
      "er"
    ],
    [
      "uer",
      "gen"
    ],
    [
      "Back",
      "propag"
    ],
    [
      "Backpropag",
      "ation"
    ],
    [
      "i",
      "ft"
    ],
    [
      "32",
      "9"
    ],
    [
      "P",
      "h"
    ],
    [
      "U",
      "s"
    ],
    [
      "198",
      "9"
    ],
    [
      "ite",
      "cture"
    ],
    [
      "C",
      "un"
    ],
    [
      "el",
      "i"
    ],
    [
      "qu",
      "ence"
    ],
    [
      "2",
      "55"
    ],
    [
      "R",
      "es"
    ],
    [
      "e",
      "arch"
    ],
    [
      "3",
      "5"
    ],
    [
      "2024",
      "09"
    ],
    [
      "v",
      "is"
    ],
    [
      "C",
      "i"
    ],
    [
      "volu",
      "tion"
    ],
    [
      "iki",
      "p"
    ],
    [
      "ikip",
      "edia"
    ],
    [
      "a",
      "h"
    ],
    [
      "on",
      "es"
    ],
    [
      "出",
      "典"
    ],
    [
      "フ",
      "リー"
    ],
    [
      "ー",
      "ト"
    ],
    [
      "模",
      "倣"
    ],
    [
      "ar",
      "tificial"
    ],
    [
      "ある",
      "い"
    ],
    [
      "あるい",
      "は"
    ],
    [
      "部",
      "分"
    ],
    [
      "参",
      "照"
    ],
    [
      "シ",
      "ナ"
    ],
    [
      "シナ",
      "プ"
    ],
    [
      "シナプ",
      "ス"
    ],
    [
      "変",
      "化"
    ],
    [
      "いく",
      "つ"
    ],
    [
      "た",
      "と"
    ],
    [
      "たと",
      "えば"
    ],
    [
      "に対",
      "して"
    ],
    [
      "行",
      "う"
    ],
    [
      "実",
      "際"
    ],
    [
      "か",
      "かる"
    ],
    [
      "s",
      "ig"
    ],
    [
      "sig",
      "ma"
    ],
    [
      "}}",
      "{\\"
    ],
    [
      "}}",
      ")}"
    ],
    [
      "ラ",
      "ス"
    ],
    [
      "議",
      "論"
    ],
    [
      "フ",
      "ィ"
    ],
    [
      "命",
      "令"
    ],
    [
      "組",
      "み"
    ],
    [
      "シ",
      "ステ"
    ],
    [
      "システ",
      "ム"
    ],
    [
      "せ",
      "る"
    ],
    [
      "応",
      "用"
    ],
    [
      "195",
      "6"
    ],
    [
      "MI",
      "T"
    ],
    [
      "ロー",
      "ゼ"
    ],
    [
      "ローゼ",
      "ン"
    ],
    [
      "ローゼン",
      "ブ"
    ],
    [
      "ローゼンブ",
      "ラ"
    ],
    [
      "ローゼンブラ",
      "ット"
    ],
    [
      "しか",
      "し"
    ],
    [
      "能",
      "力"
    ],
    [
      "実",
      "用"
    ],
    [
      "一",
      "般"
    ],
    [
      "記",
      "述"
    ],
    [
      "ご",
      "と"
    ],
    [
      "不",
      "可能"
    ],
    [
      "I",
      "I"
    ],
    [
      "196",
      "6"
    ],
    [
      "u",
      "d"
    ],
    [
      "196",
      "7"
    ],
    [
      "当",
      "時"
    ],
    [
      "発",
      "展"
    ],
    [
      "25",
      "6"
    ],
    [
      "K",
      "i"
    ],
    [
      "197",
      "6"
    ],
    [
      "よ",
      "く"
    ],
    [
      "ダ",
      "ウ"
    ],
    [
      "ダウ",
      "ン"
    ],
    [
      "c",
      "or"
    ],
    [
      "文",
      "章"
    ],
    [
      "199",
      "4"
    ],
    [
      "サン",
      "プ"
    ],
    [
      "サンプ",
      "リング"
    ],
    [
      "アー",
      "キ"
    ],
    [
      "アーキ",
      "テク"
    ],
    [
      "アーキテク",
      "チャ"
    ],
    [
      "コ",
      "ード"
    ],
    [
      "ap",
      "tive"
    ],
    [
      "Americ",
      "an"
    ],
    [
      "P",
      "sy"
    ],
    [
      "Psy",
      "ch"
    ],
    [
      "Psych",
      "olog"
    ],
    [
      "感",
      "情"
    ],
    [
      "199",
      "0"
    ],
    [
      "ユ",
      "ル"
    ],
    [
      "ユル",
      "ゲ"
    ],
    [
      "ユルゲ",
      "ン・"
    ],
    [
      "ユルゲン・",
      "シュミットフーバー"
    ],
    [
      "L",
      "S"
    ],
    [
      "特",
      "徴"
    ],
    [
      "さ",
      "い"
    ],
    [
      "コン",
      "テ"
    ],
    [
      "コンテ",
      "スト"
    ],
    [
      "フォ",
      "ーマ"
    ],
    [
      "規",
      "模"
    ],
    [
      "P",
      "U"
    ],
    [
      "201",
      "3"
    ],
    [
      "発",
      "生"
    ],
    [
      "数",
      "値"
    ],
    [
      "se",
      "q"
    ],
    [
      "A",
      "ll"
    ],
    [
      "高",
      "速"
    ],
    [
      "ー",
      "ム"
    ],
    [
      "w",
      "ard"
    ],
    [
      "信",
      "号"
    ],
    [
      "i",
      "es"
    ],
    [
      "Gener",
      "ative"
    ],
    [
      "P",
      "i"
    ],
    [
      "Wa",
      "ve"
    ],
    [
      "b",
      "o"
    ],
    [
      "Au",
      "g"
    ],
    [
      "Co",
      "mp"
    ],
    [
      "分",
      "散"
    ],
    [
      "u",
      "p"
    ],
    [
      "g",
      "ra"
    ],
    [
      "最",
      "適"
    ],
    [
      "X",
      "avi"
    ],
    [
      "Xavi",
      "er"
    ],
    [
      "G",
      "lorot"
    ],
    [
      "t",
      "an"
    ],
    [
      ",",
      "{\\"
    ],
    [
      "e",
      "le"
    ],
    [
      "el",
      "h"
    ],
    [
      "elh",
      "art"
    ],
    [
      "ラ",
      "イブ"
    ],
    [
      "ライブ",
      "ラ"
    ],
    [
      "ライブラ",
      "リ"
    ],
    [
      "activ",
      "ation"
    ],
    [
      "Quanti",
      "zation"
    ],
    [
      "ak",
      "e"
    ],
    [
      "an",
      "t"
    ],
    [
      "ci",
      "r"
    ],
    [
      "cir",
      "c"
    ],
    [
      "}}}",
      "&"
    ],
    [
      ")",
      "^{\\"
    ],
    [
      "M",
      "an"
    ],
    [
      "el",
      "d"
    ],
    [
      "Me",
      "thod"
    ],
    [
      "l",
      "er"
    ],
    [
      "6",
      "3"
    ],
    [
      "re",
      "t"
    ],
    [
      "L",
      "inear"
    ],
    [
      "An",
      "n"
    ],
    [
      "St",
      "ati"
    ],
    [
      "Stati",
      "s"
    ],
    [
      "s",
      "ti"
    ],
    [
      "20241012",
      "22"
    ],
    [
      "p",
      "r"
    ],
    [
      "Uni",
      "vers"
    ],
    [
      "Univers",
      "ity"
    ],
    [
      "P",
      "ress"
    ],
    [
      "H",
      "e"
    ],
    [
      "4",
      "9"
    ],
    [
      "Or",
      "g"
    ],
    [
      "S",
      "im"
    ],
    [
      "ig",
      "it"
    ],
    [
      "Ma",
      "ch"
    ],
    [
      "M",
      "odel"
    ],
    [
      "a",
      "ge"
    ],
    [
      "3",
      "7"
    ],
    [
      "P",
      "redic"
    ],
    [
      "or",
      "al"
    ],
    [
      "AA",
      "J"
    ],
    [
      "f",
      "fic"
    ],
    [
      "11",
      "77"
    ],
    [
      "ri",
      "b"
    ],
    [
      "P",
      "et"
    ],
    [
      "英",
      "語"
    ],
    [
      "pp",
      "ro"
    ],
    [
      "u",
      "c"
    ],
    [
      "d",
      "ynam"
    ],
    [
      "L",
      "a"
    ],
    [
      "s",
      "elf"
    ],
    [
      "7",
      "0"
    ],
    [
      "s",
      "ystem"
    ],
    [
      "n",
      "et"
    ],
    [
      "i",
      "ch"
    ],
    [
      "c",
      "tions"
    ],
    [
      "M",
      "ar"
    ],
    [
      "r",
      "y"
    ],
    [
      "c",
      "c"
    ],
    [
      "F",
      "uk"
    ],
    [
      "Fuk",
      "us"
    ],
    [
      "Fukus",
      "h"
    ],
    [
      "Fukush",
      "ima"
    ],
    [
      "f",
      "e"
    ],
    [
      "ul",
      "ti"
    ],
    [
      "A",
      "c"
    ],
    [
      "ma",
      "tic"
    ],
    [
      "\"",
      "."
    ],
    [
      "ib",
      "ni"
    ],
    [
      "ibni",
      "z"
    ],
    [
      "h",
      "ard"
    ],
    [
      "3",
      "64"
    ],
    [
      "do",
      "i"
    ],
    [
      "And",
      "re"
    ],
    [
      "Vol",
      "um"
    ],
    [
      "Volum",
      "e"
    ],
    [
      "S",
      "ep"
    ],
    [
      "ex",
      "p"
    ],
    [
      ".",
      ","
    ],
    [
      "is",
      "s"
    ],
    [
      "Ho",
      "ch"
    ],
    [
      "w",
      "it"
    ],
    [
      "m",
      "it"
    ],
    [
      "学",
      "会"
    ],
    [
      "D",
      "av"
    ],
    [
      "Dav",
      "id"
    ],
    [
      "53",
      "3"
    ],
    [
      "32",
      "3"
    ],
    [
      "sh",
      "ift"
    ],
    [
      "ic",
      "ation"
    ],
    [
      "3",
      "9"
    ],
    [
      "We",
      "i"
    ],
    [
      "arch",
      "itecture"
    ],
    [
      "d",
      "r"
    ],
    [
      "dr",
      "ive"
    ],
    [
      "fi",
      "le"
    ],
    [
      "us",
      "p"
    ],
    [
      "sh",
      "ar"
    ],
    [
      "shar",
      "ing"
    ],
    [
      "Le",
      "Cun"
    ],
    [
      "Y",
      "ann"
    ],
    [
      "a",
      "ppl"
    ],
    [
      "A",
      "p"
    ],
    [
      "6",
      "5"
    ],
    [
      "ic",
      "ro"
    ],
    [
      "5",
      "9"
    ],
    [
      "se",
      "con"
    ],
    [
      "secon",
      "d"
    ],
    [
      "second",
      "ary"
    ],
    [
      "stru",
      "cture"
    ],
    [
      "J",
      "ak"
    ],
    [
      "Jak",
      "ob"
    ],
    [
      "i",
      "ee"
    ],
    [
      "N",
      "A"
    ],
    [
      "10",
      "7"
    ],
    [
      "Go",
      "me"
    ],
    [
      "Gome",
      "z"
    ],
    [
      "us",
      "e"
    ],
    [
      "ou",
      "g"
    ],
    [
      "it",
      "er"
    ],
    [
      "ul",
      "t"
    ],
    [
      "on",
      "g"
    ],
    [
      "on",
      "y"
    ],
    [
      "s",
      "u"
    ],
    [
      "G",
      "amb"
    ],
    [
      "Gamb",
      "ard"
    ],
    [
      "Gambard",
      "el"
    ],
    [
      "Gambardel",
      "la"
    ],
    [
      "Ci",
      "res"
    ],
    [
      "Cires",
      "an"
    ],
    [
      "Per",
      "formance"
    ],
    [
      "Con",
      "volution"
    ],
    [
      "con",
      "t"
    ],
    [
      "J",
      "un"
    ],
    [
      "Jun",
      "e"
    ],
    [
      "J",
      "ian"
    ],
    [
      "V",
      "as"
    ],
    [
      "Vas",
      "w"
    ],
    [
      "Vasw",
      "ani"
    ],
    [
      "Transform",
      "ers"
    ],
    [
      "w",
      "h"
    ],
    [
      "g",
      "lorot"
    ],
    [
      "activ",
      "ations"
    ],
    [
      "quanti",
      "ze"
    ],
    [
      "デ",
      "ィ"
    ],
    [
      "ディ",
      "ア"
    ],
    [
      "キ",
      "ング"
    ],
    [
      "ま",
      "す"
    ],
    [
      "サ",
      "ー"
    ],
    [
      "メ",
      "カ"
    ],
    [
      "メカ",
      "ニ"
    ],
    [
      "メカニ",
      "ズム"
    ],
    [
      "人",
      "間"
    ],
    [
      "説",
      "明"
    ],
    [
      "が",
      "っ"
    ],
    [
      "た",
      "だ"
    ],
    [
      "強",
      "度"
    ],
    [
      "作",
      "ら"
    ],
    [
      "影",
      "響"
    ],
    [
      "だ",
      "け"
    ],
    [
      "weight",
      "s"
    ],
    [
      "し",
      "い"
    ],
    [
      "減",
      "少"
    ],
    [
      "多",
      "数"
    ],
    [
      "繰",
      "り"
    ],
    [
      "繰り",
      "返"
    ],
    [
      "数",
      "学"
    ],
    [
      "な",
      "お"
    ],
    [
      "相",
      "互"
    ],
    [
      "さ",
      "ま"
    ],
    [
      "さま",
      "ざ"
    ],
    [
      "さまざ",
      "ま"
    ],
    [
      "構",
      "造"
    ],
    [
      "入",
      "出力"
    ],
    [
      "に",
      "関"
    ],
    [
      "(",
      "{\\"
    ],
    [
      "ク",
      "ラス"
    ],
    [
      "タ",
      "ス"
    ],
    [
      "タス",
      "ク"
    ],
    [
      "当",
      "初"
    ],
    [
      "20",
      "0"
    ],
    [
      "以",
      "上"
    ],
    [
      "基",
      "づ"
    ],
    [
      "最",
      "も"
    ],
    [
      "フィード",
      "フォ"
    ],
    [
      "フィードフォ",
      "ワード"
    ],
    [
      "持",
      "つ"
    ],
    [
      "合",
      "計"
    ],
    [
      "コンピュー",
      "タ"
    ],
    [
      "プロ",
      "セ"
    ],
    [
      "実",
      "行"
    ],
    [
      "一",
      "方"
    ],
    [
      "ノ",
      "イ"
    ],
    [
      "マ",
      "ン"
    ],
    [
      "な",
      "り"
    ],
    [
      "考",
      "察"
    ],
    [
      "ア",
      "プロ"
    ],
    [
      "アプロ",
      "ー"
    ],
    [
      "アプロー",
      "チ"
    ],
    [
      "当",
      "て"
    ],
    [
      "195",
      "4"
    ],
    [
      "ファ",
      "ー"
    ],
    [
      "ファー",
      "リー"
    ],
    [
      "ク",
      "ラー"
    ],
    [
      "クラー",
      "ク"
    ],
    [
      "作",
      "成"
    ],
    [
      "ジ",
      "ョ"
    ],
    [
      "彼",
      "ら"
    ],
    [
      "大",
      "幅"
    ],
    [
      "増",
      "加"
    ],
    [
      "適",
      "応"
    ],
    [
      "隠",
      "れ"
    ],
    [
      "な",
      "わ"
    ],
    [
      "行",
      "わ"
    ],
    [
      "ア",
      "レ"
    ],
    [
      "ネ",
      "ン"
    ],
    [
      "な",
      "し"
    ],
    [
      "ab",
      "or"
    ],
    [
      "日",
      "本"
    ],
    [
      "幾",
      "何"
    ],
    [
      "出",
      "版"
    ],
    [
      "ス",
      "カ"
    ],
    [
      "D",
      "ud"
    ],
    [
      "Dud",
      "a"
    ],
    [
      "手",
      "書"
    ],
    [
      "手書",
      "き"
    ],
    [
      "識",
      "別"
    ],
    [
      "ハ",
      "ード"
    ],
    [
      "ハード",
      "ウェ"
    ],
    [
      "ハードウェ",
      "ア"
    ],
    [
      "限",
      "界"
    ],
    [
      "東",
      "京"
    ],
    [
      "東京",
      "大"
    ],
    [
      "東京大",
      "学"
    ],
    [
      "Ki",
      "B"
    ],
    [
      "述",
      "べ"
    ],
    [
      "16",
      "7"
    ],
    [
      "propag",
      "ating"
    ],
    [
      "自",
      "動"
    ],
    [
      "ス",
      "キ"
    ],
    [
      "スキ",
      "ー"
    ],
    [
      "グ",
      "ラ"
    ],
    [
      "特",
      "に"
    ],
    [
      "複",
      "数"
    ],
    [
      "出",
      "さ"
    ],
    [
      "サ",
      "イ"
    ],
    [
      "活",
      "動"
    ],
    [
      "過",
      "去"
    ],
    [
      "Psycholog",
      "ist"
    ],
    [
      "関",
      "係"
    ],
    [
      "イ",
      "ア"
    ],
    [
      "シーケ",
      "ンス"
    ],
    [
      "事",
      "前"
    ],
    [
      "P",
      "re"
    ],
    [
      "199",
      "3"
    ],
    [
      "解",
      "決"
    ],
    [
      "LS",
      "T"
    ],
    [
      "LST",
      "M"
    ],
    [
      "ジェ",
      "フリー"
    ],
    [
      "ヒ",
      "ン"
    ],
    [
      "ヒン",
      "ト"
    ],
    [
      "ヒント",
      "ン"
    ],
    [
      "ディープ",
      "・"
    ],
    [
      "・",
      "ネットワーク"
    ],
    [
      "もと",
      "もと"
    ],
    [
      "小",
      "さい"
    ],
    [
      "作",
      "業"
    ],
    [
      "パ",
      "フォーマ"
    ],
    [
      "パフォーマ",
      "ンス"
    ],
    [
      "近",
      "づ"
    ],
    [
      "Vis",
      "ual"
    ],
    [
      "all",
      "en"
    ],
    [
      "allen",
      "ge"
    ],
    [
      "概",
      "念"
    ],
    [
      "D",
      "i"
    ],
    [
      "デ",
      "コーダ"
    ],
    [
      "や",
      "す"
    ],
    [
      "やす",
      "い"
    ],
    [
      "ー",
      "ス"
    ],
    [
      "し",
      "く"
    ],
    [
      "I",
      "s"
    ],
    [
      "Y",
      "ou"
    ],
    [
      "Ne",
      "ed"
    ],
    [
      "er",
      "t"
    ],
    [
      "for",
      "ward"
    ],
    [
      "B",
      "F"
    ],
    [
      "多",
      "い"
    ],
    [
      "S",
      "elf"
    ],
    [
      "自",
      "然"
    ],
    [
      "使",
      "わ"
    ],
    [
      "複素",
      "数"
    ],
    [
      "速",
      "度"
    ],
    [
      "母",
      "集"
    ],
    [
      "母集",
      "団"
    ],
    [
      "gress",
      "ive"
    ],
    [
      "系",
      "列"
    ],
    [
      "条",
      "件"
    ],
    [
      "自",
      "体"
    ],
    [
      "Ad",
      "vers"
    ],
    [
      "Advers",
      "ar"
    ],
    [
      "Adversar",
      "ial"
    ],
    [
      "at",
      "or"
    ],
    [
      "I",
      "C"
    ],
    [
      "N",
      "V"
    ],
    [
      "も",
      "たら"
    ],
    [
      "p",
      "ut"
    ],
    [
      "B",
      "N"
    ],
    [
      "詳",
      "細"
    ],
    [
      "それ",
      "ぞ"
    ],
    [
      "それぞ",
      "れ"
    ],
    [
      "省",
      "略"
    ],
    [
      "tan",
      "h"
    ],
    [
      "(",
      "-"
    ],
    [
      "(-",
      "{\\"
    ],
    [
      "}}}}}",
      ",{\\"
    ],
    [
      "}}}}}",
      ")}"
    ],
    [
      "o",
      "ut"
    ],
    [
      "Py",
      "T"
    ],
    [
      "PyT",
      "or"
    ],
    [
      "PyTor",
      "ch"
    ],
    [
      "p",
      "m"
    ],
    [
      "an",
      "al"
    ],
    [
      "res",
      "h"
    ],
    [
      "resh",
      "old"
    ],
    [
      "起",
      "こ"
    ],
    [
      "基",
      "本"
    ],
    [
      "ib",
      "r"
    ],
    [
      "反",
      "復"
    ],
    [
      "I",
      "N"
    ],
    [
      "IN",
      "T"
    ],
    [
      "効",
      "果"
    ],
    [
      "キ",
      "ャッ"
    ],
    [
      "キャッ",
      "シュ"
    ],
    [
      "Q",
      "D"
    ],
    [
      "QD",
      "Q"
    ],
    [
      "a",
      "tic"
    ],
    [
      "D",
      "ynam"
    ],
    [
      "数",
      "式"
    ],
    [
      "通",
      "り"
    ],
    [
      "le",
      "ft"
    ],
    [
      "r",
      "ight"
    ],
    [
      "\\",
      "{\\"
    ],
    [
      "av",
      "a"
    ],
    [
      "つ",
      "く"
    ],
    [
      "つく",
      "る"
    ],
    [
      "20",
      "08"
    ],
    [
      "R",
      "el"
    ],
    [
      "ar",
      "es"
    ],
    [
      "S",
      "te"
    ],
    [
      "198",
      "1"
    ],
    [
      "In",
      "v"
    ],
    [
      "en",
      "tion"
    ],
    [
      "4",
      "5"
    ],
    [
      "s",
      "ch"
    ],
    [
      "r",
      "d"
    ],
    [
      ".",
      ")."
    ],
    [
      "P",
      "r"
    ],
    [
      "en",
      "ti"
    ],
    [
      "M",
      "od"
    ],
    [
      "Statis",
      "tics"
    ],
    [
      "det",
      "a"
    ],
    [
      "h",
      "istory"
    ],
    [
      "De",
      "ce"
    ],
    [
      "Dece",
      "mber"
    ],
    [
      "id",
      "e"
    ],
    [
      "er",
      "v"
    ],
    [
      "ti",
      "n"
    ],
    [
      "Mathema",
      "tical"
    ],
    [
      "25",
      "9"
    ],
    [
      "St",
      "u"
    ],
    [
      "3",
      "4"
    ],
    [
      "4",
      "1"
    ],
    [
      "978",
      "14"
    ],
    [
      "97814",
      "00"
    ],
    [
      "9781400",
      "88"
    ],
    [
      "978140088",
      "26"
    ],
    [
      "97814008826",
      "18"
    ],
    [
      "an",
      "ization"
    ],
    [
      "B",
      "e"
    ],
    [
      "Y",
      "ork"
    ],
    [
      "W",
      "i"
    ],
    [
      "Wi",
      "ley"
    ],
    [
      "ani",
      "zing"
    ],
    [
      "igit",
      "al"
    ],
    [
      "The",
      "ory"
    ],
    [
      "ch",
      "e"
    ],
    [
      "H",
      "ol"
    ],
    [
      "l",
      "and"
    ],
    [
      "R",
      "os"
    ],
    [
      "Ros",
      "en"
    ],
    [
      "Rosen",
      "b"
    ],
    [
      "Rosenb",
      "la"
    ],
    [
      "Rosenbla",
      "tt"
    ],
    [
      "is",
      "tic"
    ],
    [
      "Re",
      "view"
    ],
    [
      "00",
      "4"
    ],
    [
      "er",
      "b"
    ],
    [
      "erb",
      "os"
    ],
    [
      "ys",
      "is"
    ],
    [
      "A",
      "C"
    ],
    [
      "F",
      "ran"
    ],
    [
      "ar",
      "an"
    ],
    [
      "i",
      "k"
    ],
    [
      "S",
      "oci"
    ],
    [
      "Pet",
      "er"
    ],
    [
      "Int",
      "ell"
    ],
    [
      "Intell",
      "ig"
    ],
    [
      "Intellig",
      "ence"
    ],
    [
      "ate",
      "s"
    ],
    [
      "pe",
      "op"
    ],
    [
      "peop",
      "le"
    ],
    [
      "I",
      "v"
    ],
    [
      "Iv",
      "ak"
    ],
    [
      "Ivak",
      "h"
    ],
    [
      "Ivakh",
      "n"
    ],
    [
      "Ivakhn",
      "enk"
    ],
    [
      "Ivakhnenk",
      "o"
    ],
    [
      "44",
      "4"
    ],
    [
      "M",
      "arch"
    ],
    [
      "m",
      "s"
    ],
    [
      "00",
      "05"
    ],
    [
      "9",
      "8"
    ],
    [
      "pi",
      "i"
    ],
    [
      "system",
      "s"
    ],
    [
      "T",
      "S"
    ],
    [
      "3",
      "20"
    ],
    [
      "artic",
      "les"
    ],
    [
      "58",
      "6"
    ],
    [
      "ar",
      "i"
    ],
    [
      "F",
      "o"
    ],
    [
      "c",
      "ri"
    ],
    [
      "un",
      "ctions"
    ],
    [
      "E",
      "le"
    ],
    [
      "sk",
      "y"
    ],
    [
      "196",
      "9"
    ],
    [
      "30",
      "22"
    ],
    [
      "at",
      "ure"
    ],
    [
      "S",
      "C"
    ],
    [
      "S",
      "on"
    ],
    [
      "at",
      "a"
    ],
    [
      "Appl",
      "ied"
    ],
    [
      "ma",
      "ch"
    ],
    [
      "o",
      "c"
    ],
    [
      "O",
      "c"
    ],
    [
      "t",
      "rans"
    ],
    [
      "In",
      "for"
    ],
    [
      "matic",
      "a"
    ],
    [
      "pa",
      "per"
    ],
    [
      "Le",
      "ibniz"
    ],
    [
      "F",
      "re"
    ],
    [
      "t",
      "ed"
    ],
    [
      "ro",
      "m"
    ],
    [
      "te",
      "s"
    ],
    [
      "O",
      "p"
    ],
    [
      "9",
      "0"
    ],
    [
      "Gra",
      "dient"
    ],
    [
      "mp",
      "le"
    ],
    [
      "iv",
      "ative"
    ],
    [
      "79",
      "1"
    ],
    [
      "ent",
      "ed"
    ],
    [
      "I",
      "S"
    ],
    [
      "b",
      "i"
    ],
    [
      "5",
      "2"
    ],
    [
      "u",
      "la"
    ],
    [
      "ro",
      "und"
    ],
    [
      "round",
      "ing"
    ],
    [
      "lo",
      "cal"
    ],
    [
      "error",
      "s"
    ],
    [
      "s",
      "in"
    ],
    [
      "I",
      "D"
    ],
    [
      "I",
      "A"
    ],
    [
      "v",
      "ance"
    ],
    [
      "vance",
      "s"
    ],
    [
      "l",
      "inear"
    ],
    [
      "en",
      "si"
    ],
    [
      "optim",
      "ization"
    ],
    [
      "7",
      "62"
    ],
    [
      "p",
      "ress"
    ],
    [
      "di",
      "re"
    ],
    [
      "dire",
      "ct"
    ],
    [
      "t",
      "s"
    ],
    [
      "R",
      "um"
    ],
    [
      "Rum",
      "elhart"
    ],
    [
      "il",
      "l"
    ],
    [
      "53",
      "6"
    ],
    [
      "N",
      "at"
    ],
    [
      "Nat",
      "ur"
    ],
    [
      "J",
      "an"
    ],
    [
      "Jan",
      "u"
    ],
    [
      "Janu",
      "ary"
    ],
    [
      "Ne",
      "o"
    ],
    [
      "Neo",
      "cog"
    ],
    [
      "Neocog",
      "n"
    ],
    [
      "Neocogn",
      "it"
    ],
    [
      "Neocognit",
      "ron"
    ],
    [
      "p",
      "osi"
    ],
    [
      "posi",
      "tion"
    ],
    [
      "me",
      "ch"
    ],
    [
      "mech",
      "an"
    ],
    [
      "mechan",
      "is"
    ],
    [
      "a",
      "ff"
    ],
    [
      "J",
      "ap"
    ],
    [
      "Jap",
      "an"
    ],
    [
      "on",
      "em"
    ],
    [
      "onem",
      "e"
    ],
    [
      "In",
      "sti"
    ],
    [
      "Insti",
      "t"
    ],
    [
      "u",
      "te"
    ],
    [
      "m",
      "m"
    ],
    [
      "in",
      "v"
    ],
    [
      "inv",
      "ar"
    ],
    [
      "invar",
      "ian"
    ],
    [
      "invarian",
      "t"
    ],
    [
      "it",
      "s"
    ],
    [
      "and",
      "w"
    ],
    [
      "andw",
      "ri"
    ],
    [
      "andwri",
      "tten"
    ],
    [
      "ic",
      "k"
    ],
    [
      "y",
      "ann"
    ],
    [
      "ex",
      "d"
    ],
    [
      "exd",
      "b"
    ],
    [
      "al",
      "le"
    ],
    [
      "alle",
      "l"
    ],
    [
      "ist",
      "rib"
    ],
    [
      "istrib",
      "ut"
    ],
    [
      "istribut",
      "ed"
    ],
    [
      "proce",
      "ssing"
    ],
    [
      "W",
      "o"
    ],
    [
      "T",
      "k"
    ],
    [
      "um",
      "an"
    ],
    [
      "z",
      "ed"
    ],
    [
      "u",
      "st"
    ],
    [
      "64",
      "2"
    ],
    [
      "g",
      "lo"
    ],
    [
      "glo",
      "b"
    ],
    [
      "te",
      "in"
    ],
    [
      "model",
      "s"
    ],
    [
      "olog",
      "y"
    ],
    [
      "r",
      "un"
    ],
    [
      "tt",
      "er"
    ],
    [
      "ce",
      "s"
    ],
    [
      "Se",
      "quence"
    ],
    [
      "255",
      "4"
    ],
    [
      "S",
      "an"
    ],
    [
      "a",
      "g"
    ],
    [
      "Ro",
      "ber"
    ],
    [
      "Rober",
      "t"
    ],
    [
      "S",
      "i"
    ],
    [
      "h",
      "er"
    ],
    [
      "20",
      "19"
    ],
    [
      "F",
      "K"
    ],
    [
      "FK",
      "I"
    ],
    [
      "14",
      "8"
    ],
    [
      "id",
      "si"
    ],
    [
      "idsi",
      "a"
    ],
    [
      "/",
      "~"
    ],
    [
      "j",
      "uergen"
    ],
    [
      "Hoch",
      "re"
    ],
    [
      "Hochre",
      "iter"
    ],
    [
      "net",
      "s"
    ],
    [
      ")",
      ","
    ],
    [
      "Co",
      "g"
    ],
    [
      "Cog",
      "ni"
    ],
    [
      "su",
      "per"
    ],
    [
      "super",
      "vis"
    ],
    [
      "supervis",
      "ed"
    ],
    [
      "3",
      "1"
    ],
    [
      "Me",
      "i"
    ],
    [
      "Mei",
      "er"
    ],
    [
      "H",
      "igh"
    ],
    [
      "Convolution",
      "al"
    ],
    [
      "2",
      "10"
    ],
    [
      "C",
      "ur"
    ],
    [
      "A",
      "ss"
    ],
    [
      "g",
      "es"
    ],
    [
      "M",
      "ulti"
    ],
    [
      "c",
      "lassification"
    ],
    [
      "h",
      "e"
    ],
    [
      "K",
      "ar"
    ],
    [
      "Andre",
      "w"
    ],
    [
      "res",
      "earch"
    ],
    [
      "N",
      "on"
    ],
    [
      "pa",
      "ti"
    ],
    [
      "pati",
      "o"
    ],
    [
      "abil",
      "ity"
    ],
    [
      "ro",
      "w"
    ],
    [
      "mp",
      "ro"
    ],
    [
      "S",
      "ur"
    ],
    [
      "Mach",
      "ine"
    ],
    [
      "proce",
      "edings"
    ],
    [
      "ml",
      "r"
    ],
    [
      "Ka",
      "im"
    ],
    [
      "Kaim",
      "ing"
    ],
    [
      "X",
      "i"
    ],
    [
      "Xi",
      "ang"
    ],
    [
      "Xiang",
      "y"
    ],
    [
      "Xiangy",
      "u"
    ],
    [
      "R",
      "en"
    ],
    [
      "Sha",
      "o"
    ],
    [
      "Shao",
      "q"
    ],
    [
      "Shaoq",
      "ing"
    ],
    [
      "S",
      "un"
    ],
    [
      "Re",
      "c"
    ],
    [
      "Rec",
      "ti"
    ],
    [
      "Recti",
      "fi"
    ],
    [
      "A",
      "sh"
    ],
    [
      "Ash",
      "is"
    ],
    [
      "Ashis",
      "h"
    ],
    [
      "Sha",
      "ze"
    ],
    [
      "Shaze",
      "er"
    ],
    [
      "No",
      "am"
    ],
    [
      "P",
      "arm"
    ],
    [
      "Parm",
      "ar"
    ],
    [
      "N",
      "iki"
    ],
    [
      "Us",
      "z"
    ],
    [
      "Usz",
      "k"
    ],
    [
      "Uszk",
      "ore"
    ],
    [
      "Uszkore",
      "it"
    ],
    [
      "J",
      "ones"
    ],
    [
      "L",
      "l"
    ],
    [
      "Ll",
      "ion"
    ],
    [
      "A",
      "id"
    ],
    [
      "Aid",
      "an"
    ],
    [
      "Ka",
      "is"
    ],
    [
      "Kais",
      "er"
    ],
    [
      "uk",
      "as"
    ],
    [
      "ukas",
      "z"
    ],
    [
      "Pol",
      "os"
    ],
    [
      "Polos",
      "uk"
    ],
    [
      "Polosuk",
      "h"
    ],
    [
      "Polosukh",
      "in"
    ],
    [
      "I",
      "ll"
    ],
    [
      "Ill",
      "ia"
    ],
    [
      "ol",
      "ar"
    ],
    [
      "ang",
      "u"
    ],
    [
      "h",
      "as"
    ],
    [
      "tor",
      "ch"
    ],
    [
      "th",
      "at"
    ],
    [
      "ニュー",
      "ロ"
    ],
    [
      "par",
      "am"
    ],
    [
      "param",
      "et"
    ],
    [
      "paramet",
      "ers"
    ],
    [
      "per",
      "formance"
    ],
    [
      "O",
      "NN"
    ],
    [
      "ONN",
      "X"
    ],
    [
      "ti",
      "me"
    ],
    [
      "リン",
      "ク"
    ],
    [
      "W",
      "ikipedia"
    ],
    [
      "B",
      "ah"
    ],
    [
      "с",
      "к"
    ],
    [
      "ch",
      "a"
    ],
    [
      "スパイ",
      "キング"
    ],
    [
      "スパイキング",
      "ニューラルネットワーク"
    ],
    [
      "マ",
      "シ"
    ],
    [
      "マ",
      "イ"
    ],
    [
      "広",
      "く"
    ],
    [
      "数",
      "理"
    ],
    [
      "対",
      "象"
    ],
    [
      "理",
      "解"
    ],
    [
      "そ",
      "も"
    ],
    [
      "ど",
      "の"
    ],
    [
      "し",
      "よ"
    ],
    [
      "の",
      "で"
    ],
    [
      "互",
      "い"
    ],
    [
      "互い",
      "に"
    ],
    [
      "end",
      "r"
    ],
    [
      "endr",
      "ite"
    ],
    [
      "突",
      "起"
    ],
    [
      "受",
      "け"
    ],
    [
      "受け",
      "取り"
    ],
    [
      "そ",
      "して"
    ],
    [
      "拡",
      "大"
    ],
    [
      "い",
      "ただ"
    ],
    [
      "いただ",
      "き"
    ],
    [
      "た",
      "い"
    ],
    [
      "外",
      "的"
    ],
    [
      "刺",
      "激"
    ],
    [
      "反",
      "応"
    ],
    [
      "ち",
      "ょ"
    ],
    [
      "ちょ",
      "く"
    ],
    [
      "が",
      "り"
    ],
    [
      "ゆ",
      "く"
    ],
    [
      "過",
      "程"
    ],
    [
      "ま",
      "っ"
    ],
    [
      "ほ",
      "ど"
    ],
    [
      "正",
      "しい"
    ],
    [
      "オ",
      "レン"
    ],
    [
      "オレン",
      "ジ"
    ],
    [
      "or",
      "an"
    ],
    [
      "oran",
      "ge"
    ],
    [
      "程",
      "度"
    ],
    [
      "フィード",
      "バック"
    ],
    [
      "提",
      "示"
    ],
    [
      "設",
      "定"
    ],
    [
      "と",
      "り"
    ],
    [
      "種",
      "類"
    ],
    [
      "階",
      "層"
    ],
    [
      "選",
      "択"
    ],
    [
      "提",
      "唱"
    ],
    [
      "後",
      "続"
    ],
    [
      ")",
      "=\\"
    ],
    [
      "メ",
      "ン"
    ],
    [
      "挙",
      "げ"
    ],
    [
      "連",
      "続"
    ],
    [
      "任",
      "意"
    ],
    [
      "証",
      "明"
    ],
    [
      "基づ",
      "い"
    ],
    [
      "フィードフォワード",
      "ニューラルネットワーク"
    ],
    [
      "単",
      "一"
    ],
    [
      "直",
      "接"
    ],
    [
      "目",
      "標"
    ],
    [
      "9",
      "5"
    ],
    [
      "デ",
      "ジ"
    ],
    [
      "デジ",
      "タ"
    ],
    [
      "デジタ",
      "ル"
    ],
    [
      "プロセ",
      "ッ"
    ],
    [
      "プロセッ",
      "サ"
    ],
    [
      "ク",
      "セ"
    ],
    [
      "動",
      "作"
    ],
    [
      "焦",
      "点"
    ],
    [
      "も",
      "う"
    ],
    [
      "知",
      "能"
    ],
    [
      "レ",
      "ート"
    ],
    [
      "ラン",
      "ド"
    ],
    [
      "ビ",
      "ット"
    ],
    [
      "米",
      "国"
    ],
    [
      "資",
      "金"
    ],
    [
      "提",
      "供"
    ],
    [
      "ジョ",
      "セ"
    ],
    [
      "ジョセ",
      "フ"
    ],
    [
      "装",
      "置"
    ],
    [
      "カ",
      "ー"
    ],
    [
      "に関",
      "する"
    ],
    [
      "貢",
      "献"
    ],
    [
      "196",
      "2"
    ],
    [
      "ロ",
      "ック"
    ],
    [
      "引",
      "用"
    ],
    [
      "す",
      "なわ"
    ],
    [
      "すなわ",
      "ち"
    ],
    [
      "ブ",
      "レ"
    ],
    [
      "ル",
      "ー"
    ],
    [
      "イ",
      "ヴ"
    ],
    [
      "イヴ",
      "ァ"
    ],
    [
      "ネン",
      "コ"
    ],
    [
      "深",
      "い"
    ],
    [
      "多",
      "項"
    ],
    [
      "多項",
      "式"
    ],
    [
      "ディープ",
      "ネットワーク"
    ],
    [
      "分",
      "析"
    ],
    [
      "セ",
      "ット"
    ],
    [
      "刈",
      "り"
    ],
    [
      "また",
      "は"
    ],
    [
      "で",
      "も"
    ],
    [
      "斎",
      "藤"
    ],
    [
      "日本",
      "語"
    ],
    [
      "修",
      "士"
    ],
    [
      "196",
      "8"
    ],
    [
      "スカ",
      "ラー"
    ],
    [
      "文",
      "字"
    ],
    [
      ")}",
      "\\"
    ],
    [
      "ma",
      "x"
    ],
    [
      "\\",
      "{"
    ],
    [
      "195",
      "1"
    ],
    [
      "よ",
      "る"
    ],
    [
      "その",
      "後"
    ],
    [
      "ハ",
      "イ"
    ],
    [
      "エン",
      "ド"
    ],
    [
      "急",
      "激"
    ],
    [
      "原",
      "因"
    ],
    [
      "コンピュー",
      "ター"
    ],
    [
      "性",
      "能"
    ],
    [
      "す",
      "ぎ"
    ],
    [
      "50",
      "20"
    ],
    [
      "Re",
      "L"
    ],
    [
      "ReL",
      "U"
    ],
    [
      "・",
      "ヴ"
    ],
    [
      "・ヴ",
      "ィ"
    ],
    [
      "ッ",
      "ツ"
    ],
    [
      "で",
      "は"
    ],
    [
      "ト",
      "ップ"
    ],
    [
      "トップ",
      "ダウン"
    ],
    [
      "リ",
      "バー"
    ],
    [
      "リバー",
      "ス"
    ],
    [
      "リバース",
      "・"
    ],
    [
      "リバース・",
      "モ"
    ],
    [
      "リバース・モ",
      "ード"
    ],
    [
      "proce",
      "d"
    ],
    [
      "proced",
      "ure"
    ],
    [
      "手",
      "順"
    ],
    [
      "用",
      "語"
    ],
    [
      "初",
      "め"
    ],
    [
      "初め",
      "て"
    ],
    [
      "後",
      "半"
    ],
    [
      "に",
      "て"
    ],
    [
      "マ",
      "ー"
    ],
    [
      "現",
      "代"
    ],
    [
      "形",
      "式"
    ],
    [
      "フ",
      "スキー"
    ],
    [
      "ー",
      "ル"
    ],
    [
      "ま",
      "だ"
    ],
    [
      "定",
      "着"
    ],
    [
      "と",
      "う"
    ],
    [
      "197",
      "9"
    ],
    [
      "福",
      "島"
    ],
    [
      "邦",
      "彦"
    ],
    [
      "プ",
      "ー"
    ],
    [
      "プー",
      "リング"
    ],
    [
      "198",
      "7"
    ],
    [
      "アレ",
      "ック"
    ],
    [
      "アレック",
      "ス"
    ],
    [
      "D",
      "NN"
    ],
    [
      "チャ",
      "ン"
    ],
    [
      "数",
      "字"
    ],
    [
      "ス",
      "ケ"
    ],
    [
      "加",
      "え"
    ],
    [
      "19",
      "43"
    ],
    [
      "受",
      "ける"
    ],
    [
      "ま",
      "り"
    ],
    [
      "ク",
      "ロ"
    ],
    [
      "クロ",
      "ス"
    ],
    [
      "クロス",
      "バー"
    ],
    [
      "ア",
      "レイ"
    ],
    [
      "C",
      "ro"
    ],
    [
      "Ad",
      "aptive"
    ],
    [
      "接",
      "続"
    ],
    [
      "決",
      "定"
    ],
    [
      "結",
      "果"
    ],
    [
      "心",
      "理"
    ],
    [
      "同",
      "時"
    ],
    [
      "機",
      "能"
    ],
    [
      "ニューラル",
      "ヒ"
    ],
    [
      "ニューラルヒ",
      "スト"
    ],
    [
      "ニューラルヒスト",
      "リー"
    ],
    [
      "ニューラルヒストリー",
      "コン"
    ],
    [
      "ニューラルヒストリーコン",
      "プ"
    ],
    [
      "ニューラルヒストリーコンプ",
      "レッ"
    ],
    [
      "ニューラルヒストリーコンプレッ",
      "サー"
    ],
    [
      "198",
      "5"
    ],
    [
      "ディープ・",
      "ビ"
    ],
    [
      "ディープ・ビ",
      "リー"
    ],
    [
      "ディープ・ビリー",
      "フ"
    ],
    [
      "ディープ・ビリーフ",
      "・ネットワーク"
    ],
    [
      "同",
      "じ"
    ],
    [
      "抽",
      "出"
    ],
    [
      "し",
      "込"
    ],
    [
      "20",
      "09"
    ],
    [
      "レ",
      "ベル"
    ],
    [
      "201",
      "1"
    ],
    [
      "視",
      "覚"
    ],
    [
      "達",
      "成"
    ],
    [
      "従",
      "来"
    ],
    [
      "示",
      "し"
    ],
    [
      "Ch",
      "allenge"
    ],
    [
      "ア",
      "ン"
    ],
    [
      "V",
      "G"
    ],
    [
      "G",
      "PU"
    ],
    [
      "特",
      "性"
    ],
    [
      "損",
      "失"
    ],
    [
      "St",
      "yle"
    ],
    [
      "Style",
      "GAN"
    ],
    [
      "D",
      "A"
    ],
    [
      "ab",
      "le"
    ],
    [
      "テ",
      "ン"
    ],
    [
      "追",
      "加"
    ],
    [
      "Se",
      "q"
    ],
    [
      "考",
      "え"
    ],
    [
      "固",
      "定"
    ],
    [
      "デコーダ",
      "ー"
    ],
    [
      "エン",
      "コーダ"
    ],
    [
      "Transform",
      "er"
    ],
    [
      "ブ",
      "ーム"
    ],
    [
      "フィ",
      "ン"
    ],
    [
      "196",
      "4"
    ],
    [
      "W",
      "eng"
    ],
    [
      "Weng",
      "ert"
    ],
    [
      "代",
      "表"
    ],
    [
      "全",
      "く"
    ],
    [
      "Fe",
      "ed"
    ],
    [
      "総",
      "称"
    ],
    [
      "し",
      "ば"
    ],
    [
      "対",
      "比"
    ],
    [
      "様",
      "式"
    ],
    [
      "持",
      "た"
    ],
    [
      "す",
      "べ"
    ],
    [
      "すべ",
      "て"
    ],
    [
      "も",
      "つ"
    ],
    [
      "シーケ",
      "ン"
    ],
    [
      "シーケン",
      "シ"
    ],
    [
      "シーケンシ",
      "ャ"
    ],
    [
      "シーケンシャ",
      "ル"
    ],
    [
      "繰り返",
      "す"
    ],
    [
      "比",
      "較"
    ],
    [
      "容",
      "易"
    ],
    [
      "上",
      "限"
    ],
    [
      "Re",
      "gress"
    ],
    [
      "Regress",
      "ion"
    ],
    [
      "マ",
      "ップ"
    ],
    [
      "一",
      "種"
    ],
    [
      "リカレント",
      "ニューラルネット"
    ],
    [
      "全",
      "て"
    ],
    [
      "持",
      "っ"
    ],
    [
      "有",
      "効"
    ],
    [
      "機",
      "構"
    ],
    [
      "言",
      "語"
    ],
    [
      "比",
      "べ"
    ],
    [
      "乱",
      "数"
    ],
    [
      "考",
      "える"
    ],
    [
      "スパイ",
      "ク"
    ],
    [
      "範",
      "囲"
    ],
    [
      "逐",
      "次"
    ],
    [
      "向",
      "け"
    ],
    [
      "チ",
      "ップ"
    ],
    [
      "波",
      "動"
    ],
    [
      "振",
      "幅"
    ],
    [
      "回",
      "転"
    ],
    [
      "持",
      "ち"
    ],
    [
      "レ",
      "クト"
    ],
    [
      "詳",
      "しく"
    ],
    [
      "si",
      "m"
    ],
    [
      "})",
      "=\\"
    ],
    [
      "pro",
      "d"
    ],
    [
      "}",
      "^{"
    ],
    [
      "}",
      "|"
    ],
    [
      "_{",
      "<"
    ],
    [
      "ut",
      "ore"
    ],
    [
      "utore",
      "gressive"
    ],
    [
      "x",
      "el"
    ],
    [
      "Wave",
      "Net"
    ],
    [
      "Wave",
      "RNN"
    ],
    [
      "付",
      "け"
    ],
    [
      "V",
      "A"
    ],
    [
      "Gener",
      "ator"
    ],
    [
      "B",
      "ig"
    ],
    [
      "f",
      "low"
    ],
    [
      "IC",
      "E"
    ],
    [
      "re",
      "al"
    ],
    [
      "グラ",
      "フ"
    ],
    [
      "組み",
      "合"
    ],
    [
      "組み合",
      "わ"
    ],
    [
      "組み合わ",
      "せ"
    ],
    [
      "d",
      "le"
    ],
    [
      "Comp",
      "lex"
    ],
    [
      "at",
      "ch"
    ],
    [
      "レイヤ",
      "ー"
    ],
    [
      "お",
      "こ"
    ],
    [
      "チャ",
      "ネ"
    ],
    [
      "チャネ",
      "ル"
    ],
    [
      "た",
      "り"
    ],
    [
      "通",
      "す"
    ],
    [
      "Ad",
      "a"
    ],
    [
      "t",
      "a"
    ],
    [
      "命",
      "名"
    ],
    [
      "手",
      "作業"
    ],
    [
      "変",
      "形"
    ],
    [
      "通",
      "常"
    ],
    [
      "良",
      "い"
    ],
    [
      "gra",
      "dient"
    ],
    [
      "収",
      "束"
    ],
    [
      "7",
      "15"
    ],
    [
      "co",
      "sh"
    ],
    [
      "^{",
      "-"
    ],
    [
      "}",
      "("
    ],
    [
      "6",
      "584"
    ],
    [
      "6584",
      "8"
    ],
    [
      "シ",
      "ャッ"
    ],
    [
      "シャッ",
      "フ"
    ],
    [
      "シャッフ",
      "ル"
    ],
    [
      "}",
      "{"
    ],
    [
      "(",
      "\\"
    ],
    [
      "anal",
      "og"
    ],
    [
      "th",
      "reshold"
    ],
    [
      "ele",
      "ment"
    ],
    [
      "R",
      "em"
    ],
    [
      "起こ",
      "す"
    ],
    [
      "消",
      "失"
    ],
    [
      "と",
      "こ"
    ],
    [
      "とこ",
      "ろ"
    ],
    [
      "単",
      "位"
    ],
    [
      "簡",
      "単"
    ],
    [
      "例",
      "えば"
    ],
    [
      "Int",
      "el"
    ],
    [
      "L",
      "ibr"
    ],
    [
      "Libr",
      "ary"
    ],
    [
      "技",
      "法"
    ],
    [
      "マ",
      "ル"
    ],
    [
      "マル",
      "チ"
    ],
    [
      "マルチ",
      "スレッド"
    ],
    [
      "き",
      "い"
    ],
    [
      "デル",
      "タ"
    ],
    [
      "E",
      "n"
    ],
    [
      "b",
      "it"
    ],
    [
      "F",
      "P"
    ],
    [
      "生",
      "み"
    ],
    [
      "生み",
      "出さ"
    ],
    [
      "容",
      "量"
    ],
    [
      "もたら",
      "す"
    ],
    [
      "St",
      "atic"
    ],
    [
      "）",
      ":"
    ],
    [
      "算",
      "出"
    ],
    [
      "De",
      "Quantize"
    ],
    [
      "qu",
      "ant"
    ],
    [
      "\\",
      "|"
    ],
    [
      "al",
      "ign"
    ],
    [
      "align",
      "ed"
    ],
    [
      "}}}&",
      "=\\"
    ],
    [
      "(",
      "("
    ],
    [
      "'",
      "("
    ],
    [
      "})",
      "\\"
    ],
    [
      "}\\",
      "\\{\\"
    ],
    [
      "}}}&",
      "="
    ],
    [
      "Py",
      "th"
    ],
    [
      "Pyth",
      "on"
    ],
    [
      "ラン",
      "ダ"
    ],
    [
      "ランダ",
      "ム"
    ],
    [
      "エ",
      "ポ"
    ],
    [
      "エポ",
      "ック"
    ],
    [
      "形",
      "成"
    ],
    [
      "巨",
      "大"
    ],
    [
      "Ch",
      "ar"
    ],
    [
      "A",
      "g"
    ],
    [
      "サイ",
      "エ"
    ],
    [
      "サイエ",
      "ンス"
    ],
    [
      "は",
      "じ"
    ],
    [
      "はじ",
      "め"
    ],
    [
      "199",
      "6"
    ],
    [
      "平",
      "野"
    ],
    [
      "廣",
      "美"
    ],
    [
      "+",
      "+"
    ],
    [
      "J",
      "ava"
    ],
    [
      "パー",
      "ソ"
    ],
    [
      "パーソ",
      "ナル"
    ],
    [
      "メ",
      "ディア"
    ],
    [
      "株",
      "式"
    ],
    [
      "株式",
      "会"
    ],
    [
      "株式会",
      "社"
    ],
    [
      "2",
      "7"
    ],
    [
      "8",
      "9"
    ],
    [
      "fi",
      "eld"
    ],
    [
      "M",
      "er"
    ],
    [
      "Mer",
      "ri"
    ],
    [
      "Le",
      "ast"
    ],
    [
      "S",
      "qu"
    ],
    [
      "Squ",
      "ares"
    ],
    [
      "S",
      "ti"
    ],
    [
      "Sti",
      "g"
    ],
    [
      "Stig",
      "ler"
    ],
    [
      "Ste",
      "ph"
    ],
    [
      "Steph",
      "en"
    ],
    [
      "12",
      "14"
    ],
    [
      "a",
      "os"
    ],
    [
      "Appl",
      "ic"
    ],
    [
      "Applic",
      "ations"
    ],
    [
      "at",
      "ed"
    ],
    [
      "Mod",
      "ern"
    ],
    [
      "deta",
      "il"
    ],
    [
      "detail",
      "s"
    ],
    [
      "M",
      "c"
    ],
    [
      "W",
      "ar"
    ],
    [
      "r",
      "en"
    ],
    [
      "tt",
      "s"
    ],
    [
      "al",
      "ter"
    ],
    [
      "o",
      "us"
    ],
    [
      "op",
      "h"
    ],
    [
      "ys",
      "ics"
    ],
    [
      "0",
      "24"
    ],
    [
      "024",
      "78"
    ],
    [
      "02478",
      "259"
    ],
    [
      "2024101222",
      "19"
    ],
    [
      "l",
      "in"
    ],
    [
      "pr",
      "ing"
    ],
    [
      "pring",
      "er"
    ],
    [
      "Rep",
      "resent"
    ],
    [
      "ent",
      "s"
    ],
    [
      "to",
      "ma"
    ],
    [
      "Ann",
      "als"
    ],
    [
      "Mathema",
      "tics"
    ],
    [
      "Stu",
      "di"
    ],
    [
      "Studi",
      "es"
    ],
    [
      "Pr",
      "in"
    ],
    [
      "t",
      "on"
    ],
    [
      "19",
      "08"
    ],
    [
      "00",
      "2"
    ],
    [
      "onal",
      "d"
    ],
    [
      "Org",
      "anization"
    ],
    [
      "Be",
      "h"
    ],
    [
      "Beh",
      "avi"
    ],
    [
      "F",
      "ar"
    ],
    [
      "Far",
      "ley"
    ],
    [
      "C",
      "l"
    ],
    [
      "Org",
      "anizing"
    ],
    [
      "I",
      "R"
    ],
    [
      "IR",
      "E"
    ],
    [
      "TI",
      "T"
    ],
    [
      "10",
      "5"
    ],
    [
      "6",
      "8"
    ],
    [
      "Hol",
      "land"
    ],
    [
      "a",
      "ss"
    ],
    [
      "ac",
      "tion"
    ],
    [
      "d",
      "igital"
    ],
    [
      "comput",
      "er"
    ],
    [
      "in",
      "es"
    ],
    [
      "St",
      "or"
    ],
    [
      "W",
      "erbos"
    ],
    [
      "on",
      "d"
    ],
    [
      "T",
      "o"
    ],
    [
      "Predic",
      "tion"
    ],
    [
      "An",
      "al"
    ],
    [
      "Anal",
      "ysis"
    ],
    [
      "Science",
      "s"
    ],
    [
      "Fran",
      "k"
    ],
    [
      "C",
      "or"
    ],
    [
      "Cor",
      "n"
    ],
    [
      "Corn",
      "ell"
    ],
    [
      "A",
      "er"
    ],
    [
      "Aer",
      "on"
    ],
    [
      "Aeron",
      "au"
    ],
    [
      "Aeronau",
      "tical"
    ],
    [
      "L",
      "abor"
    ],
    [
      "Labor",
      "at"
    ],
    [
      "Laborat",
      "ory"
    ],
    [
      "Perceptron",
      "s"
    ],
    [
      "Con",
      "t"
    ],
    [
      "9",
      "6"
    ],
    [
      "00",
      "5"
    ],
    [
      "Rep",
      "ort"
    ],
    [
      "B",
      "u"
    ],
    [
      "R",
      "u"
    ],
    [
      "Ru",
      "ss"
    ],
    [
      "Nor",
      "v"
    ],
    [
      "Norv",
      "ig"
    ],
    [
      "A",
      "ppro"
    ],
    [
      "6",
      "04"
    ],
    [
      "ci",
      "p"
    ],
    [
      "S",
      "par"
    ],
    [
      "F",
      "ore"
    ],
    [
      "Fore",
      "c"
    ],
    [
      "Forec",
      "as"
    ],
    [
      "Forecas",
      "ting"
    ],
    [
      "se",
      "vi"
    ],
    [
      "sevi",
      "er"
    ],
    [
      "P",
      "ub"
    ],
    [
      "Pub",
      "lis"
    ],
    [
      "Publis",
      "h"
    ],
    [
      "00",
      "0"
    ],
    [
      "AA",
      "AA"
    ],
    [
      "10",
      "98"
    ],
    [
      "9",
      "00"
    ],
    [
      "2024",
      "08"
    ],
    [
      "ri",
      "e"
    ],
    [
      "yn",
      "om"
    ],
    [
      "ynom",
      "ial"
    ],
    [
      "comp",
      "lex"
    ],
    [
      "M",
      "C"
    ],
    [
      "2017",
      "08"
    ],
    [
      "Am",
      "ari"
    ],
    [
      "ad",
      "aptive"
    ],
    [
      "D",
      "et"
    ],
    [
      "F",
      "unctions"
    ],
    [
      "Ele",
      "ct"
    ],
    [
      "Comput",
      "ers"
    ],
    [
      "E",
      "C"
    ],
    [
      "30",
      "2"
    ],
    [
      "M",
      "in"
    ],
    [
      "Comput",
      "ational"
    ],
    [
      "2",
      "62"
    ],
    [
      "コンピュー",
      "テ"
    ],
    [
      "コンピューテ",
      "ィ"
    ],
    [
      "コンピューティ",
      "ング"
    ],
    [
      "k",
      "y"
    ],
    [
      "ky",
      "o"
    ],
    [
      "I",
      "T"
    ],
    [
      "H",
      "P"
    ],
    [
      "HP",
      "C"
    ],
    [
      "e",
      "xt"
    ],
    [
      "b",
      "or"
    ],
    [
      "a",
      "ppro"
    ],
    [
      "H",
      "arm"
    ],
    [
      "R",
      "a"
    ],
    [
      "Qu",
      "oc"
    ],
    [
      "Oc",
      "to"
    ],
    [
      "Octo",
      "ber"
    ],
    [
      "f",
      "l"
    ],
    [
      "trans",
      "fer"
    ],
    [
      "Infor",
      "matica"
    ],
    [
      "le",
      "d"
    ],
    [
      "el",
      "m"
    ],
    [
      "us",
      "cri"
    ],
    [
      "uscri",
      "pt"
    ],
    [
      "uscript",
      "s"
    ],
    [
      "f",
      "rom"
    ],
    [
      "u",
      "el"
    ],
    [
      "H",
      "ist"
    ],
    [
      "No",
      "tes"
    ],
    [
      "publis",
      "h"
    ],
    [
      "H",
      "en"
    ],
    [
      "optim",
      "al"
    ],
    [
      "der",
      "ivative"
    ],
    [
      "v",
      "al"
    ],
    [
      "val",
      "u"
    ],
    [
      "11",
      "45"
    ],
    [
      "3",
      "55"
    ],
    [
      "355",
      "586"
    ],
    [
      "364",
      "791"
    ],
    [
      "d",
      "l"
    ],
    [
      "ac",
      "m"
    ],
    [
      "ri",
      "ew"
    ],
    [
      "riew",
      "an"
    ],
    [
      "riewan",
      "k"
    ],
    [
      "W",
      "h"
    ],
    [
      "Wh",
      "o"
    ],
    [
      "Inv",
      "ented"
    ],
    [
      "Op",
      "tim"
    ],
    [
      "D",
      "o"
    ],
    [
      "E",
      "xt"
    ],
    [
      "M",
      "P"
    ],
    [
      "and",
      "re"
    ],
    [
      "L",
      "in"
    ],
    [
      "Lin",
      "n"
    ],
    [
      "represent",
      "ation"
    ],
    [
      "cum",
      "ula"
    ],
    [
      "T",
      "ay"
    ],
    [
      "Tay",
      "lor"
    ],
    [
      "exp",
      "an"
    ],
    [
      "expan",
      "si"
    ],
    [
      "expansi",
      "on"
    ],
    [
      "b",
      "f"
    ],
    [
      "3",
      "13"
    ],
    [
      "B",
      "or"
    ],
    [
      "comput",
      "ation"
    ],
    [
      "J",
      "uergen"
    ],
    [
      "S",
      "wit"
    ],
    [
      "n",
      "on"
    ],
    [
      "ensi",
      "tiv"
    ],
    [
      "ensitiv",
      "ity"
    ],
    [
      "model",
      "ing"
    ],
    [
      "77",
      "0"
    ],
    [
      "Sep",
      "te"
    ],
    [
      "Septe",
      "mber"
    ],
    [
      "ers",
      "on"
    ],
    [
      "J",
      "am"
    ],
    [
      "Jam",
      "es"
    ],
    [
      "T",
      "al"
    ],
    [
      "Tal",
      "king"
    ],
    [
      "Or",
      "al"
    ],
    [
      "7",
      "55"
    ],
    [
      "Pa",
      "ul"
    ],
    [
      "J",
      "oh"
    ],
    [
      "Joh",
      "n"
    ],
    [
      "Son",
      "s"
    ],
    [
      "represent",
      "ations"
    ],
    [
      "10",
      "38"
    ],
    [
      "323",
      "533"
    ],
    [
      "202",
      "1"
    ],
    [
      "n",
      "ature"
    ],
    [
      "ne",
      "w"
    ],
    [
      "P",
      "at"
    ],
    [
      "science",
      "direct"
    ],
    [
      "artic",
      "le"
    ],
    [
      "ab",
      "s"
    ],
    [
      "mechanis",
      "m"
    ],
    [
      "un",
      "aff"
    ],
    [
      "unaff",
      "e"
    ],
    [
      "unaffe",
      "ct"
    ],
    [
      "unaffect",
      "ed"
    ],
    [
      "ne",
      "un"
    ],
    [
      "neun",
      "et"
    ],
    [
      "Wa",
      "ib"
    ],
    [
      "Waib",
      "el"
    ],
    [
      "Ph",
      "oneme"
    ],
    [
      "Us",
      "ing"
    ],
    [
      "T",
      "i"
    ],
    [
      "Ti",
      "me"
    ],
    [
      "Me",
      "e"
    ],
    [
      "Mee",
      "ting"
    ],
    [
      "Instit",
      "ute"
    ],
    [
      "and",
      "er"
    ],
    [
      "S",
      "ign"
    ],
    [
      "Sign",
      "al"
    ],
    [
      "3",
      "39"
    ],
    [
      "op",
      "tical"
    ],
    [
      "E",
      "s"
    ],
    [
      "H",
      "andwritten"
    ],
    [
      "Bo",
      "tt"
    ],
    [
      "Bott",
      "ou"
    ],
    [
      "199",
      "8"
    ],
    [
      "appl",
      "ied"
    ],
    [
      "2",
      "32"
    ],
    [
      "P",
      "ar"
    ],
    [
      "Par",
      "allel"
    ],
    [
      "d",
      "istributed"
    ],
    [
      "int",
      "er"
    ],
    [
      "Ap",
      "O"
    ],
    [
      "ApO",
      "pt"
    ],
    [
      "79",
      "0"
    ],
    [
      "13",
      "64"
    ],
    [
      "A",
      "O"
    ],
    [
      "2017",
      "0"
    ],
    [
      "20",
      "6"
    ],
    [
      "2",
      "11"
    ],
    [
      "2024",
      "06"
    ],
    [
      "e",
      "ction"
    ],
    [
      "m",
      "icro"
    ],
    [
      "M",
      "ed"
    ],
    [
      "T",
      "err"
    ],
    [
      "Terr",
      "ence"
    ],
    [
      "Se",
      "j"
    ],
    [
      "Sej",
      "no"
    ],
    [
      "Sejno",
      "w"
    ],
    [
      "Sejnow",
      "ski"
    ],
    [
      "ul",
      "ar"
    ],
    [
      "pro",
      "tein"
    ],
    [
      "our",
      "n"
    ],
    [
      "m",
      "o"
    ],
    [
      "Bo",
      "h"
    ],
    [
      "Boh",
      "r"
    ],
    [
      "B",
      "en"
    ],
    [
      "O",
      "l"
    ],
    [
      "Ch",
      "r"
    ],
    [
      "Chr",
      "is"
    ],
    [
      "be",
      "tter"
    ],
    [
      "th",
      "an"
    ],
    [
      "No",
      "ve"
    ],
    [
      "Nove",
      "mber"
    ],
    [
      "197",
      "2"
    ],
    [
      "iee",
      "exp"
    ],
    [
      "ieeexp",
      "lor"
    ],
    [
      "ieeexplor",
      "e"
    ],
    [
      "iee",
      "e"
    ],
    [
      "co",
      "l"
    ],
    [
      "n",
      "l"
    ],
    [
      "J",
      "ul"
    ],
    [
      "a",
      "j"
    ],
    [
      "107",
      "38"
    ],
    [
      "10738",
      "584"
    ],
    [
      "10738584",
      "23"
    ],
    [
      "1073858423",
      "11"
    ],
    [
      "107385842311",
      "79"
    ],
    [
      "10738584231179",
      "9"
    ],
    [
      "107385842311799",
      "32"
    ],
    [
      "re",
      "in"
    ],
    [
      "rein",
      "for"
    ],
    [
      "reinfor",
      "ce"
    ],
    [
      "reinforce",
      "ment"
    ],
    [
      "Res",
      "earch"
    ],
    [
      "IS",
      "BN"
    ],
    [
      "Tech",
      "n"
    ],
    [
      "ference",
      "s"
    ],
    [
      "ne",
      "ed"
    ],
    [
      "oug",
      "h"
    ],
    [
      "em",
      "o"
    ],
    [
      "emo",
      "tion"
    ],
    [
      "do",
      "w"
    ],
    [
      "dow",
      "n"
    ],
    [
      "down",
      "lo"
    ],
    [
      "downlo",
      "ad"
    ],
    [
      "un",
      "k"
    ],
    [
      "T",
      "R"
    ],
    [
      "M",
      "uni"
    ],
    [
      "Muni",
      "ch"
    ],
    [
      "202409",
      "14"
    ],
    [
      "20240914",
      "1"
    ],
    [
      "202409141",
      "62"
    ],
    [
      "20240914162",
      "7"
    ],
    [
      "202409141627",
      "50"
    ],
    [
      "9",
      "1"
    ],
    [
      "se",
      "quence"
    ],
    [
      ")",
      "”"
    ],
    [
      "s",
      "fer"
    ],
    [
      "sfer",
      "ics"
    ],
    [
      "abil",
      "it"
    ],
    [
      "abilit",
      "ation"
    ],
    [
      "the",
      "s"
    ],
    [
      "thes",
      "is"
    ],
    [
      "d",
      "em"
    ],
    [
      "on",
      "st"
    ],
    [
      "e",
      "qu"
    ],
    [
      "lay",
      "ers"
    ],
    [
      "z",
      "u"
    ],
    [
      "n",
      "eur"
    ],
    [
      "neur",
      "onal"
    ],
    [
      "di",
      "ffic"
    ],
    [
      "diffic",
      "ult"
    ],
    [
      "difficult",
      "y"
    ],
    [
      "d",
      "ep"
    ],
    [
      "dep",
      "end"
    ],
    [
      "Dynam",
      "ical"
    ],
    [
      "Re",
      "current"
    ],
    [
      "Aug",
      "ust"
    ],
    [
      "L",
      "ong"
    ],
    [
      "Sh",
      "ort"
    ],
    [
      "T",
      "erm"
    ],
    [
      "M",
      "em"
    ],
    [
      "Mem",
      "ory"
    ],
    [
      "199",
      "7"
    ],
    [
      "17",
      "35"
    ],
    [
      "199",
      "9"
    ],
    [
      "g",
      "et"
    ],
    [
      "t",
      "z"
    ],
    [
      "Cogni",
      "tive"
    ],
    [
      "03",
      "64"
    ],
    [
      "02",
      "13"
    ],
    [
      "00",
      "12"
    ],
    [
      "4",
      "8"
    ],
    [
      "S",
      "m"
    ],
    [
      "Ch",
      "a"
    ],
    [
      "Fo",
      "und"
    ],
    [
      "Found",
      "ations"
    ],
    [
      "M",
      "icro"
    ],
    [
      "st",
      "an"
    ],
    [
      "stan",
      "ford"
    ],
    [
      "P",
      "D"
    ],
    [
      "PD",
      "P"
    ],
    [
      "D",
      "ay"
    ],
    [
      "Day",
      "an"
    ],
    [
      "Ne",
      "al"
    ],
    [
      "R",
      "ad"
    ],
    [
      "Rad",
      "ford"
    ],
    [
      ".",
      "”"
    ],
    [
      "11",
      "6"
    ],
    [
      "M",
      "ay"
    ],
    [
      "11",
      "58"
    ],
    [
      "26",
      "8"
    ],
    [
      "c",
      "ing"
    ],
    [
      "f",
      "ast"
    ],
    [
      "comp",
      "e"
    ],
    [
      "compe",
      "ti"
    ],
    [
      "competi",
      "tions"
    ],
    [
      "in",
      "s"
    ],
    [
      "w",
      "in"
    ],
    [
      "D",
      "an"
    ],
    [
      "L",
      "uc"
    ],
    [
      "Luc",
      "a"
    ],
    [
      "5",
      "16"
    ],
    [
      "i",
      "j"
    ],
    [
      "ij",
      "c"
    ],
    [
      "ijc",
      "a"
    ],
    [
      "ijca",
      "i"
    ],
    [
      "C",
      "AI"
    ],
    [
      "G",
      "i"
    ],
    [
      "Gi",
      "us"
    ],
    [
      "Gius",
      "ti"
    ],
    [
      "le",
      "ss"
    ],
    [
      "Ad",
      "vances"
    ],
    [
      "Cur",
      "ran"
    ],
    [
      "Ass",
      "oci"
    ],
    [
      "Associ",
      "ates"
    ],
    [
      "In",
      "c"
    ],
    [
      "ni",
      "p"
    ],
    [
      "nip",
      "s"
    ],
    [
      "p",
      "y"
    ],
    [
      "ima",
      "ges"
    ],
    [
      "u",
      "ting"
    ],
    [
      "MI",
      "C"
    ],
    [
      "Vis",
      "ion"
    ],
    [
      "4",
      "67"
    ],
    [
      "467",
      "3"
    ],
    [
      "ri",
      "z"
    ],
    [
      "S",
      "ut"
    ],
    [
      "Sut",
      "sk"
    ],
    [
      "Sutsk",
      "e"
    ],
    [
      "Sutske",
      "ver"
    ],
    [
      "I",
      "ly"
    ],
    [
      "Ily",
      "a"
    ],
    [
      "N",
      "IP"
    ],
    [
      "NIP",
      "S"
    ],
    [
      "Sim",
      "ony"
    ],
    [
      "Simony",
      "an"
    ],
    [
      "Kar",
      "en"
    ],
    [
      "Z",
      "iss"
    ],
    [
      "Ziss",
      "erm"
    ],
    [
      "Zisserm",
      "an"
    ],
    [
      "V",
      "er"
    ],
    [
      "Ver",
      "y"
    ],
    [
      "J",
      "e"
    ],
    [
      "il",
      "d"
    ],
    [
      "ild",
      "ing"
    ],
    [
      "u",
      "res"
    ],
    [
      "Un",
      "supervised"
    ],
    [
      "I",
      "an"
    ],
    [
      "Go",
      "od"
    ],
    [
      "Good",
      "f"
    ],
    [
      "Goodf",
      "el"
    ],
    [
      "Goodfel",
      "low"
    ],
    [
      "A",
      "ar"
    ],
    [
      "Aar",
      "on"
    ],
    [
      "Co",
      "ur"
    ],
    [
      "Cour",
      "v"
    ],
    [
      "Courv",
      "il"
    ],
    [
      "Courvil",
      "le"
    ],
    [
      "Ap",
      "ri"
    ],
    [
      "Apri",
      "l"
    ],
    [
      "Method",
      "s"
    ],
    [
      "c",
      "y"
    ],
    [
      "S",
      "patio"
    ],
    [
      "T",
      "em"
    ],
    [
      "Tem",
      "p"
    ],
    [
      "Temp",
      "oral"
    ],
    [
      "z",
      "a"
    ],
    [
      "i",
      "os"
    ],
    [
      "ios",
      "ity"
    ],
    [
      "cont",
      "ro"
    ],
    [
      "r",
      "as"
    ],
    [
      "Qu",
      "al"
    ],
    [
      "NV",
      "ID"
    ],
    [
      "NVID",
      "IA"
    ],
    [
      "a",
      "ce"
    ],
    [
      "S",
      "yn"
    ],
    [
      "ce",
      "d"
    ],
    [
      "oh",
      "l"
    ],
    [
      "ick",
      "st"
    ],
    [
      "ickst",
      "e"
    ],
    [
      "ickste",
      "in"
    ],
    [
      "6",
      "53"
    ],
    [
      "Del",
      "v"
    ],
    [
      "Delv",
      "ing"
    ],
    [
      "in",
      "to"
    ],
    [
      "Rectifi",
      "ers"
    ],
    [
      "Sur",
      "pa"
    ],
    [
      "Surpa",
      "ssing"
    ],
    [
      "H",
      "uman"
    ],
    [
      "Le",
      "vel"
    ],
    [
      "Res",
      "id"
    ],
    [
      "Resid",
      "ual"
    ],
    [
      "K",
      "la"
    ],
    [
      "Kla",
      "us"
    ],
    [
      "w",
      "ay"
    ],
    [
      "C",
      "V"
    ],
    [
      "CV",
      "P"
    ],
    [
      "CVP",
      "R"
    ],
    [
      "7",
      "78"
    ],
    [
      "O",
      "ri"
    ],
    [
      "y",
      "un"
    ],
    [
      "d",
      "an"
    ],
    [
      "g",
      "er"
    ],
    [
      "co",
      "der"
    ],
    [
      "L",
      "ukasz"
    ],
    [
      "13",
      "1"
    ],
    [
      "w",
      "ikipedia"
    ],
    [
      "z",
      "ip"
    ],
    [
      "F",
      "ast"
    ],
    [
      "Natur",
      "al"
    ],
    [
      "L",
      "angu"
    ],
    [
      "Langu",
      "age"
    ],
    [
      "id",
      "row"
    ],
    [
      "ch",
      "ing"
    ],
    [
      "O",
      "N"
    ],
    [
      "os",
      "h"
    ],
    [
      "ip",
      "olar"
    ],
    [
      "appl",
      "ication"
    ],
    [
      "Gener",
      "alization"
    ],
    [
      "c",
      "an"
    ],
    [
      "S",
      "er"
    ],
    [
      "Ar",
      "ch"
    ],
    [
      "01",
      "199"
    ],
    [
      "17",
      "06"
    ],
    [
      "03",
      "762"
    ],
    [
      "ar",
      "o"
    ],
    [
      "her",
      "ence"
    ],
    [
      "pro",
      "p"
    ],
    [
      "fe",
      "ed"
    ],
    [
      "glob",
      "al"
    ],
    [
      "n",
      "or"
    ],
    [
      "nor",
      "m"
    ],
    [
      "norm",
      "alization"
    ],
    [
      "par",
      "t"
    ],
    [
      "i",
      "ent"
    ],
    [
      "document",
      "ation"
    ],
    [
      "d",
      "es"
    ],
    [
      "s",
      "o"
    ],
    [
      "n",
      "ot"
    ],
    [
      "op",
      "er"
    ],
    [
      "on",
      "e"
    ],
    [
      "p",
      "re"
    ],
    [
      "pre",
      "c"
    ],
    [
      "prec",
      "is"
    ],
    [
      "precis",
      "ion"
    ],
    [
      "n",
      "um"
    ],
    [
      "num",
      "b"
    ],
    [
      "numb",
      "ers"
    ],
    [
      "wh",
      "ich"
    ],
    [
      "con",
      "ver"
    ],
    [
      "in",
      "stru"
    ],
    [
      "instru",
      "ction"
    ],
    [
      "mem",
      "ory"
    ],
    [
      "y",
      "our"
    ],
    [
      "hard",
      "w"
    ],
    [
      "hardw",
      "are"
    ],
    [
      "de",
      "quantize"
    ],
    [
      "det",
      "erm"
    ],
    [
      "determ",
      "ine"
    ],
    [
      "学",
      "ぶ"
    ],
    [
      "55",
      "55"
    ],
    [
      "329",
      "5"
    ],
    [
      "3295",
      "22"
    ],
    [
      "329522",
      "2"
    ],
    [
      "329",
      "53"
    ],
    [
      "32953",
      "49"
    ],
    [
      "10",
      "8"
    ],
    [
      "Bah",
      "as"
    ],
    [
      "Bahas",
      "a"
    ],
    [
      "In",
      "d"
    ],
    [
      "Ind",
      "ones"
    ],
    [
      "Indones",
      "ia"
    ],
    [
      "S",
      "r"
    ],
    [
      "Sr",
      "p"
    ],
    [
      "Srp",
      "sk"
    ],
    [
      "Srpsk",
      "oh"
    ],
    [
      "Srpskoh",
      "r"
    ],
    [
      "Srpskohr",
      "v"
    ],
    [
      "Srpskohrv",
      "at"
    ],
    [
      "Srpskohrvat",
      "ski"
    ],
    [
      "с",
      "р"
    ],
    [
      "ср",
      "п"
    ],
    [
      "срп",
      "ск"
    ],
    [
      "српск",
      "о"
    ],
    [
      "српско",
      "х"
    ],
    [
      "српскох",
      "р"
    ],
    [
      "српскохр",
      "в"
    ],
    [
      "српскохрв",
      "а"
    ],
    [
      "српскохрва",
      "т"
    ],
    [
      "српскохрват",
      "ск"
    ],
    [
      "српскохрватск",
      "и"
    ],
    [
      "z",
      "be"
    ],
    [
      "zbe",
      "k"
    ],
    [
      "zbek",
      "cha"
    ],
    [
      "ў",
      "з"
    ],
    [
      "ўз",
      "б"
    ],
    [
      "ўзб",
      "е"
    ],
    [
      "ўзбе",
      "к"
    ],
    [
      "ўзбек",
      "ч"
    ],
    [
      "ўзбекч",
      "а"
    ],
    [
      "閩",
      "南"
    ],
    [
      "閩南",
      "語"
    ],
    [
      "B",
      "â"
    ],
    [
      "Bâ",
      "n"
    ],
    [
      "l",
      "â"
    ],
    [
      "lâ",
      "m"
    ],
    [
      "g",
      "í"
    ],
    [
      "百",
      "科"
    ],
    [
      "事",
      "典"
    ],
    [
      "ウ",
      "ィ"
    ],
    [
      "ウィ",
      "キ"
    ],
    [
      "ウィキ",
      "ペ"
    ],
    [
      "ウィキペ",
      "ディア"
    ],
    [
      "イン",
      "ター"
    ],
    [
      "インター",
      "ネット"
    ],
    [
      "サー",
      "ビ"
    ],
    [
      "サービ",
      "ス"
    ],
    [
      "サ",
      "ポ"
    ],
    [
      "サポ",
      "ート"
    ],
    [
      "サポート",
      "ベクトル"
    ],
    [
      "サポートベクトル",
      "マシ"
    ],
    [
      "サポートベクトルマシ",
      "ン"
    ],
    [
      "S",
      "V"
    ],
    [
      "SV",
      "M"
    ],
    [
      "C",
      "ate"
    ],
    [
      "Cate",
      "g"
    ],
    [
      "Categ",
      "ory"
    ],
    [
      "マイ",
      "ニング"
    ],
    [
      "も",
      "ち"
    ],
    [
      "は",
      "っ"
    ],
    [
      "はっ",
      "き"
    ],
    [
      "はっき",
      "り"
    ],
    [
      "区",
      "別"
    ],
    [
      "ほ",
      "う"
    ],
    [
      "単",
      "に"
    ],
    [
      "呼",
      "び"
    ],
    [
      "頭",
      "脳"
    ],
    [
      "表",
      "記"
    ],
    [
      "そも",
      "そも"
    ],
    [
      "知",
      "っ"
    ],
    [
      "お",
      "く"
    ],
    [
      "同",
      "士"
    ],
    [
      "d",
      "endrite"
    ],
    [
      "繋",
      "がっ"
    ],
    [
      "伝",
      "達"
    ],
    [
      "ク",
      "リ"
    ],
    [
      "クリ",
      "ック"
    ],
    [
      "紫",
      "色"
    ],
    [
      "ひ",
      "と"
    ],
    [
      "ひと",
      "つ"
    ],
    [
      "D",
      "endrite"
    ],
    [
      "A",
      "x"
    ],
    [
      "Ax",
      "on"
    ],
    [
      "ちょく",
      "ちょく"
    ],
    [
      "こ",
      "そ"
    ],
    [
      "繋",
      "がり"
    ],
    [
      "役",
      "割"
    ],
    [
      "担",
      "っ"
    ],
    [
      "与え",
      "る"
    ],
    [
      "向",
      "かっ"
    ],
    [
      "ただ",
      "し"
    ],
    [
      "決",
      "まっ"
    ],
    [
      "出",
      "る"
    ],
    [
      "さ",
      "ほど"
    ],
    [
      "有",
      "益"
    ],
    [
      "わ",
      "け"
    ],
    [
      "起",
      "き"
    ],
    [
      "起き",
      "る"
    ],
    [
      "囲",
      "ま"
    ],
    [
      "並",
      "ん"
    ],
    [
      "相",
      "当"
    ],
    [
      "リン",
      "ゴ"
    ],
    [
      "a",
      "pp"
    ],
    [
      "app",
      "le"
    ],
    [
      "本",
      "当"
    ],
    [
      "一",
      "致"
    ],
    [
      "応",
      "じ"
    ],
    [
      "繰り返",
      "し"
    ],
    [
      "次",
      "第"
    ],
    [
      "次第",
      "に"
    ],
    [
      "改",
      "善"
    ],
    [
      "正",
      "確"
    ],
    [
      "答",
      "え"
    ],
    [
      "作",
      "用"
    ],
    [
      "ほ",
      "ん"
    ],
    [
      "ほん",
      "の"
    ],
    [
      "しか",
      "た"
    ],
    [
      "あ",
      "く"
    ],
    [
      "あく",
      "まで"
    ],
    [
      "とり",
      "あ"
    ],
    [
      "とりあ",
      "え"
    ],
    [
      "とりあえ",
      "ず"
    ],
    [
      "とり",
      "かかる"
    ],
    [
      "有",
      "無"
    ],
    [
      "に関",
      "して"
    ],
    [
      "選択",
      "肢"
    ],
    [
      "必",
      "ず"
    ],
    [
      "含",
      "み"
    ],
    [
      "un",
      "it"
    ],
    [
      "}}",
      ")=\\"
    ],
    [
      "レ",
      "コ"
    ],
    [
      "レコ",
      "メン"
    ],
    [
      "レコメン",
      "デ"
    ],
    [
      "レコメンデ",
      "ーション"
    ],
    [
      "源",
      "流"
    ],
    [
      "探",
      "求"
    ],
    [
      "進",
      "展"
    ],
    [
      "相",
      "違"
    ],
    [
      "今",
      "日"
    ],
    [
      "ディープ",
      "ニューラルネットワーク"
    ],
    [
      "F",
      "NN"
    ],
    [
      "一",
      "連"
    ],
    [
      "供",
      "給"
    ],
    [
      "最",
      "小"
    ],
    [
      "世",
      "紀"
    ],
    [
      "に",
      "わ"
    ],
    [
      "にわ",
      "た"
    ],
    [
      "にわた",
      "って"
    ],
    [
      "惑",
      "星"
    ],
    [
      "動",
      "き"
    ],
    [
      "17",
      "95"
    ],
    [
      "集",
      "合"
    ],
    [
      "良",
      "好"
    ],
    [
      "フィ",
      "ット"
    ],
    [
      "見",
      "つ"
    ],
    [
      "見つ",
      "ける"
    ],
    [
      "手",
      "段"
    ],
    [
      "ア",
      "クセ"
    ],
    [
      "アクセ",
      "ス"
    ],
    [
      "伴",
      "う"
    ],
    [
      "明",
      "示"
    ],
    [
      "一",
      "部"
    ],
    [
      "枠",
      "組み"
    ],
    [
      "を",
      "通"
    ],
    [
      "を通",
      "じ"
    ],
    [
      "を通じ",
      "て"
    ],
    [
      "試",
      "み"
    ],
    [
      "生",
      "ま"
    ],
    [
      "生ま",
      "れ"
    ],
    [
      "異",
      "なり"
    ],
    [
      "コ",
      "ネ"
    ],
    [
      "コネ",
      "ク"
    ],
    [
      "コネク",
      "ショ"
    ],
    [
      "コネクショ",
      "ニ"
    ],
    [
      "コネクショニ",
      "スト"
    ],
    [
      "分",
      "岐"
    ],
    [
      "開",
      "い"
    ],
    [
      "プロセ",
      "ス"
    ],
    [
      "可",
      "塑"
    ],
    [
      "ヘ",
      "ッ"
    ],
    [
      "ヘッ",
      "ブ"
    ],
    [
      "シ",
      "ミ"
    ],
    [
      "シミ",
      "ュ"
    ],
    [
      "シミュ",
      "レート"
    ],
    [
      "ロ",
      "チ"
    ],
    [
      "ロチ",
      "ェ"
    ],
    [
      "ロチェ",
      "ス"
    ],
    [
      "ロチェス",
      "ター"
    ],
    [
      "ホ",
      "ランド"
    ],
    [
      "ハ",
      "ビット"
    ],
    [
      "デ",
      "ュー"
    ],
    [
      "デュー",
      "ダ"
    ],
    [
      "海",
      "軍"
    ],
    [
      "言",
      "及"
    ],
    [
      "リン",
      "カー"
    ],
    [
      "リンカー",
      "ン"
    ],
    [
      "研究",
      "所"
    ],
    [
      "先",
      "行"
    ],
    [
      "主",
      "題"
    ],
    [
      "断",
      "念"
    ],
    [
      "世",
      "間"
    ],
    [
      "興",
      "奮"
    ],
    [
      "高",
      "め"
    ],
    [
      "政",
      "府"
    ],
    [
      "楽",
      "観"
    ],
    [
      "主",
      "張"
    ],
    [
      "煽",
      "ら"
    ],
    [
      "黄",
      "金"
    ],
    [
      "時",
      "代"
    ],
    [
      "ブ",
      "ロック"
    ],
    [
      "ナ",
      "イ"
    ],
    [
      "ナイ",
      "ト"
    ],
    [
      "ア",
      "イ"
    ],
    [
      "アイ",
      "デ"
    ],
    [
      "アイデ",
      "ア"
    ],
    [
      "採",
      "用"
    ],
    [
      "残",
      "念"
    ],
    [
      "な",
      "が"
    ],
    [
      "なが",
      "ら"
    ],
    [
      "取り",
      "組み"
    ],
    [
      "ブレ",
      "ー"
    ],
    [
      "ブレー",
      "ク"
    ],
    [
      "ス",
      "ルー"
    ],
    [
      "アレ",
      "ク"
    ],
    [
      "アレク",
      "シー"
    ],
    [
      "アレクシー",
      "・"
    ],
    [
      "アレクシー・",
      "イヴァ"
    ],
    [
      "アレクシー・イヴァ",
      "ネンコ"
    ],
    [
      "ラ",
      "パ"
    ],
    [
      "ディープラーニング",
      "アルゴリズム"
    ],
    [
      "グ",
      "ルー"
    ],
    [
      "グルー",
      "プ"
    ],
    [
      "形",
      "態"
    ],
    [
      "見",
      "なし"
    ],
    [
      "余",
      "分"
    ],
    [
      "検",
      "証"
    ],
    [
      "刈り",
      "込"
    ],
    [
      "刈り込",
      "ま"
    ],
    [
      "K",
      "ol"
    ],
    [
      "Kol",
      "m"
    ],
    [
      "Kolm",
      "og"
    ],
    [
      "Kolmog",
      "or"
    ],
    [
      "Kolmogor",
      "ov"
    ],
    [
      "G",
      "abor"
    ],
    [
      "乗",
      "法"
    ],
    [
      "ゲ",
      "ート"
    ],
    [
      "解",
      "析"
    ],
    [
      "学",
      "生"
    ],
    [
      "庄",
      "司"
    ],
    [
      "実",
      "験"
    ],
    [
      "修",
      "正"
    ],
    [
      "多",
      "層"
    ],
    [
      "解",
      "説"
    ],
    [
      "扱",
      "っ"
    ],
    [
      "\\",
      "}"
    ],
    [
      "\\}",
      "+"
    ],
    [
      "\\",
      "}}"
    ],
    [
      "6",
      "9"
    ],
    [
      "数え",
      "る"
    ],
    [
      "更",
      "に"
    ],
    [
      "普",
      "通"
    ],
    [
      "よ",
      "って"
    ],
    [
      "発",
      "見"
    ],
    [
      "ハイ",
      "パー"
    ],
    [
      "ハイパー",
      "パラメータ"
    ],
    [
      "エンド",
      "ツ"
    ],
    [
      "エンドツ",
      "ー"
    ],
    [
      "エンドツー",
      "エンド"
    ],
    [
      "主",
      "流"
    ],
    [
      "判",
      "別"
    ],
    [
      "扱",
      "え"
    ],
    [
      "排",
      "他"
    ],
    [
      "論",
      "理"
    ],
    [
      "記",
      "載"
    ],
    [
      "期",
      "待"
    ],
    [
      "一",
      "気"
    ],
    [
      "一気",
      "に"
    ],
    [
      "し",
      "ぼ"
    ],
    [
      "しぼ",
      "み"
    ],
    [
      "減",
      "っ"
    ],
    [
      "し",
      "まっ"
    ],
    [
      "上",
      "述"
    ],
    [
      "イヴァ",
      "フ"
    ],
    [
      "イヴァフ",
      "ネンコ"
    ],
    [
      "大",
      "型"
    ],
    [
      "流",
      "行"
    ],
    [
      "流行",
      "ら"
    ],
    [
      "書",
      "か"
    ],
    [
      "納",
      "入"
    ],
    [
      "さ",
      "し"
    ],
    [
      "は",
      "ず"
    ],
    [
      "人",
      "気"
    ],
    [
      "転",
      "移"
    ],
    [
      "167",
      "3"
    ],
    [
      "ゴ",
      "ットフ"
    ],
    [
      "ゴットフ",
      "リー"
    ],
    [
      "ゴットフリー",
      "ト"
    ],
    [
      "ゴットフリート",
      "・ヴィ"
    ],
    [
      "ゴットフリート・ヴィ",
      "ル"
    ],
    [
      "ゴットフリート・ヴィル",
      "ヘ"
    ],
    [
      "ゴットフリート・ヴィルヘ",
      "ル"
    ],
    [
      "ゴットフリート・ヴィルヘル",
      "ム"
    ],
    [
      "ゴットフリート・ヴィルヘルム",
      "・"
    ],
    [
      "ゴットフリート・ヴィルヘルム・",
      "ラ"
    ],
    [
      "ゴットフリート・ヴィルヘルム・ラ",
      "イ"
    ],
    [
      "ゴットフリート・ヴィルヘルム・ライ",
      "プ"
    ],
    [
      "ゴットフリート・ヴィルヘルム・ライプ",
      "ニ"
    ],
    [
      "ゴットフリート・ヴィルヘルム・ライプニ",
      "ッツ"
    ],
    [
      "cor",
      "re"
    ],
    [
      "corre",
      "ction"
    ],
    [
      "訂",
      "正"
    ],
    [
      "言",
      "葉"
    ],
    [
      "ヘ",
      "ン"
    ],
    [
      "ヘン",
      "リー"
    ],
    [
      "ケ",
      "リー"
    ],
    [
      "文",
      "脈"
    ],
    [
      "前",
      "駆"
    ],
    [
      "セ",
      "ッ"
    ],
    [
      "セッ",
      "ポ"
    ],
    [
      "セッポ",
      "・"
    ],
    [
      "セッポ・",
      "リン"
    ],
    [
      "セッポ・リン",
      "ナ"
    ],
    [
      "セッポ・リンナ",
      "イン"
    ],
    [
      "セッポ・リンナイン",
      "マー"
    ],
    [
      "オ",
      "スト"
    ],
    [
      "オスト",
      "ロ"
    ],
    [
      "オストロ",
      "フスキー"
    ],
    [
      "ポ",
      "ール"
    ],
    [
      "ワー",
      "ボ"
    ],
    [
      "ワーボ",
      "ス"
    ],
    [
      "197",
      "4"
    ],
    [
      "博",
      "士"
    ],
    [
      "著",
      "書"
    ],
    [
      "再",
      "版"
    ],
    [
      "突",
      "破"
    ],
    [
      "とう",
      "とう"
    ],
    [
      "開",
      "け"
    ],
    [
      "注",
      "目"
    ],
    [
      "浴",
      "び"
    ],
    [
      "浴び",
      "る"
    ],
    [
      "複",
      "製"
    ],
    [
      "備",
      "え"
    ],
    [
      "ディープラーニング",
      "アーキテクチャ"
    ],
    [
      "ウェイ",
      "ベル"
    ],
    [
      "音",
      "素"
    ],
    [
      "遅",
      "延"
    ],
    [
      "T",
      "DNN"
    ],
    [
      "共",
      "有"
    ],
    [
      "アル",
      "ファ"
    ],
    [
      "アルファ",
      "ベ"
    ],
    [
      "アルファベ",
      "ット"
    ],
    [
      "郵",
      "便"
    ],
    [
      "Z",
      "IP"
    ],
    [
      "要",
      "し"
    ],
    [
      "銀",
      "行"
    ],
    [
      "ピ",
      "クセ"
    ],
    [
      "ピクセ",
      "ル"
    ],
    [
      "小",
      "切"
    ],
    [
      "小切",
      "手"
    ],
    [
      "医",
      "用"
    ],
    [
      "オ",
      "ブ"
    ],
    [
      "オブ",
      "ジェ"
    ],
    [
      "オブジェ",
      "クト"
    ],
    [
      "セ",
      "グ"
    ],
    [
      "セグ",
      "メン"
    ],
    [
      "セグメン",
      "テ"
    ],
    [
      "セグメンテ",
      "ーション"
    ],
    [
      "マン",
      "モ"
    ],
    [
      "マンモ",
      "グラ"
    ],
    [
      "マンモグラ",
      "ム"
    ],
    [
      "乳",
      "が"
    ],
    [
      "乳が",
      "ん"
    ],
    [
      "検",
      "出"
    ],
    [
      "カ",
      "スケ"
    ],
    [
      "カスケ",
      "ード"
    ],
    [
      "プロ",
      "ファ"
    ],
    [
      "プロファ",
      "イ"
    ],
    [
      "プロファイ",
      "ル"
    ],
    [
      "と",
      "き"
    ],
    [
      "学",
      "問"
    ],
    [
      "見",
      "出さ"
    ],
    [
      "ホ",
      "ップ"
    ],
    [
      "フィー",
      "ル"
    ],
    [
      "フィール",
      "ド"
    ],
    [
      "普",
      "及"
    ],
    [
      "19",
      "01"
    ],
    [
      "皮",
      "質"
    ],
    [
      "半",
      "円"
    ],
    [
      "観",
      "察"
    ],
    [
      "短",
      "期"
    ],
    [
      "記",
      "憶"
    ],
    [
      "反",
      "響"
    ],
    [
      "マ",
      "カ"
    ],
    [
      "マカ",
      "ロック"
    ],
    [
      "ピ",
      "ッツ"
    ],
    [
      "サイ",
      "ク"
    ],
    [
      "サイク",
      "ル"
    ],
    [
      "無",
      "限"
    ],
    [
      "遡",
      "る"
    ],
    [
      "つ",
      "まり"
    ],
    [
      "Cro",
      "ss"
    ],
    [
      "Cross",
      "b"
    ],
    [
      "Crossb",
      "ar"
    ],
    [
      "Ar",
      "ra"
    ],
    [
      "Arra",
      "y"
    ],
    [
      "教",
      "示"
    ],
    [
      "直接",
      "的"
    ],
    [
      "行",
      "動"
    ],
    [
      "状",
      "況"
    ],
    [
      "内",
      "部"
    ],
    [
      "状",
      "態"
    ],
    [
      "評",
      "価"
    ],
    [
      "外",
      "部"
    ],
    [
      "排",
      "除"
    ],
    [
      "初",
      "頭"
    ],
    [
      "学",
      "術"
    ],
    [
      "ザ",
      "イア"
    ],
    [
      "ザイア",
      "ンス"
    ],
    [
      "独",
      "立"
    ],
    [
      "ラ",
      "ザ"
    ],
    [
      "ラザ",
      "ル"
    ],
    [
      "ラザル",
      "ス"
    ],
    [
      "不",
      "可"
    ],
    [
      "不可",
      "分"
    ],
    [
      "同時",
      "に"
    ],
    [
      "取り",
      "組"
    ],
    [
      "取り組",
      "ま"
    ],
    [
      "う",
      "ま"
    ],
    [
      "うま",
      "く"
    ],
    [
      "克",
      "服"
    ],
    [
      "ニューラル",
      "シーケンス"
    ],
    [
      "ニューラルシーケンス",
      "チャン"
    ],
    [
      "ニューラルシーケンスチャン",
      "カー"
    ],
    [
      "train",
      "ed"
    ],
    [
      "展",
      "開"
    ],
    [
      "10",
      "00"
    ],
    [
      "ゼ",
      "ップ"
    ],
    [
      "ゼップ",
      "・"
    ],
    [
      "ゼップ・",
      "ホ"
    ],
    [
      "ゼップ・ホ",
      "フ"
    ],
    [
      "ゼップ・ホフ",
      "レイ"
    ],
    [
      "ゼップ・ホフレイ",
      "ター"
    ],
    [
      "領",
      "域"
    ],
    [
      "記",
      "録"
    ],
    [
      "打",
      "ち"
    ],
    [
      "打ち",
      "立"
    ],
    [
      "打ち立",
      "て"
    ],
    [
      "忘",
      "却"
    ],
    [
      "デ",
      "フォ"
    ],
    [
      "デフォ",
      "ル"
    ],
    [
      "デフォル",
      "ト"
    ],
    [
      "テ",
      "リー"
    ],
    [
      "セ",
      "ジ"
    ],
    [
      "セジ",
      "ュ"
    ],
    [
      "セジュ",
      "ノ"
    ],
    [
      "セジュノ",
      "ウ"
    ],
    [
      "セジュノウ",
      "スキー"
    ],
    [
      "ピ",
      "ータ"
    ],
    [
      "ピータ",
      "ー"
    ],
    [
      "デ",
      "イア"
    ],
    [
      "デイア",
      "ン"
    ],
    [
      "ウェイ",
      "ク"
    ],
    [
      "ス",
      "リー"
    ],
    [
      "スリー",
      "プ"
    ],
    [
      "スリープ",
      "アルゴリズム"
    ],
    [
      "設",
      "計"
    ],
    [
      "20",
      "06"
    ],
    [
      "削",
      "減"
    ],
    [
      "と",
      "い"
    ],
    [
      "とい",
      "っ"
    ],
    [
      "といっ",
      "た"
    ],
    [
      "落",
      "と"
    ],
    [
      "落と",
      "し込"
    ],
    [
      "落とし込",
      "む"
    ],
    [
      "差",
      "分"
    ],
    [
      "と",
      "る"
    ],
    [
      "に",
      "か"
    ],
    [
      "にか",
      "け"
    ],
    [
      "にかけ",
      "て"
    ]
  ]
}