{
  "vocab": {
    "<pad>": 0,
    "<unk>": 1,
    "<sos>": 2,
    "<eos>": 3,
    "\n": 4,
    " ": 5,
    "　": 6,
    "ス": 7,
    "パ": 8,
    "イ": 9,
    "キ": 10,
    "ン": 11,
    "グ": 12,
    "ニ": 13,
    "ュ": 14,
    "ー": 15,
    "ラ": 16,
    "ル": 17,
    "ネ": 18,
    "ッ": 19,
    "ト": 20,
    "ワ": 21,
    "ク": 22,
    "サ": 23,
    "ポ": 24,
    "ベ": 25,
    "マ": 26,
    "シ": 27,
    "(": 28,
    "S": 29,
    "V": 30,
    "M": 31,
    ")": 32,
    "手": 33,
    "法": 34,
    "と": 35,
    "し": 36,
    "て": 37,
    "広": 38,
    "く": 39,
    "知": 40,
    "ら": 41,
    "れ": 42,
    "い": 43,
    "る": 44,
    "も": 45,
    "の": 46,
    "で": 47,
    "あ": 48,
    "り": 49,
    "ヒ": 50,
    "神": 51,
    "経": 52,
    "網": 53,
    "を": 54,
    "模": 55,
    "た": 56,
    "人": 57,
    "工": 58,
    "は": 59,
    "、": 60,
    "計": 61,
    "算": 62,
    "ユ": 63,
    "が": 64,
    "《": 65,
    "重": 66,
    "み": 67,
    "》": 68,
    "介": 69,
    "繋": 70,
    "こ": 71,
    "ナ": 72,
    "プ": 73,
    "結": 74,
    "合": 75,
    "「": 76,
    "強": 77,
    "度": 78,
    "」": 79,
    "似": 80,
    "役": 81,
    "割": 82,
    "担": 83,
    "っ": 84,
    "生": 85,
    "物": 86,
    "に": 87,
    "与": 88,
    "え": 89,
    "外": 90,
    "的": 91,
    "刺": 92,
    "激": 93,
    "相": 94,
    "当": 95,
    "す": 96,
    "訓": 97,
    "練": 98,
    "デ": 99,
    "タ": 100,
    "互": 101,
    "作": 102,
    "用": 103,
    "モ": 104,
    "一": 105,
    "例": 106,
    "1": 107,
    "9": 108,
    "5": 109,
    "4": 110,
    "年": 111,
    "フ": 112,
    "ァ": 113,
    "リ": 114,
    "機": 115,
    "使": 116,
    "ヘ": 117,
    "ブ": 118,
    "型": 119,
    "ミ": 120,
    "レ": 121,
    "。": 122,
    "6": 123,
    "ロ": 124,
    "チ": 125,
    "ェ": 126,
    "ホ": 127,
    "ド": 128,
    "ハ": 129,
    "ビ": 130,
    "ダ": 131,
    "よ": 132,
    "他": 133,
    "成": 134,
    "さ": 135,
    "最": 136,
    "初": 137,
    "実": 138,
    "装": 139,
    "つ": 140,
    "セ": 141,
    "研": 142,
    "究": 143,
    "対": 144,
    "世": 145,
    "間": 146,
    "興": 147,
    "奮": 148,
    "高": 149,
    "め": 150,
    "米": 151,
    "国": 152,
    "政": 153,
    "府": 154,
    "資": 155,
    "金": 156,
    "大": 157,
    "幅": 158,
    "増": 159,
    "加": 160,
    "せ": 161,
    "能": 162,
    "倣": 163,
    "力": 164,
    "関": 165,
    "科": 166,
    "学": 167,
    "者": 168,
    "楽": 169,
    "観": 170,
    "な": 171,
    "主": 172,
    "張": 173,
    "煽": 174,
    "A": 175,
    "I": 176,
    "黄": 177,
    "時": 178,
    "代": 179,
    "貢": 180,
    "献": 181,
    "0": 182,
    "7": 183,
    "ィ": 184,
    "基": 185,
    "礎": 186,
    "行": 187,
    "わ": 188,
    "2": 189,
    "E": 190,
    "ず": 191,
    "だ": 192,
    "K": 193,
    "i": 194,
    "3": 195,
    "B": 196,
    "（": 197,
    "正": 198,
    "規": 199,
    "化": 200,
    "線": 201,
    "形": 202,
    "）": 203,
    "活": 204,
    "性": 205,
    "数": 206,
    "導": 207,
    "入": 208,
    "習": 209,
    "転": 210,
    "移": 211,
    "ゴ": 212,
    "・": 213,
    "ヴ": 214,
    "ム": 215,
    "ツ": 216,
    "ウ": 217,
    "バ": 218,
    "呼": 219,
    "ば": 220,
    "J": 221,
    "ケ": 222,
    "文": 223,
    "脈": 224,
    "誤": 225,
    "差": 226,
    "逆": 227,
    "伝": 228,
    "播": 229,
    "ゲ": 230,
    "ョ": 231,
    "連": 232,
    "続": 233,
    "前": 234,
    "駆": 235,
    "体": 236,
    "発": 237,
    "表": 238,
    "そ": 239,
    "際": 240,
    "側": 241,
    "か": 242,
    "偏": 243,
    "微": 244,
    "分": 245,
    "方": 246,
    "後": 247,
    "半": 248,
    "出": 249,
    "自": 250,
    "動": 251,
    "章": 252,
    "提": 253,
    "案": 254,
    "畳": 255,
    "込": 256,
    "C": 257,
    "N": 258,
    "福": 259,
    "島": 260,
    "邦": 261,
    "彦": 262,
    "層": 263,
    "お": 264,
    "び": 265,
    "複": 266,
    "製": 267,
    "備": 268,
    "ア": 269,
    "テ": 270,
    "ャ": 271,
    "開": 272,
    "般": 273,
    "順": 274,
    "m": 275,
    "a": 276,
    "x": 277,
    "点": 278,
    "確": 279,
    "率": 280,
    "勾": 281,
    "配": 282,
    "降": 283,
    "下": 284,
    "8": 285,
    "音": 286,
    "素": 287,
    "認": 288,
    "識": 289,
    "適": 290,
    "遅": 291,
    "延": 292,
    "T": 293,
    "D": 294,
    "共": 295,
    "有": 296,
    "郵": 297,
    "便": 298,
    "書": 299,
    "き": 300,
    "Z": 301,
    "P": 302,
    "コ": 303,
    "日": 304,
    "要": 305,
    "-": 306,
    "う": 307,
    "字": 308,
    "類": 309,
    "銀": 310,
    "×": 311,
    "ピ": 312,
    "画": 313,
    "像": 314,
    "ジ": 315,
    "小": 316,
    "切": 317,
    "上": 318,
    "医": 319,
    "オ": 320,
    "メ": 321,
    "カ": 322,
    "R": 323,
    "問": 324,
    "見": 325,
    "目": 326,
    "普": 327,
    "及": 328,
    "皮": 329,
    "質": 330,
    "円": 331,
    "察": 332,
    "短": 333,
    "期": 334,
    "記": 335,
    "憶": 336,
    "説": 337,
    "明": 338,
    "反": 339,
    "響": 340,
    "回": 341,
    "路": 342,
    "考": 343,
    "頭": 344,
    "心": 345,
    "理": 346,
    "術": 347,
    "誌": 348,
    "e": 349,
    "r": 350,
    "c": 351,
    "n": 352,
    "s": 353,
    "y": 354,
    "h": 355,
    "o": 356,
    "l": 357,
    "g": 358,
    "t": 359,
    "感": 360,
    "情": 361,
    "係": 362,
    "議": 363,
    "論": 364,
    "ザ": 365,
    "独": 366,
    "立": 367,
    "述": 368,
    "べ": 369,
    "不": 370,
    "可": 371,
    "ゼ": 372,
    "接": 373,
    "彼": 374,
    "応": 375,
    "領": 376,
    "域": 377,
    "精": 378,
    "録": 379,
    "打": 380,
    "ち": 381,
    "統": 382,
    "影": 383,
    "ノ": 384,
    "ズ": 385,
    "同": 386,
    "じ": 387,
    "エ": 388,
    "ヤ": 389,
    "ガ": 390,
    "視": 391,
    "覚": 392,
    "超": 393,
    "ォ": 394,
    "達": 395,
    "従": 396,
    "来": 397,
    "倍": 398,
    "向": 399,
    "示": 400,
    "題": 401,
    "解": 402,
    "決": 403,
    "深": 404,
    "月": 405,
    "残": 406,
    "追": 407,
    "q": 408,
    "報": 409,
    "械": 410,
    "翻": 411,
    "訳": 412,
    "第": 413,
    "次": 414,
    "単": 415,
    "純": 416,
    "内": 417,
    "変": 418,
    "換": 419,
    "W": 420,
    "+": 421,
    "b": 422,
    "部": 423,
    "全": 424,
    "十": 425,
    "総": 426,
    "称": 427,
    "概": 428,
    "念": 429,
    "取": 430,
    "F": 431,
    "→": 432,
    "中": 433,
    "/": 434,
    "比": 435,
    "様": 436,
    "式": 437,
    "々": 438,
    "存": 439,
    "在": 440,
    "帰": 441,
    "持": 442,
    "属": 443,
    "以": 444,
    ":": 445,
    "特": 446,
    "徴": 447,
    "並": 448,
    "列": 449,
    "処": 450,
    "繰": 451,
    "返": 452,
    "必": 453,
    "再": 454,
    "違": 455,
    "双": 456,
    "信": 457,
    "号": 458,
    "場": 459,
    "ぶ": 460,
    "効": 461,
    "f": 462,
    "構": 463,
    "己": 464,
    "注": 465,
    "意": 466,
    "利": 467,
    "然": 468,
    "言": 469,
    "語": 470,
    "量": 471,
    "少": 472,
    "造": 473,
    "多": 474,
    "乱": 475,
    "現": 476,
    "積": 477,
    "ん": 478,
    "け": 479,
    "値": 480,
    "元": 481,
    "階": 482,
    "速": 483,
    "〜": 484,
    "閾": 485,
    "約": 486,
    "済": 487,
    "む": 488,
    "§": 489,
    " ": 490,
    "非": 491,
    "組": 492,
    "各": 493,
    "験": 494,
    "へ": 495,
    ".": 496,
    "ご": 497,
    "L": 498,
    "G": 499,
    "u": 500,
    "p": 501,
    "ど": 502,
    "ま": 503,
    "β": 504,
    "γ": 505,
    "求": 506,
    "命": 507,
    "名": 508,
    "d": 509,
    "進": 510,
    "標": 511,
    "通": 512,
    "二": 513,
    "範": 514,
    "囲": 515,
    "周": 516,
    "毎": 517,
    "直": 518,
    "更": 519,
    "新": 520,
    "=": 521,
    "近": 522,
    "消": 523,
    "失": 524,
    "起": 525,
    "や": 526,
    "散": 527,
    "ぎ": 528,
    "ろ": 529,
    "集": 530,
    "完": 531,
    "了": 532,
    "常": 533,
    "復": 534,
    "技": 535,
    "収": 536,
    "斂": 537,
    "縮": 538,
    "較": 539,
    "簡": 540,
    "子": 541,
    "果": 542,
    "令": 543,
    "演": 544,
    "容": 545,
    "低": 546,
    "乗": 547,
    "費": 548,
    "送": 549,
    "減": 550,
    "脱": 551,
    "終": 552,
    "定": 553,
    "Q": 554,
    "負": 555,
    "荷": 556,
    "勝": 557,
    "悪": 558,
    ";": 559,
    "省": 560,
    "略": 561,
    "恩": 562,
    "恵": 563,
    "受": 564,
    "疎": 565,
    "挙": 566,
    "げ": 567,
    "防": 568,
    "ぐ": 569,
    "和": 570,
    "#": 571,
    "徐": 572,
    "衰": 573,
    "づ": 574,
    "系": 575,
    "指": 576,
    "付": 577,
    "細": 578,
    "胞": 579,
    "等": 580,
    "群": 581,
    "脳": 582,
    "支": 583,
    "無": 584,
    "巨": 585,
    "U": 586,
    "践": 587,
    "限": 588,
    "制": 589,
    "厳": 590,
    "平": 591,
    "野": 592,
    "廣": 593,
    "美": 594,
    "『": 595,
    "v": 596,
    "』": 597,
    "ソ": 598,
    "株": 599,
    "会": 600,
    "社": 601,
    "頁": 602,
    "別": 603,
    "―": 604,
    "幾": 605,
    "何": 606,
    "版": 607,
    "温": 608,
    "故": 609,
    "閲": 610,
    "覧": 611,
    "”": 612,
    "w": 613,
    "宿": 614,
    "─": 615,
    "甘": 616,
    "俊": 617,
    "損": 618,
    "ね": 619,
    "賞": 620,
    "今": 621,
    "課": 622,
    "映": 623,
    "検": 624,
    "索": 625,
    "村": 626,
    "田": 627,
    "剛": 628,
    "志": 629,
    "k": 630,
    "門": 631,
    "朝": 632,
    "倉": 633,
    "店": 634,
    "\"": 635,
    "本": 636,
    "百": 637,
    "瀬": 638,
    "：": 639,
    "～": 640,
    "勘": 641,
    "所": 642,
    "!": 643,
    "…": 644,
    ",": 645,
    "密": 646,
    "%": 647,
    "谷": 648,
    "斎": 649,
    "藤": 650,
    "康": 651,
    "毅": 652,
    "山": 653,
    "郎": 654,
    "ペ": 655,
    "事": 656,
    "仮": 657,
    "含": 658,
    "典": 659,
    "節": 660,
    "？": 661,
    "調": 662,
    "整": 663,
    "答": 664,
    "段": 665,
    "声": 666,
    "離": 667,
    "排": 668,
    "X": 669,
    "O": 670,
    "異": 671,
    "真": 672,
    "教": 673,
    "樹": 674,
    "状": 675,
    "突": 676,
    "軸": 677,
    "士": 678,
    "渡": 679,
    "予": 680,
    "測": 681,
    "推": 682,
    "局": 683,
    "抽": 684,
    "過": 685,
    "去": 686,
    "態": 687,
    "保": 688,
    "扱": 689,
    "火": 690,
    "振": 691,
    "舞": 692,
    "ット": 693,
    "です": 694,
    "ュー": 695,
    "ネット": 696,
    "ニュー": 697,
    "ワー": 698,
    "ワーク": 699,
    "ネットワーク": 700,
    "ニューラ": 701,
    "ニューラル": 702,
    "ニューラルネットワーク": 703,
    "する": 704,
    "学習": 705,
    "重み": 706,
    "20": 707,
    "ある": 708,
    "ック": 709,
    "モデ": 710,
    "モデル": 711,
    "NN": 712,
    "計算": 713,
    "ロン": 714,
    "er": 715,
    "ング": 716,
    "ます": 717,
    "19": 718,
    "ショ": 719,
    "ション": 720,
    "処理": 721,
    "バック": 722,
    "ーション": 723,
    "入力": 724,
    "バックプ": 725,
    "バックプロ": 726,
    "バックプロパ": 727,
    "バックプロパゲ": 728,
    "バックプロパゲーション": 729,
    "出力": 730,
    "によ": 731,
    "パー": 732,
    "から": 733,
    "ため": 734,
    "こと": 735,
    "神経": 736,
    "ータ": 737,
    "ィー": 738,
    "202": 739,
    "Us": 740,
    "User": 741,
    "SA": 742,
    "SAR": 743,
    "SARA": 744,
    "質問": 745,
    "回答": 746,
    "結合": 747,
    "パーセ": 748,
    "パーセプ": 749,
    "パーセプト": 750,
    "パーセプトロン": 751,
    "CNN": 752,
    "れる": 753,
    "関数": 754,
    "なる": 755,
    "いる": 756,
    "して": 757,
    "シナ": 758,
    "シナプ": 759,
    "シナプス": 760,
    "ディー": 761,
    "ディープ": 762,
    "時間": 763,
    "いて": 764,
    "より": 765,
    "誤差": 766,
    "時点": 767,
    "にお": 768,
    "用い": 769,
    "or": 770,
    "ニューロン": 771,
    "として": 772,
    "ラー": 773,
    "による": 774,
    "線形": 775,
    "情報": 776,
    "特徴": 777,
    "手法": 778,
    "データ": 779,
    "ディープラー": 780,
    "ディープラーニ": 781,
    "ディープラーニング": 782,
    "ない": 783,
    "信号": 784,
    "orm": 785,
    "ナル": 786,
    "リー": 787,
    "活性": 788,
    "導入": 789,
    "畳み": 790,
    "畳み込": 791,
    "畳み込み": 792,
    "ント": 793,
    "RNN": 794,
    "an": 795,
    "精度": 796,
    "201": 797,
    "必要": 798,
    "表現": 799,
    "まで": 800,
    "細胞": 801,
    "オリ": 802,
    "オリジ": 803,
    "オリジナル": 804,
    "なが": 805,
    "調整": 806,
    "決め": 807,
    "論理": 808,
    "重要": 809,
    "スパ": 810,
    "スパイ": 811,
    "キング": 812,
    "ヒト": 813,
    "生物": 814,
    "ード": 815,
    "198": 816,
    "画像": 817,
    "リカ": 818,
    "リカレ": 819,
    "リカレント": 820,
    "要素": 821,
    "単純": 822,
    "でき": 823,
    "場合": 824,
    "言語": 825,
    "など": 826,
    "さい": 827,
    "かか": 828,
    "かかる": 829,
    "演算": 830,
    "受け": 831,
    "スパイキング": 832,
    "スパイキングニューラルネットワーク": 833,
    "人工": 834,
    "によっ": 835,
    "によって": 836,
    "アー": 837,
    "につ": 838,
    "について": 839,
    "ニューラルネット": 840,
    "深層": 841,
    "よう": 842,
    "回帰": 843,
    "Tr": 844,
    "Tran": 845,
    "Trans": 846,
    "Transf": 847,
    "Transform": 848,
    "Transformer": 849,
    "更新": 850,
    "完了": 851,
    "非常": 852,
    "反復": 853,
    "量子": 854,
    "低下": 855,
    "ユニ": 856,
    "ユニット": 857,
    "使用": 858,
    "実装": 859,
    "196": 860,
    "年代": 861,
    "方法": 862,
    "において": 863,
    "レイ": 864,
    "12": 865,
    "理論": 866,
    "取り": 867,
    "自己": 868,
    "自然": 869,
    "現在": 870,
    "パラ": 871,
    "パラメ": 872,
    "パラメータ": 873,
    "2024": 874,
    "におけ": 875,
    "における": 876,
    "アーカ": 877,
    "アーカイ": 878,
    "アーカイブ": 879,
    "2025": 880,
    "付き": 881,
    "つなが": 882,
    "多層": 883,
    "決める": 884,
    "分離": 885,
    "排他": 886,
    "教え": 887,
    "くだ": 888,
    "ください": 889,
    "伝え": 890,
    "推論": 891,
    "系列": 892,
    "扱う": 893,
    "もの": 894,
    "あり": 895,
    "与え": 896,
    "訓練": 897,
    "研究": 898,
    "1960": 899,
    "ップ": 900,
    "発表": 901,
    "提案": 902,
    "リング": 903,
    "勾配": 904,
    "ウェ": 905,
    "リカレントニューラルネットワーク": 906,
    "回路": 907,
    "関係": 908,
    "シュ": 909,
    "フォ": 910,
    "方向": 911,
    "様々": 912,
    "以下": 913,
    "並列": 914,
    "機構": 915,
    "使わ": 916,
    "複素": 917,
    "ャッ": 918,
    "効率": 919,
    "記事": 920,
    "広く": 921,
    "役割": 922,
    "レー": 923,
    "ラン": 924,
    "これ": 925,
    "197": 926,
    "ワード": 927,
    "32": 928,
    "正規": 929,
    "バー": 930,
    "サン": 931,
    "およ": 932,
    "および": 933,
    "確率": 934,
    "ウェイ": 935,
    "認識": 936,
    "共有": 937,
    "分類": 938,
    "フィー": 939,
    "認知": 940,
    "ンス": 941,
    "ズム": 942,
    "2015": 943,
    "問題": 944,
    "機械": 945,
    "もと": 946,
    "変換": 947,
    "レイヤ": 948,
    "FF": 949,
    "FFN": 950,
    "存在": 951,
    "注意": 952,
    "構造": 953,
    "非線形": 954,
    "生成": 955,
    "たら": 956,
    "バッ": 957,
    "バッチ": 958,
    "初期": 959,
    "近い": 960,
    "使っ": 961,
    "できる": 962,
    "メモ": 963,
    "メモリ": 964,
    "スパー": 965,
    "スパース": 966,
    "ゼロ": 967,
    "行列": 968,
    "対応": 969,
    "受け取り": 970,
    "しい": 971,
    "2023": 972,
    "閲覧": 973,
    "11": 974,
    ").": 975,
    "課題": 976,
    "基本": 977,
    "クト": 978,
    "この": 979,
    "られる": 980,
    "ター": 981,
    "最初": 982,
    "に対": 983,
    "大幅": 984,
    "増加": 985,
    "基礎": 986,
    "行わ": 987,
    "ットフ": 988,
    "ダウ": 989,
    "ダウン": 990,
    "伝播": 991,
    "その": 992,
    "微分": 993,
    "開発": 994,
    "降下": 995,
    "コード": 996,
    "とい": 997,
    "という": 998,
    "199": 999,
    "出さ": 1000,
    "ch": 1001,
    "st": 1002,
    "感情": 1003,
    "イア": 1004,
    "アル": 1005,
    "アルゴ": 1006,
    "アルゴリ": 1007,
    "アルゴリズム": 1008,
    "により": 1009,
    "ディープ・": 1010,
    "・ネットワーク": 1011,
    "ン・": 1012,
    "コン": 1013,
    "フォー": 1014,
    "フォーマ": 1015,
    "向上": 1016,
    "Se": 1017,
    "フィード": 1018,
    "層間": 1019,
    "ay": 1020,
    "ayer": 1021,
    "利用": 1022,
    "次元": 1023,
    "速度": 1024,
    "もたら": 1025,
    "ごと": 1026,
    "Norm": 1027,
    "命令": 1028,
    "キャッ": 1029,
    "キャッシュ": 1030,
    "14": 1031,
    "ニューロ": 1032,
    "リン": 1033,
    "リンク": 1034,
    "出典": 1035,
    "つながっ": 1036,
    "数理": 1037,
    "段階": 1038,
    "音声": 1039,
    "適し": 1040,
    "XO": 1041,
    "XOR": 1042,
    "異なる": 1043,
    "とき": 1044,
    "だけ": 1045,
    "真に": 1046,
    "つながる": 1047,
    "突起": 1048,
    "を通": 1049,
    "を通じ": 1050,
    "を通じて": 1051,
    "同士": 1052,
    "渡す": 1053,
    "接合": 1054,
    "変化": 1055,
    "持ち": 1056,
    "予測": 1057,
    "小さ": 1058,
    "小さく": 1059,
    "きい": 1060,
    "済み": 1061,
    "新しい": 1062,
    "各層": 1063,
    "向き": 1064,
    "実用": 1065,
    "技術": 1066,
    "局所": 1067,
    "受容": 1068,
    "よく": 1069,
    "抽出": 1070,
    "過去": 1071,
    "状態": 1072,
    "保持": 1073,
    "ながら": 1074,
    "規模": 1075,
    "中心": 1076,
    "発火": 1077,
    "タイ": 1078,
    "タイミ": 1079,
    "タイミング": 1080,
    "通常": 1081,
    "挙動": 1082,
    "振る": 1083,
    "振る舞": 1084,
    "振る舞い": 1085,
    "与える": 1086,
    "マシ": 1087,
    "知ら": 1088,
    "介し": 1089,
    "がり": 1090,
    "ニューラルネットワークモデル": 1091,
    "195": 1092,
    "レート": 1093,
    "ビット": 1094,
    "作成": 1095,
    "に関": 1096,
    "に関する": 1097,
    "科学": 1098,
    "AI": 1099,
    "1970": 1100,
    "Ki": 1101,
    "25": 1102,
    "・ヴ": 1103,
    "・ヴィ": 1104,
    "ライ": 1105,
    "呼ば": 1106,
    "なか": 1107,
    "なかっ": 1108,
    "福島": 1109,
    "邦彦": 1110,
    "サンプ": 1111,
    "サンプリング": 1112,
    "チャ": 1113,
    "プー": 1114,
    "プーリング": 1115,
    "しか": 1116,
    "ベル": 1117,
    "適用": 1118,
    "手書": 1119,
    "手書き": 1120,
    "IP": 1121,
    "数字": 1122,
    "いく": 1123,
    "いくつ": 1124,
    "1991": 1125,
    "ジェ": 1126,
    "1982": 1127,
    "1980": 1128,
    "述べ": 1129,
    "論文": 1130,
    "シュミ": 1131,
    "シュミットフ": 1132,
    "シュミットフー": 1133,
    "シュミットフーバー": 1134,
    "複数": 1135,
    "応用": 1136,
    "統計": 1137,
    "力学": 1138,
    "200": 1139,
    "ディープ・ビ": 1140,
    "ディープ・ビリー": 1141,
    "ディープ・ビリーフ": 1142,
    "ディープ・ビリーフ・ネットワーク": 1143,
    "パフォーマ": 1144,
    "パフォーマンス": 1145,
    "従来": 1146,
    "テン": 1147,
    "追加": 1148,
    "Seq": 1149,
    "エン": 1150,
    "フィ": 1151,
    "部分": 1152,
    "全く": 1153,
    "示さ": 1154,
    "フィードフォ": 1155,
    "フィードフォワード": 1156,
    "しば": 1157,
    "様式": 1158,
    "持た": 1159,
    "すべ": 1160,
    "すべて": 1161,
    "layer": 1162,
    "もつ": 1163,
    "シー": 1164,
    "シーケ": 1165,
    "シーケン": 1166,
    "シーケンシ": 1167,
    "シーケンシャ": 1168,
    "シーケンシャル": 1169,
    "に対して": 1170,
    "リカレントニューラルネット": 1171,
    "ノード": 1172,
    "en": 1173,
    "ent": 1174,
    "on": 1175,
    "比べ": 1176,
    "乱数": 1177,
    "チップ": 1178,
    "複素数": 1179,
    "グラ": 1180,
    "グラフ": 1181,
    "組み": 1182,
    "組み合": 1183,
    "組み合わ": 1184,
    "組み合わせ": 1185,
    "構成": 1186,
    "おり": 1187,
    "ro": 1188,
    "また": 1189,
    "たり": 1190,
    "ee": 1191,
    "et": 1192,
    "シャッ": 1193,
    "シャッフ": 1194,
    "シャッフル": 1195,
    "やす": 1196,
    "やすい": 1197,
    "分散": 1198,
    "小さい": 1199,
    "とこ": 1200,
    "ところ": 1201,
    "効果": 1202,
    "生み": 1203,
    "生み出さ": 1204,
    "容量": 1205,
    "減少": 1206,
    "数値": 1207,
    "もたらす": 1208,
    "QD": 1209,
    "QDQ": 1210,
    "最適": 1211,
    "近似": 1212,
    "省略": 1213,
    "ランダ": 1214,
    "ランダム": 1215,
    "エポ": 1216,
    "エポック": 1217,
    "2020": 1218,
    "巨大": 1219,
    "つく": 1220,
    "つくる": 1221,
    "10": 1222,
    "09": 1223,
    "07": 1224,
    "21": 1225,
    "Py": 1226,
    "Pyt": 1227,
    "ar": 1228,
    "学ぶ": 1229,
    "記述": 1230,
    "サポ": 1231,
    "サポー": 1232,
    "サポート": 1233,
    "サポートベ": 1234,
    "サポートベクト": 1235,
    "サポートベクトル": 1236,
    "サポートベクトルマシ": 1237,
    "サポートベクトルマシン": 1238,
    "SV": 1239,
    "SVM": 1240,
    "繋がり": 1241,
    "強度": 1242,
    "担っ": 1243,
    "外的": 1244,
    "刺激": 1245,
    "相当": 1246,
    "相互": 1247,
    "作用": 1248,
    "1954": 1249,
    "ファ": 1250,
    "ファー": 1251,
    "ファーリー": 1252,
    "クラー": 1253,
    "クラーク": 1254,
    "ヘッ": 1255,
    "ヘッブ": 1256,
    "シミ": 1257,
    "シミュ": 1258,
    "シミュレート": 1259,
    "1956": 1260,
    "ロチ": 1261,
    "ロチェ": 1262,
    "ロチェス": 1263,
    "ロチェスター": 1264,
    "ホラン": 1265,
    "ホランド": 1266,
    "ハビット": 1267,
    "デュー": 1268,
    "デューダ": 1269,
    "に対する": 1270,
    "世間": 1271,
    "興奮": 1272,
    "高め": 1273,
    "米国": 1274,
    "政府": 1275,
    "資金": 1276,
    "人間": 1277,
    "知能": 1278,
    "模倣": 1279,
    "能力": 1280,
    "楽観": 1281,
    "主張": 1282,
    "煽ら": 1283,
    "黄金": 1284,
    "時代": 1285,
    "貢献": 1286,
    "ブレー": 1287,
    "ブレーク": 1288,
    "スル": 1289,
    "スルー": 1290,
    "50": 1291,
    "5020": 1292,
    "さし": 1293,
    "はず": 1294,
    "64": 1295,
    "256": 1296,
    "KiB": 1297,
    "1976": 1298,
    "転移": 1299,
    "ゴットフ": 1300,
    "ゴットフリー": 1301,
    "ゴットフリート": 1302,
    "ゴットフリート・ヴィ": 1303,
    "ゴットフリート・ヴィル": 1304,
    "ゴットフリート・ヴィルヘ": 1305,
    "ゴットフリート・ヴィルヘル": 1306,
    "ゴットフリート・ヴィルヘルム": 1307,
    "ゴットフリート・ヴィルヘルム・": 1308,
    "ゴットフリート・ヴィルヘルム・ライ": 1309,
    "ゴットフリート・ヴィルヘルム・ライプ": 1310,
    "ゴットフリート・ヴィルヘルム・ライプニ": 1311,
    "ゴットフリート・ヴィルヘルム・ライプニッ": 1312,
    "ゴットフリート・ヴィルヘルム・ライプニッツ": 1313,
    "トップ": 1314,
    "トップダウン": 1315,
    "リバー": 1316,
    "リバース": 1317,
    "リバース・": 1318,
    "リバース・モ": 1319,
    "リバース・モード": 1320,
    "ヘン": 1321,
    "ヘンリー": 1322,
    "ケリー": 1323,
    "文脈": 1324,
    "連続": 1325,
    "前駆": 1326,
    "後半": 1327,
    "自動": 1328,
    "にて": 1329,
    "文章": 1330,
    "1979": 1331,
    "複製": 1332,
    "備え": 1333,
    "ディープラーニングアー": 1334,
    "ディープラーニングアーキ": 1335,
    "ディープラーニングアーキテ": 1336,
    "ディープラーニングアーキテク": 1337,
    "ディープラーニングアーキテクチャ": 1338,
    "一般": 1339,
    "手順": 1340,
    "ma": 1341,
    "max": 1342,
    "しかし": 1343,
    "1987": 1344,
    "アレ": 1345,
    "アレック": 1346,
    "アレックス": 1347,
    "ウェイベル": 1348,
    "音素": 1349,
    "遅延": 1350,
    "TD": 1351,
    "TDNN": 1352,
    "郵便": 1353,
    "ZIP": 1354,
    "要し": 1355,
    "銀行": 1356,
    "ピク": 1357,
    "ピクセ": 1358,
    "ピクセル": 1359,
    "デジ": 1360,
    "デジタ": 1361,
    "デジタル": 1362,
    "小切": 1363,
    "小切手": 1364,
    "ハード": 1365,
    "ハードウェ": 1366,
    "ハードウェア": 1367,
    "医用": 1368,
    "オブ": 1369,
    "オブジェ": 1370,
    "オブジェクト": 1371,
    "セグ": 1372,
    "セグメ": 1373,
    "セグメン": 1374,
    "セグメンテ": 1375,
    "セグメンテーション": 1376,
    "学問": 1377,
    "見出さ": 1378,
    "加え": 1379,
    "ホップ": 1380,
    "フィール": 1381,
    "フィールド": 1382,
    "普及": 1383,
    "あっ": 1384,
    "190": 1385,
    "1901": 1386,
    "皮質": 1387,
    "半円": 1388,
    "観察": 1389,
    "短期": 1390,
    "記憶": 1391,
    "説明": 1392,
    "反響": 1393,
    "考察": 1394,
    "初頭": 1395,
    "心理": 1396,
    "学術": 1397,
    "Am": 1398,
    "Amer": 1399,
    "Ameri": 1400,
    "Americ": 1401,
    "American": 1402,
    "Ps": 1403,
    "Psy": 1404,
    "Psych": 1405,
    "Psycho": 1406,
    "Psychol": 1407,
    "Psycholo": 1408,
    "Psycholog": 1409,
    "Psychologi": 1410,
    "Psychologist": 1411,
    "議論": 1412,
    "ザイア": 1413,
    "ザイアンス": 1414,
    "独立": 1415,
    "ラザ": 1416,
    "ラザル": 1417,
    "ラザルス": 1418,
    "不可": 1419,
    "不可分": 1420,
    "ゼップ": 1421,
    "ゼップ・": 1422,
    "ゼップ・ホ": 1423,
    "ゼップ・ホフ": 1424,
    "ゼップ・ホフレイ": 1425,
    "ゼップ・ホフレイター": 1426,
    "接続": 1427,
    "領域": 1428,
    "記録": 1429,
    "打ち": 1430,
    "打ち立": 1431,
    "打ち立て": 1432,
    "1985": 1433,
    "1995": 1434,
    "影響": 1435,
    "テリー": 1436,
    "セジ": 1437,
    "セジュ": 1438,
    "セジュノ": 1439,
    "セジュノウ": 1440,
    "セジュノウス": 1441,
    "セジュノウスキ": 1442,
    "セジュノウスキー": 1443,
    "ピータ": 1444,
    "ピーター": 1445,
    "デイア": 1446,
    "デイアン": 1447,
    "ウェイク": 1448,
    "スリー": 1449,
    "スリープ": 1450,
    "スリープアルゴリズム": 1451,
    "2006": 1452,
    "ジェフ": 1453,
    "ジェフリー": 1454,
    "ヒント": 1455,
    "ヒントン": 1456,
    "同じ": 1457,
    "2011": 1458,
    "ダン": 1459,
    "シレ": 1460,
    "シレサン": 1461,
    "ウエ": 1462,
    "ウエリ": 1463,
    "ウエリ・": 1464,
    "ウエリ・マ": 1465,
    "ウエリ・マイ": 1466,
    "ウエリ・マイヤ": 1467,
    "ウエリ・マイヤー": 1468,
    "ジョ": 1469,
    "ジョナ": 1470,
    "ジョナサン": 1471,
    "マッ": 1472,
    "マッシ": 1473,
    "ルカ": 1474,
    "マリ": 1475,
    "マリア": 1476,
    "マリア・": 1477,
    "マリア・ガ": 1478,
    "マリア・ガン": 1479,
    "マリア・ガンバ": 1480,
    "マリア・ガンバル": 1481,
    "マリア・ガンバルデ": 1482,
    "マリア・ガンバルデッ": 1483,
    "マリア・ガンバルデッラ": 1484,
    "ユル": 1485,
    "ユルゲ": 1486,
    "ユルゲン・": 1487,
    "ユルゲン・シュミットフーバー": 1488,
    "視覚": 1489,
    "パター": 1490,
    "パターン": 1491,
    "コンテ": 1492,
    "コンテス": 1493,
    "コンテスト": 1494,
    "初め": 1495,
    "初めて": 1496,
    "人的": 1497,
    "達成": 1498,
    "上回": 1499,
    "上回っ": 1500,
    "マック": 1501,
    "スプーリング": 1502,
    "せる": 1503,
    "示し": 1504,
    "それ": 1505,
    "それら": 1506,
    "解決": 1507,
    "ハイ": 1508,
    "ハイウェイ": 1509,
    "アテン": 1510,
    "アテンション": 1511,
    "メカ": 1512,
    "メカニ": 1513,
    "メカニズム": 1514,
    "デコード": 1515,
    "考え": 1516,
    "考え方": 1517,
    "翻訳": 1518,
    "2014": 1519,
    "ブー": 1520,
    "ブーム": 1521,
    "発生": 1522,
    "バーナ": 1523,
    "バーナード": 1524,
    "バーナード・ヴィ": 1525,
    "バーナード・ヴィド": 1526,
    "バーナード・ヴィドロ": 1527,
    "バーナード・ヴィドロー": 1528,
    "内側": 1529,
    "アフィ": 1530,
    "アフィン": 1531,
    "Wx": 1532,
    "代表": 1533,
    "不十": 1534,
    "不十分": 1535,
    "フィードフォワードニューラルネットワーク": 1536,
    "総称": 1537,
    "クラ": 1538,
    "クラス": 1539,
    "しばしば": 1540,
    "概念": 1541,
    "取り入": 1542,
    "取り入れる": 1543,
    "中間": 1544,
    "単一": 1545,
    "対比": 1546,
    "関わ": 1547,
    "関わら": 1548,
    "属する": 1549,
    "繰り": 1550,
    "繰り返": 1551,
    "繰り返す": 1552,
    "再帰": 1553,
    "フィードバック": 1554,
    "フィードバックニューラルネット": 1555,
    "フィードフォワードニューラルネット": 1556,
    "違い": 1557,
    "双方向": 1558,
    "全て": 1559,
    "持っ": 1560,
    "呼ぶ": 1561,
    "有効": 1562,
    "Sel": 1563,
    "Self": 1564,
    "At": 1565,
    "Att": 1566,
    "Attent": 1567,
    "Attenti": 1568,
    "Attention": 1569,
    "少な": 1570,
    "少なく": 1571,
    "多い": 1572,
    "動作": 1573,
    "積ん": 1574,
    "コンシ": 1575,
    "コンシュー": 1576,
    "コンシューマ": 1577,
    "コンシューマー": 1578,
    "向け": 1579,
    "もとより": 1580,
    "可能": 1581,
    "階層": 1582,
    "速く": 1583,
    "しかも": 1584,
    "閾値": 1585,
    "総数": 1586,
    "半分": 1587,
    "済む": 1588,
    "ニューラル・ネットワーク": 1589,
    "経験": 1590,
    "もたらし": 1591,
    "Ta": 1592,
    "Tab": 1593,
    "Tabl": 1594,
    "Table": 1595,
    "チャネ": 1596,
    "チャネル": 1597,
    "おこ": 1598,
    "おこな": 1599,
    "おこなわ": 1600,
    "Layer": 1601,
    "In": 1602,
    "Inst": 1603,
    "Instan": 1604,
    "Instanc": 1605,
    "Instance": 1606,
    "Gro": 1607,
    "Grou": 1608,
    "Group": 1609,
    "求め": 1610,
    "1986": 1611,
    "命名": 1612,
    "以前": 1613,
    "以外": 1614,
    "gr": 1615,
    "gra": 1616,
    "grad": 1617,
    "gradi": 1618,
    "gradient": 1619,
    "fr": 1620,
    "free": 1621,
    "met": 1622,
    "meth": 1623,
    "metho": 1624,
    "method": 1625,
    "でも": 1626,
    "進め": 1627,
    "られ": 1628,
    "目標": 1629,
    "通す": 1630,
    "最大": 1631,
    "範囲": 1632,
    "べき": 1633,
    "バイア": 1634,
    "バイアス": 1635,
    "オン": 1636,
    "オンライ": 1637,
    "オンライン": 1638,
    "一周": 1639,
    "毎回": 1640,
    "直す": 1641,
    "不適": 1642,
    "不適切": 1643,
    "消失": 1644,
    "起こ": 1645,
    "起こし": 1646,
    "すぎ": 1647,
    "すぎる": 1648,
    "集中": 1649,
    "技法": 1650,
    "使え": 1651,
    "収斂": 1652,
    "短縮": 1653,
    "行う": 1654,
    "マル": 1655,
    "マルチ": 1656,
    "マルチス": 1657,
    "マルチスレ": 1658,
    "マルチスレッ": 1659,
    "マルチスレッド": 1660,
    "実行": 1661,
    "比較": 1662,
    "比較的": 1663,
    "簡単": 1664,
    "FP": 1665,
    "IN": 1666,
    "INT": 1667,
    "IPC": 1668,
    "あたり": 1669,
    "乗る": 1670,
    "ヒット": 1671,
    "消費": 1672,
    "転送": 1673,
    "最終": 1674,
    "メリ": 1675,
    "メリット": 1676,
    "上記": 1677,
    "決定": 1678,
    "セット": 1679,
    "下がり": 1680,
    "さら": 1681,
    "さらに": 1682,
    "負荷": 1683,
    "勝っ": 1684,
    "悪化": 1685,
    "バリ": 1686,
    "バリエ": 1687,
    "バリエーション": 1688,
    "):": 1689,
    "恩恵": 1690,
    "受ける": 1691,
    "フォーマット": 1692,
    "形式": 1693,
    "挙げ": 1694,
    "前提": 1695,
    "防ぐ": 1696,
    "通り": 1697,
    "徐々": 1698,
    "徐々に": 1699,
    "減衰": 1700,
    "近づ": 1701,
    "近づく": 1702,
    "用語": 1703,
    "もともと": 1704,
    "指し": 1705,
    "形容": 1706,
    "実際": 1707,
    "広が": 1708,
    "広がっ": 1709,
    "ので": 1710,
    "重み付": 1711,
    "重み付け": 1712,
    "これら": 1713,
    "全体": 1714,
    "形成": 1715,
    "小脳": 1716,
    "支持": 1717,
    "無関係": 1718,
    "ste": 1719,
    "step": 1720,
    "すれ": 1721,
    "GP": 1722,
    "GPU": 1723,
    "使い": 1724,
    "きれる": 1725,
    "実践": 1726,
    "上限": 1727,
    "制約": 1728,
    "厳しい": 1729,
    "BP": 1730,
    "平野": 1731,
    "廣美": 1732,
    "変わ": 1733,
    "変わる": 1734,
    "++": 1735,
    "Ja": 1736,
    "Jav": 1737,
    "Java": 1738,
    "パーソ": 1739,
    "パーソナル": 1740,
    "メデ": 1741,
    "メディ": 1742,
    "メディア": 1743,
    "株式": 1744,
    "株式会": 1745,
    "株式会社": 1746,
    "2008": 1747,
    "27": 1748,
    "識別": 1749,
    "II": 1750,
    "幾何": 1751,
    "共立": 1752,
    "出版": 1753,
    "1968": 1754,
    "サイ": 1755,
    "サイエ": 1756,
    "サイエンス": 1757,
    "温故": 1758,
    "温故知": 1759,
    "温故知新": 1760,
    "動向": 1761,
    "05": 1762,
    "2019": 1763,
    "22": 1764,
    "2018": 1765,
    "”.": 1766,
    "wi": 1767,
    "wit": 1768,
    "witn": 1769,
    "witne": 1770,
    "witnes": 1771,
    "witness": 1772,
    "org": 1773,
    "意識": 1774,
    "宿る": 1775,
    "甘利": 1776,
    "俊一": 1777,
    "損ね": 1778,
    "ノー": 1779,
    "ノーベル": 1780,
    "今後": 1781,
    "映像": 1782,
    "検索": 1783,
    "村田": 1784,
    "剛志": 1785,
    "グラフニューラルネットワーク": 1786,
    "Pytor": 1787,
    "Pytorch": 1788,
    "Ba": 1789,
    "Bac": 1790,
    "Back": 1791,
    "Backp": 1792,
    "Backpro": 1793,
    "Backprop": 1794,
    "入門": 1795,
    "24": 1796,
    "16": 1797,
    "情報処理": 1798,
    "朝倉": 1799,
    "朝倉書": 1800,
    "朝倉書店": 1801,
    "1989": 1802,
    "百瀬": 1803,
    "2016": 1804,
    "ディープ・ニューラルネットワーク": 1805,
    "ニューロチップ": 1806,
    "勘所": 1807,
    "!!": 1808,
    "フレー": 1809,
    "フレーム": 1810,
    "多く": 1811,
    "費や": 1812,
    "費やさ": 1813,
    "90": 1814,
    "of": 1815,
    "関谷": 1816,
    "al": 1817,
    "2017": 1818,
    "ランク": 1819,
    "高速": 1820,
    "ニューロコン": 1821,
    "ニューロコンピ": 1822,
    "ニューロコンピュー": 1823,
    "ニューロコンピューテ": 1824,
    "ニューロコンピューティ": 1825,
    "ニューロコンピューティング": 1826,
    "数学": 1827,
    "斎藤": 1828,
    "作る": 1829,
    "Dee": 1830,
    "Deep": 1831,
    "Le": 1832,
    "Lear": 1833,
    "Learn": 1834,
    "Learni": 1835,
    "Learnin": 1836,
    "Learning": 1837,
    "Pyth": 1838,
    "Python": 1839,
    "山内": 1840,
    "康一": 1841,
    "作っ": 1842,
    "ニューロモ": 1843,
    "ニューロモル": 1844,
    "ニューロモルフィ": 1845,
    "ニューロモルフィック": 1846,
    "ニューロモルフィック・": 1847,
    "ニューロモルフィック・エン": 1848,
    "ニューロモルフィック・エンジ": 1849,
    "ニューロモルフィック・エンジニ": 1850,
    "ニューロモルフィック・エンジニア": 1851,
    "ニューロモルフィック・エンジニアリング": 1852,
    "ブレイ": 1853,
    "ブレイン・": 1854,
    "ブレイン・マシ": 1855,
    "ブレイン・マシン・": 1856,
    "ブレイン・マシン・イ": 1857,
    "ブレイン・マシン・イン": 1858,
    "ブレイン・マシン・インタ": 1859,
    "ブレイン・マシン・インタフ": 1860,
    "ブレイン・マシン・インタフェ": 1861,
    "ブレイン・マシン・インタフェー": 1862,
    "ブレイン・マシン・インタフェース": 1863,
    "We": 1864,
    "Web": 1865,
    "Webar": 1866,
    "Webarch": 1867,
    "Webarchi": 1868,
    "Webarchiv": 1869,
    "Webarchive": 1870,
    "テンプ": 1871,
    "テンプレート": 1872,
    "IS": 1873,
    "ISB": 1874,
    "ISBN": 1875,
    "マジ": 1876,
    "マジック": 1877,
    "ペー": 1878,
    "ページ": 1879,
    "日本": 1880,
    "日本語": 1881,
    "リダ": 1882,
    "リダイ": 1883,
    "リダイレ": 1884,
    "リダイレクト": 1885,
    "含む": 1886,
    "2022": 1887,
    "私": 1888,
    "先": 1889,
    "憚": 1890,
    "遠": 1891,
    "慮": 1892,
    "筆": 1893,
    "執": 1894,
    "気": 1895,
    "鎌": 1896,
    "若": 1897,
    "暑": 1898,
    "休": 1899,
    "暇": 1900,
    "海": 1901,
    "水": 1902,
    "浴": 1903,
    "友": 1904,
    "ぜ": 1905,
    "ひ": 1906,
    "端": 1907,
    "面": 1908,
    "掛": 1909,
    "三": 1910,
    "電": 1911,
    "母": 1912,
    "病": 1913,
    "断": 1914,
    "親": 1915,
    "勧": 1916,
    "婚": 1917,
    "慣": 1918,
    "肝": 1919,
    "夏": 1920,
    "ざ": 1921,
    "避": 1922,
    "東": 1923,
    "京": 1924,
    "遊": 1925,
    "談": 1926,
    "固": 1927,
    "校": 1928,
    "授": 1929,
    "業": 1930,
    "始": 1931,
    "境": 1932,
    "遇": 1933,
    "留": 1934,
    "悟": 1935,
    "産": 1936,
    "家": 1937,
    "息": 1938,
    "由": 1939,
    "男": 1940,
    "程": 1941,
    "辺": 1942,
    "鄙": 1943,
    "角": 1944,
    "玉": 1945,
    "長": 1946,
    "畷": 1947,
    "越": 1948,
    "届": 1949,
    "個": 1950,
    "荘": 1951,
    "建": 1952,
    "至": 1953,
    "極": 1954,
    "地": 1955,
    "位": 1956,
    "占": 1957,
    "古": 1958,
    "燻": 1959,
    "藁": 1960,
    "葺": 1961,
    "抜": 1962,
    "磯": 1963,
    "ほ": 1964,
    "都": 1965,
    "種": 1966,
    "住": 1967,
    "思": 1968,
    "女": 1969,
    "砂": 1970,
    "銭": 1971,
    "湯": 1972,
    "黒": 1973,
    "ゃ": 1974,
    "賑": 1975,
    "景": 1976,
    "色": 1977,
    "裹": 1978,
    "寝": 1979,
    "膝": 1980,
    "波": 1981,
    "跳": 1982,
    "廻": 1983,
    "愉": 1984,
    "快": 1985,
    "雑": 1986,
    "沓": 1987,
    "岸": 1988,
    "茶": 1989,
    "屋": 1990,
    "軒": 1991,
    "ふ": 1992,
    "専": 1993,
    "着": 1994,
    "拵": 1995,
    "客": 1996,
    "風": 1997,
    "飲": 1998,
    "洗": 1999,
    "濯": 2000,
    "鹹": 2001,
    "ゆ": 2002,
    "身": 2003,
    "清": 2004,
    "帽": 2005,
    "傘": 2006,
    "預": 2007,
    "盗": 2008,
    "恐": 2009,
    "棄": 2010,
    "ょ": 2011,
    "濡": 2012,
    "吹": 2013,
    "遮": 2014,
    "逃": 2015,
    "浜": 2016,
    "混": 2017,
    "放": 2018,
    "漫": 2019,
    "西": 2020,
    "洋": 2021,
    "伴": 2022,
    "優": 2023,
    "白": 2024,
    "膚": 2025,
    "否": 2026,
    "惹": 2027,
    "粋": 2028,
    "衣": 2029,
    "床": 2030,
    "几": 2031,
    "ぽ": 2032,
    "腕": 2033,
    "我": 2034,
    "穿": 2035,
    "猿": 2036,
    "股": 2037,
    "肌": 2038,
    "井": 2039,
    "眺": 2040,
    "尻": 2041,
    "丘": 2042,
    "傍": 2043,
    "裏": 2044,
    "口": 2045,
    "凝": 2046,
    "塩": 2047,
    "胴": 2048,
    "抵": 2049,
    "護": 2050,
    "謨": 2051,
    "巾": 2052,
    "被": 2053,
    "老": 2054,
    "紺": 2055,
    "藍": 2056,
    "浮": 2057,
    "撃": 2058,
    "眼": 2059,
    "皆": 2060,
    "珍": 2061,
    "顧": 2062,
    "落": 2063,
    "拭": 2064,
    "拾": 2065,
    "包": 2066,
    "歩": 2067,
    "好": 2068,
    "奇": 2069,
    "姿": 2070,
    "守": 2071,
    "浅": 2072,
    "騒": 2073,
    "泳": 2074,
    "沖": 2075,
    "引": 2076,
    "戻": 2077,
    "戸": 2078,
    "腰": 2079,
    "烟": 2080,
    "草": 2081,
    "顔": 2082,
    "屈": 2083,
    "托": 2084,
    "聊": 2085,
    "苦": 2086,
    "翌": 2087,
    "刻": 2088,
    "鏡": 2089,
    "台": 2090,
    "置": 2091,
    "昨": 2092,
    "急": 2093,
    "陸": 2094,
    "雫": 2095,
    "垂": 2096,
    "挨": 2097,
    "拶": 2098,
    "交": 2099,
    "払": 2100,
    "或": 2101,
    "ぱ": 2102,
    "絣": 2103,
    "兵": 2104,
    "児": 2105,
    "帯": 2106,
    "締": 2107,
    "探": 2108,
    "首": 2109,
    "難": 2110,
    "飛": 2111,
    "丁": 2112,
    "話": 2113,
    "蒼": 2114,
    "太": 2115,
    "陽": 2116,
    "光": 2117,
    "照": 2118,
    "歓": 2119,
    "喜": 2120,
    "充": 2121,
    "筋": 2122,
    "肉": 2123,
    "躍": 2124,
    "狂": 2125,
    "足": 2126,
    "運": 2127,
    "已": 2128,
    "仰": 2129,
    "浪": 2130,
    "青": 2131,
    "空": 2132,
    "射": 2133,
    "痛": 2134,
    "烈": 2135,
    "投": 2136,
    "懇": 2137,
    "午": 2138,
    "君": 2139,
    "聞": 2140,
    "蓄": 2141,
    "葉": 2142,
    "旅": 2143,
    "館": 2144,
    "寺": 2145,
    "族": 2146,
    "笑": 2147,
    "癖": 2148,
    "弁": 2149,
    "末": 2150,
    "暗": 2151,
    "疑": 2152,
    "腹": 2153,
    "望": 2154,
    "折": 2155,
    "宅": 2156,
    "伺": 2157,
    "宜": 2158,
    "濃": 2159,
    "傷": 2160,
    "軽": 2161,
    "安": 2162,
    "揺": 2163,
    "血": 2164,
    "働": 2165,
    "亡": 2166,
    "嫌": 2167,
    "冷": 2168,
    "淡": 2169,
    "価": 2170,
    "止": 2171,
    "警": 2172,
    "告": 2173,
    "懐": 2174,
    "蔑": 2175,
    "訪": 2176,
    "週": 2177,
    "彩": 2178,
    "戟": 2179,
    "染": 2180,
    "往": 2181,
    "希": 2182,
    "緊": 2183,
    "弛": 2184,
    "欲": 2185,
    "室": 2186,
    "曜": 2187,
    "晴": 2188,
    "沁": 2189,
    "満": 2190,
    "躊": 2191,
    "躇": 2192,
    "待": 2193,
    "鄭": 2194,
    "寧": 2195,
    "司": 2196,
    "ヶ": 2197,
    "墓": 2198,
    "仏": 2199,
    "花": 2200,
    "奥": 2201,
    "毒": 2202,
    "町": 2203,
    "苗": 2204,
    "畠": 2205,
    "左": 2206,
    "両": 2207,
    "楓": 2208,
    "植": 2209,
    "道": 2210,
    "縁": 2211,
    "寄": 2212,
    "遍": 2213,
    "森": 2214,
    "閑": 2215,
    "昼": 2216,
    "判": 2217,
    "曇": 2218,
    "誰": 2219,
    "参": 2220,
    "妻": 2221,
    "得": 2222,
    "依": 2223,
    "撒": 2224,
    "伯": 2225,
    "拉": 2226,
    "僕": 2227,
    "ギ": 2228,
    "衆": 2229,
    "悉": 2230,
    "塔": 2231,
    "婆": 2232,
    "彫": 2233,
    "読": 2234,
    "滑": 2235,
    "稽": 2236,
    "丸": 2237,
    "石": 2238,
    "御": 2239,
    "碑": 2240,
    "黙": 2241,
    "死": 2242,
    "区": 2243,
    "杏": 2244,
    "隠": 2245,
    "梢": 2246,
    "綺": 2247,
    "麗": 2248,
    "木": 2249,
    "埋": 2250,
    "凸": 2251,
    "凹": 2252,
    "鍬": 2253,
    "街": 2254,
    "窮": 2255,
    "南": 2256,
    "坂": 2257,
    "繁": 2258,
    "玄": 2259,
    "静": 2260,
    "淋": 2261,
    "愛": 2262,
    "抱": 2263,
    "横": 2264,
    "眉": 2265,
    "瞬": 2266,
    "流": 2267,
    "臓": 2268,
    "潮": 2269,
    "鈍": 2270,
    "五": 2271,
    "弾": 2272,
    "雲": 2273,
    "忘": 2274,
    "春": 2275,
    "尽": 2276,
    "晩": 2277,
    "想": 2278,
    "坊": 2279,
    "供": 2280,
    "味": 2281,
    "迷": 2282,
    "惑": 2283,
    "畏": 2284,
    "怖": 2285,
    "片": 2286,
    "忽": 2287,
    "尊": 2288,
    "仲": 2289,
    "絶": 2290,
    "邪": 2291,
    "魔": 2292,
    "狭": 2293,
    "級": 2294,
    "頃": 2295,
    "郷": 2296,
    "座": 2297,
    "敷": 2298,
    "歳": 2299,
    "底": 2300,
    "押": 2301,
    "癪": 2302,
    "触": 2303,
    "根": 2304,
    "幸": 2305,
    "義": 2306,
    "食": 2307,
    "卓": 2308,
    "飯": 2309,
    "源": 2310,
    "因": 2311,
    "印": 2312,
    "象": 2313,
    "釈": 2314,
    "夫": 2315,
    "除": 2316,
    "酒": 2317,
    "酌": 2318,
    "呑": 2319,
    "干": 2320,
    "盃": 2321,
    "辞": 2322,
    "退": 2323,
    "唇": 2324,
    "滅": 2325,
    "婦": 2326,
    "試": 2327,
    "蠅": 2328,
    "貰": 2329,
    "天": 2330,
    "罰": 2331,
    "庭": 2332,
    "員": 2333,
    "暮": 2334,
    "坐": 2335,
    "襖": 2336,
    "甚": 2337,
    "芝": 2338,
    "居": 2339,
    "箱": 2340,
    "絵": 2341,
    "紅": 2342,
    "枚": 2343,
    "封": 2344,
    "柄": 2345,
    "頼": 2346,
    "尋": 2347,
    "格": 2348,
    "耳": 2349,
    "ぼ": 2350,
    "妙": 2351,
    "襲": 2352,
    "窓": 2353,
    "誘": 2354,
    "八": 2355,
    "袴": 2356,
    "麦": 2357,
    "乏": 2358,
    "酔": 2359,
    "冒": 2360,
    "険": 2361,
    "駄": 2362,
    "懸": 2363,
    "肴": 2364,
    "骨": 2365,
    "咽": 2366,
    "喉": 2367,
    "夜": 2368,
    "喧": 2369,
    "嘩": 2370,
    "昂": 2371,
    "承": 2372,
    "沈": 2373,
    "怒": 2374,
    "ぞ": 2375,
    "哀": 2376,
    "途": 2377,
    "丈": 2378,
    "弱": 2379,
    "閉": 2380,
    "曲": 2381,
    "早": 2382,
    "暖": 2383,
    "瀾": 2384,
    "洩": 2385,
    "訴": 2386,
    "句": 2387,
    "審": 2388,
    "葬": 2389,
    "帆": 2390,
    "汽": 2391,
    "船": 2392,
    "橋": 2393,
    "車": 2394,
    "諾": 2395,
    "束": 2396,
    "九": 2397,
    "礼": 2398,
    "敬": 2399,
    "惜": 2400,
    "謙": 2401,
    "遜": 2402,
    "評": 2403,
    "昔": 2404,
    "著": 2405,
    "捉": 2406,
    "批": 2407,
    "露": 2408,
    "矛": 2409,
    "盾": 2410,
    "云": 2411,
    "抗": 2412,
    "仕": 2413,
    "悲": 2414,
    "継": 2415,
    "勇": 2416,
    "勉": 2417,
    "健": 2418,
    "薄": 2419,
    "赤": 2420,
    "父": 2421,
    "鳥": 2422,
    "江": 2423,
    "市": 2424,
    "冗": 2425,
    "里": 2426,
    "操": 2427,
    "況": 2428,
    "善": 2429,
    "輩": 2430,
    "艶": 2431,
    "慎": 2432,
    "恋": 2433,
    "描": 2434,
    "劇": 2435,
    "惨": 2436,
    "破": 2437,
    "壊": 2438,
    "睦": 2439,
    "添": 2440,
    "峙": 2441,
    "沢": 2442,
    "驚": 2443,
    "嬉": 2444,
    "罪": 2445,
    "胸": 2446,
    "虚": 2447,
    "序": 2448,
    "貸": 2449,
    "危": 2450,
    "髪": 2451,
    "縛": 2452,
    "朦": 2453,
    "朧": 2454,
    "博": 2455,
    "鶯": 2456,
    "渓": 2457,
    "垣": 2458,
    "隙": 2459,
    "茂": 2460,
    "熊": 2461,
    "笹": 2462,
    "幽": 2463,
    "邃": 2464,
    "焦": 2465,
    "聖": 2466,
    "図": 2467,
    "講": 2468,
    "益": 2469,
    "肯": 2470,
    "熱": 2471,
    "椿": 2472,
    "魚": 2473,
    "売": 2474,
    "針": 2475,
    "呪": 2476,
    "辿": 2477,
    "余": 2478,
    "裕": 2479,
    "欺": 2480,
    "酷": 2481,
    "讐": 2482,
    "跪": 2483,
    "載": 2484,
    "未": 2485,
    "侮": 2486,
    "辱": 2487,
    "斥": 2488,
    "慢": 2489,
    "犠": 2490,
    "牲": 2491,
    "席": 2492,
    "焼": 2493,
    "却": 2494,
    "輪": 2495,
    "廓": 2496,
    "纏": 2497,
    "織": 2498,
    "峯": 2499,
    "蔽": 2500,
    "震": 2501,
    "件": 2502,
    "扉": 2503,
    "鍵": 2504,
    "妨": 2505,
    "詰": 2506,
    "秋": 2507,
    "寒": 2508,
    "季": 2509,
    "附": 2510,
    "罹": 2511,
    "四": 2512,
    "院": 2513,
    "奉": 2514,
    "職": 2515,
    "番": 2516,
    "灯": 2517,
    "帳": 2518,
    "机": 2519,
    "椅": 2520,
    "背": 2521,
    "硝": 2522,
    "燈": 2523,
    "鉢": 2524,
    "蒲": 2525,
    "団": 2526,
    "棟": 2527,
    "泥": 2528,
    "棒": 2529,
    "鹿": 2530,
    "爪": 2531,
    "控": 2532,
    "碗": 2533,
    "隅": 2534,
    "頂": 2535,
    "戴": 2536,
    "尾": 2537,
    "鉄": 2538,
    "瓶": 2539,
    "鳴": 2540,
    "菓": 2541,
    "馳": 2542,
    "走": 2543,
    "困": 2544,
    "胆": 2545,
    "嘘": 2546,
    "飽": 2547,
    "酬": 2548,
    "誇": 2549,
    "徒": 2550,
    "覗": 2551,
    "杯": 2552,
    "媚": 2553,
    "嬌": 2554,
    "叱": 2555,
    "緒": 2556,
    "忠": 2557,
    "惚": 2558,
    "旧": 2559,
    "迂": 2560,
    "闊": 2561,
    "憧": 2562,
    "憬": 2563,
    "夢": 2564,
    "漠": 2565,
    "臨": 2566,
    "撥": 2567,
    "均": 2568,
    "誠": 2569,
    "辛": 2570,
    "責": 2571,
    "任": 2572,
    "証": 2573,
    "灰": 2574,
    "掻": 2575,
    "馴": 2576,
    "改": 2577,
    "欠": 2578,
    "涙": 2579,
    "溜": 2580,
    "蟠": 2581,
    "厭": 2582,
    "良": 2583,
    "塊": 2584,
    "憐": 2585,
    "咄": 2586,
    "嗟": 2587,
    "吐": 2588,
    "唾": 2589,
    "液": 2590,
    "卒": 2591,
    "堪": 2592,
    "傾": 2593,
    "許": 2594,
    "慰": 2595,
    "攫": 2596,
    "漂": 2597,
    "縋": 2598,
    "靴": 2599,
    "迎": 2600,
    "毛": 2601,
    "輝": 2602,
    "労": 2603,
    "忙": 2604,
    "潰": 2605,
    "紙": 2606,
    "袂": 2607,
    "詳": 2608,
    "塗": 2609,
    "鳶": 2610,
    "頬": 2611,
    "竟": 2612,
    "冬": 2613,
    "服": 2614,
    "繻": 2615,
    "絆": 2616,
    "襟": 2617,
    "凌": 2618,
    "薬": 2619,
    "縫": 2620,
    "蔭": 2621,
    "倒": 2622,
    "偶": 2623,
    "腎": 2624,
    "養": 2625,
    "聴": 2626,
    "眩": 2627,
    "暈": 2628,
    "症": 2629,
    "溢": 2630,
    "嘗": 2631,
    "乞": 2632,
    "替": 2633,
    "臆": 2634,
    "劫": 2635,
    "稀": 2636,
    "徳": 2637,
    "盥": 2638,
    "吸": 2639,
    "申": 2640,
    "額": 2641,
    "箪": 2642,
    "笥": 2643,
    "嘔": 2644,
    "胡": 2645,
    "勢": 2646,
    "兄": 2647,
    "州": 2648,
    "万": 2649,
    "易": 2650,
    "妹": 2651,
    "借": 2652,
    "噂": 2653,
    "遥": 2654,
    "椎": 2655,
    "茸": 2656,
    "旨": 2657,
    "ぬ": 2658,
    "宛": 2659,
    "穏": 2660,
    "遣": 2661,
    "肩": 2662,
    "将": 2663,
    "碁": 2664,
    "盤": 2665,
    "炬": 2666,
    "燵": 2667,
    "櫓": 2668,
    "駒": 2669,
    "箸": 2670,
    "挟": 2671,
    "娯": 2672,
    "香": 2673,
    "握": 2674,
    "拳": 2675,
    "伸": 2676,
    "漲": 2677,
    "鼓": 2678,
    "零": 2679,
    "喰": 2680,
    "陳": 2681,
    "腐": 2682,
    "峠": 2683,
    "粗": 2684,
    "滞": 2685,
    "儒": 2686,
    "丹": 2687,
    "臭": 2688,
    "維": 2689,
    "招": 2690,
    "診": 2691,
    "松": 2692,
    "飾": 2693,
    "泊": 2694,
    "官": 2695,
    "看": 2696,
    "暴": 2697,
    "軍": 2698,
    "脆": 2699,
    "殺": 2700,
    "六": 2701,
    "材": 2702,
    "料": 2703,
    "蒐": 2704,
    "抑": 2705,
    "悩": 2706,
    "選": 2707,
    "択": 2708,
    "狼": 2709,
    "狽": 2710,
    "冊": 2711,
    "恥": 2712,
    "偉": 2713,
    "祟": 2714,
    "務": 2715,
    "漸": 2716,
    "据": 2717,
    "董": 2718,
    "掘": 2719,
    "梅": 2720,
    "咲": 2721,
    "桜": 2722,
    "馬": 2723,
    "鞭": 2724,
    "旬": 2725,
    "跨": 2726,
    "枝": 2727,
    "霞": 2728,
    "籠": 2729,
    "羽": 2730,
    "搏": 2731,
    "枳": 2732,
    "殻": 2733,
    "萌": 2734,
    "芽": 2735,
    "柘": 2736,
    "榴": 2737,
    "枯": 2738,
    "幹": 2739,
    "褐": 2740,
    "柔": 2741,
    "威": 2742,
    "喋": 2743,
    "拍": 2744,
    "循": 2745,
    "蘇": 2746,
    "郊": 2747,
    "※": 2748,
    "笛": 2749,
    "柱": 2750,
    "札": 2751,
    "園": 2752,
    "邸": 2753,
    "障": 2754,
    "飼": 2755,
    "躑": 2756,
    "躅": 2757,
    "燃": 2758,
    "樺": 2759,
    "霧": 2760,
    "芍": 2761,
    "坪": 2762,
    "透": 2763,
    "徹": 2764,
    "奪": 2765,
    "杉": 2766,
    "土": 2767,
    "財": 2768,
    "疲": 2769,
    "豊": 2770,
    "贅": 2771,
    "竹": 2772,
    "杖": 2773,
    "為": 2774,
    "蹟": 2775,
    "顫": 2776,
    "弟": 2777,
    "叔": 2778,
    "舎": 2779,
    "戚": 2780,
    "鋳": 2781,
    "油": 2782,
    "犬": 2783,
    "盛": 2784,
    "吠": 2785,
    "徽": 2786,
    "姉": 2787,
    "蟇": 2788,
    "銅": 2789,
    "怜": 2790,
    "悧": 2791,
    "候": 2792,
    "駈": 2793,
    "巻": 2794,
    "害": 2795,
    "鎖": 2796,
    "滴": 2797,
    "緑": 2798,
    "瞑": 2799,
    "永": 2800,
    "痕": 2801,
    "脂": 2802,
    "此": 2803,
    "汚": 2804,
    "致": 2805,
    "凡": 2806,
    "澄": 2807,
    "憎": 2808,
    "拝": 2809,
    "刈": 2810,
    "裾": 2811,
    "斜": 2812,
    "右": 2813,
    "揃": 2814,
    "豌": 2815,
    "豆": 2816,
    "蔓": 2817,
    "鶏": 2818,
    "擦": 2819,
    "漢": 2820,
    "藉": 2821,
    "展": 2822,
    "涯": 2823,
    "貧": 2824,
    "魂": 2825,
    "訐": 2826,
    "圧": 2827,
    "迫": 2828,
    "黴": 2829,
    "李": 2830,
    "厚": 2831,
    "羅": 2832,
    "紗": 2833,
    "裸": 2834,
    "穴": 2835,
    "餐": 2836,
    "糊": 2837,
    "硬": 2838,
    "布": 2839,
    "潔": 2840,
    "頓": 2841,
    "癇": 2842,
    "俗": 2843,
    "倫": 2844,
    "唆": 2845,
    "些": 2846,
    "汲": 2847,
    "給": 2848,
    "靠": 2849,
    "師": 2850,
    "碌": 2851,
    "凄": 2852,
    "貴": 2853,
    "尿": 2854,
    "助": 2855,
    "旦": 2856,
    "那": 2857,
    "煩": 2858,
    "寿": 2859,
    "扇": 2860,
    "踏": 2861,
    "犀": 2862,
    "塞": 2863,
    "陰": 2864,
    "買": 2865,
    "胃": 2866,
    "袋": 2867,
    "泡": 2868,
    "汗": 2869,
    "履": 2870,
    "籍": 2871,
    "棚": 2872,
    "僧": 2873,
    "悔": 2874,
    "品": 2875,
    "具": 2876,
    "ぴ": 2877,
    "嚇": 2878,
    "鞄": 2879,
    "到": 2880,
    "遺": 2881,
    "憾": 2882,
    "敢": 2883,
    "括": 2884,
    "祝": 2885,
    "尚": 2886,
    "詫": 2887,
    "俯": 2888,
    "愚": 2889,
    "隔": 2890,
    "宣": 2891,
    "髭": 2892,
    "剃": 2893,
    "免": 2894,
    "剣": 2895,
    "炊": 2896,
    "侍": 2897,
    "嫁": 2898,
    "敵": 2899,
    "拘": 2900,
    "治": 2901,
    "皇": 2902,
    "塵": 2903,
    "陛": 2904,
    "繙": 2905,
    "枕": 2906,
    "貪": 2907,
    "釜": 2908,
    "原": 2909,
    "稿": 2910,
    "綴": 2911,
    "恰": 2912,
    "棋": 2913,
    "勿": 2914,
    "斃": 2915,
    "煤": 2916,
    "七": 2917,
    "悠": 2918,
    "救": 2919,
    "崩": 2920,
    "旗": 2921,
    "竿": 2922,
    "球": 2923,
    "寸": 2924,
    "雨": 2925,
    "裁": 2926,
    "趣": 2927,
    "渦": 2928,
    "捲": 2929,
    "裂": 2930,
    "屑": 2931,
    "朋": 2932,
    "譲": 2933,
    "渋": 2934,
    "拠": 2935,
    "距": 2936,
    "願": 2937,
    "旋": 2938,
    "諷": 2939,
    "修": 2940,
    "育": 2941,
    "痴": 2942,
    "孤": 2943,
    "伽": 2944,
    "堂": 2945,
    "努": 2946,
    "僅": 2947,
    "煮": 2948,
    "蝉": 2949,
    "愁": 2950,
    "虫": 2951,
    "夕": 2952,
    "呂": 2953,
    "揉": 2954,
    "敏": 2955,
    "堅": 2956,
    "縄": 2957,
    "悶": 2958,
    "酸": 2959,
    "餅": 2960,
    "噛": 2961,
    "渇": 2962,
    "逼": 2963,
    "癒": 2964,
    "吃": 2965,
    "舌": 2966,
    "瘠": 2967,
    "妊": 2968,
    "臥": 2969,
    "陥": 2970,
    "埒": 2971,
    "慥": 2972,
    "孝": 2973,
    "措": 2974,
    "猶": 2975,
    "久": 2976,
    "乃": 2977,
    "眠": 2978,
    "浣": 2979,
    "腸": 2980,
    "忌": 2981,
    "泄": 2982,
    "鞘": 2983,
    "納": 2984,
    "釣": 2985,
    "曖": 2986,
    "昧": 2987,
    "唸": 2988,
    "忍": 2989,
    "蚊": 2990,
    "泣": 2991,
    "湧": 2992,
    "吻": 2993,
    "才": 2994,
    "瞭": 2995,
    "催": 2996,
    "促": 2997,
    "瀕": 2998,
    "祈": 2999,
    "監": 3000,
    "嗅": 3001,
    "朽": 3002,
    "囈": 3003,
    "頻": 3004,
    "箒": 3005,
    "闇": 3006,
    "糸": 3007,
    "昏": 3008,
    "睡": 3009,
    "篤": 3010,
    "氷": 3011,
    "嚢": 3012,
    "廊": 3013,
    "貼": 3014,
    "厠": 3015,
    "偸": 3016,
    "繊": 3017,
    "縦": 3018,
    "罫": 3019,
    "儀": 3020,
    "剥": 3021,
    "枠": 3022,
    "篏": 3023,
    "停": 3024,
    "壁": 3025,
    "鉛": 3026,
    "卑": 3027,
    "怯": 3028,
    "藻": 3029,
    "瞥": 3030,
    "躾": 3031,
    "弄": 3032,
    "髄": 3033,
    "擲": 3034,
    "遂": 3035,
    "渉": 3036,
    "鋭": 3037,
    "擱": 3038,
    "千": 3039,
    "捕": 3040,
    "啜": 3041,
    "廿": 3042,
    "窒": 3043,
    "扶": 3044,
    "斯": 3045,
    "鷹": 3046,
    "揚": 3047,
    "茫": 3048,
    "褒": 3049,
    "劃": 3050,
    "伐": 3051,
    "羨": 3052,
    "謝": 3053,
    "党": 3054,
    "祖": 3055,
    "詩": 3056,
    "炉": 3057,
    "嗜": 3058,
    "紳": 3059,
    "闘": 3060,
    "歴": 3061,
    "史": 3062,
    "界": 3063,
    "隈": 3064,
    "条": 3065,
    "兼": 3066,
    "絡": 3067,
    "匂": 3068,
    "娘": 3069,
    "公": 3070,
    "衍": 3071,
    "焚": 3072,
    "刹": 3073,
    "衝": 3074,
    "麻": 3075,
    "痺": 3076,
    "諺": 3077,
    "拒": 3078,
    "蛇": 3079,
    "商": 3080,
    "悼": 3081,
    "掌": 3082,
    "叫": 3083,
    "盲": 3084,
    "準": 3085,
    "妾": 3086,
    "怪": 3087,
    "敗": 3088,
    "猜": 3089,
    "顛": 3090,
    "策": 3091,
    "沙": 3092,
    "汰": 3093,
    "訟": 3094,
    "誓": 3095,
    "債": 3096,
    "川": 3097,
    "砲": 3098,
    "廠": 3099,
    "塀": 3100,
    "崖": 3101,
    "北": 3102,
    "諦": 3103,
    "戦": 3104,
    "争": 3105,
    "厩": 3106,
    "紹": 3107,
    "即": 3108,
    "派": 3109,
    "琴": 3110,
    "煎": 3111,
    "唐": 3112,
    "掠": 3113,
    "嬢": 3114,
    "采": 3115,
    "則": 3116,
    "凋": 3117,
    "唄": 3118,
    "隣": 3119,
    "戒": 3120,
    "尖": 3121,
    "寛": 3122,
    "猫": 3123,
    "勤": 3124,
    "俸": 3125,
    "僻": 3126,
    "殖": 3127,
    "浚": 3128,
    "迹": 3129,
    "偽": 3130,
    "縊": 3131,
    "宗": 3132,
    "綜": 3133,
    "富": 3134,
    "殊": 3135,
    "罵": 3136,
    "浸": 3137,
    "冥": 3138,
    "耽": 3139,
    "燥": 3140,
    "権": 3141,
    "嘲": 3142,
    "綿": 3143,
    "絹": 3144,
    "津": 3145,
    "溝": 3146,
    "髯": 3147,
    "奴": 3148,
    "隷": 3149,
    "粉": 3150,
    "竪": 3151,
    "戯": 3152,
    "截": 3153,
    "聟": 3154,
    "尺": 3155,
    "緩": 3156,
    "Ｋ": 3157,
    "檀": 3158,
    "簿": 3159,
    "姓": 3160,
    "檻": 3161,
    "睨": 3162,
    "睥": 3163,
    "哲": 3164,
    "貫": 3165,
    "賛": 3166,
    "頸": 3167,
    "珠": 3168,
    "粒": 3169,
    "督": 3170,
    "訊": 3171,
    "墳": 3172,
    "欝": 3173,
    "逢": 3174,
    "詐": 3175,
    "騙": 3176,
    "翰": 3177,
    "劣": 3178,
    "妥": 3179,
    "協": 3180,
    "拱": 3181,
    "補": 3182,
    "猛": 3183,
    "融": 3184,
    "償": 3185,
    "侶": 3186,
    "武": 3187,
    "嗣": 3188,
    "歯": 3189,
    "厄": 3190,
    "溺": 3191,
    "伏": 3192,
    "湿": 3193,
    "喬": 3194,
    "撻": 3195,
    "霊": 3196,
    "溶": 3197,
    "耐": 3198,
    "粥": 3199,
    "営": 3200,
    "艱": 3201,
    "功": 3202,
    "邂": 3203,
    "逅": 3204,
    "砕": 3205,
    "錆": 3206,
    "把": 3207,
    "繕": 3208,
    "曝": 3209,
    "城": 3210,
    "悦": 3211,
    "攻": 3212,
    "編": 3213,
    "紐": 3214,
    "疳": 3215,
    "膜": 3216,
    "膳": 3217,
    "板": 3218,
    "華": 3219,
    "奢": 3220,
    "ボ": 3221,
    "唯": 3222,
    "嫉": 3223,
    "妬": 3224,
    "涼": 3225,
    "房": 3226,
    "漁": 3227,
    "浦": 3228,
    "沿": 3229,
    "岩": 3230,
    "鮮": 3231,
    "歌": 3232,
    "吟": 3233,
    "蛮": 3234,
    "甲": 3235,
    "斐": 3236,
    "漆": 3237,
    "貌": 3238,
    "鼻": 3239,
    "漬": 3240,
    "倦": 3241,
    "怠": 3242,
    "銚": 3243,
    "湊": 3244,
    "鯛": 3245,
    "蓮": 3246,
    "舟": 3247,
    "傭": 3248,
    "紫": 3249,
    "誕": 3250,
    "菅": 3251,
    "笠": 3252,
    "垢": 3253,
    "拙": 3254,
    "駁": 3255,
    "英": 3256,
    "雄": 3257,
    "豪": 3258,
    "傑": 3259,
    "虐": 3260,
    "恨": 3261,
    "創": 3262,
    "蒸": 3263,
    "惰": 3264,
    "栄": 3265,
    "奏": 3266,
    "器": 3267,
    "捌": 3268,
    "套": 3269,
    "蒟": 3270,
    "蒻": 3271,
    "閻": 3272,
    "炭": 3273,
    "翳": 3274,
    "佗": 3275,
    "歇": 3276,
    "柳": 3277,
    "廂": 3278,
    "糠": 3279,
    "巧": 3280,
    "傚": 3281,
    "呉": 3282,
    "竦": 3283,
    "肱": 3284,
    "顋": 3285,
    "如": 3286,
    "腋": 3287,
    "襯": 3288,
    "滲": 3289,
    "咀": 3290,
    "嚼": 3291,
    "募": 3292,
    "俥": 3293,
    "瞼": 3294,
    "蕎": 3295,
    "項": 3296,
    "竜": 3297,
    "岡": 3298,
    "池": 3299,
    "淵": 3300,
    "悄": 3301,
    "糺": 3302,
    "管": 3303,
    "彷": 3304,
    "徨": 3305,
    "粛": 3306,
    "羞": 3307,
    "禁": 3308,
    "摂": 3309,
    "窘": 3310,
    "羊": 3311,
    "萎": 3312,
    "頗": 3313,
    "霜": 3314,
    "聳": 3315,
    "醒": 3316,
    "熾": 3317,
    "宵": 3318,
    "熟": 3319,
    "懊": 3320,
    "揮": 3321,
    "覘": 3322,
    "椀": 3323,
    "嚮": 3324,
    "摺": 3325,
    "菊": 3326,
    "只": 3327,
    "厘": 3328,
    "赧": 3329,
    "慄": 3330,
    "屹": 3331,
    "疾": 3332,
    "迸": 3333,
    "跟": 3334,
    "懺": 3335,
    "掃": 3336,
    "骸": 3337,
    "撲": 3338,
    "潤": 3339,
    "妄": 3340,
    "箇": 3341,
    "随": 3342,
    "撫": 3343,
    "脅": 3344,
    "赦": 3345,
    "逐": 3346,
    "爛": 3347,
    "鬱": 3348,
    "閃": 3349,
    "痒": 3350,
    "牢": 3351,
    "荒": 3352,
    "憫": 3353,
    "殉": 3354,
    "刀": 3355,
    "叙": 3356,
    "邯": 3357,
    "鄲": 3358,
    "秘": 3359,
    "庫": 3360,
    "刷": 3361,
    "漱": 3362,
    "吾": 3363,
    "缶": 3364,
    "ぷ": 3365,
    "煙": 3366,
    "疋": 3367,
    "這": 3368,
    "餓": 3369,
    "遭": 3370,
    "抛": 3371,
    "痞": 3372,
    "撚": 3373,
    "涎": 3374,
    "溌": 3375,
    "櫃": 3376,
    "椽": 3377,
    "ぺ": 3378,
    "叩": 3379,
    "儘": 3380,
    "衾": 3381,
    "磨": 3382,
    "剿": 3383,
    "憤": 3384,
    "慨": 3385,
    "鰡": 3386,
    "臍": 3387,
    "俳": 3388,
    "星": 3389,
    "弓": 3390,
    "謡": 3391,
    "架": 3392,
    "渾": 3393,
    "写": 3394,
    "揶": 3395,
    "揄": 3396,
    "斑": 3397,
    "瀟": 3398,
    "洒": 3399,
    "浩": 3400,
    "鼾": 3401,
    "窃": 3402,
    "炎": 3403,
    "王": 3404,
    "嘆": 3405,
    "佇": 3406,
    "梧": 3407,
    "桐": 3408,
    "琥": 3409,
    "珀": 3410,
    "眸": 3411,
    "矮": 3412,
    "挫": 3413,
    "焔": 3414,
    "盟": 3415,
    "鼠": 3416,
    "匹": 3417,
    "智": 3418,
    "謹": 3419,
    "濁": 3420,
    "墻": 3421,
    "吶": 3422,
    "喊": 3423,
    "槌": 3424,
    "亭": 3425,
    "畜": 3426,
    "喝": 3427,
    "屁": 3428,
    "肥": 3429,
    "呈": 3430,
    "稼": 3431,
    "壱": 3432,
    "儲": 3433,
    "窟": 3434,
    "○": 3435,
    "蕩": 3436,
    "芸": 3437,
    "於": 3438,
    "廉": 3439,
    "欄": 3440,
    "裡": 3441,
    "謂": 3442,
    "劈": 3443,
    "鱈": 3444,
    "捏": 3445,
    "毫": 3446,
    "饒": 3447,
    "挑": 3448,
    "革": 3449,
    "鬼": 3450,
    "褪": 3451,
    "秤": 3452,
    "懲": 3453,
    "脚": 3454,
    "幼": 3455,
    "稚": 3456,
    "唱": 3457,
    "毬": 3458,
    "跛": 3459,
    "某": 3460,
    "蹲": 3461,
    "踞": 3462,
    "紛": 3463,
    "肖": 3464,
    "糟": 3465,
    "牛": 3466,
    "糞": 3467,
    "按": 3468,
    "牡": 3469,
    "蠣": 3470,
    "征": 3471,
    "舶": 3472,
    "墨": 3473,
    "濶": 3474,
    "捻": 3475,
    "恭": 3476,
    "賀": 3477,
    "乍": 3478,
    "施": 3479,
    "謎": 3480,
    "紋": 3481,
    "袖": 3482,
    "爺": 3483,
    "挺": 3484,
    "巌": 3485,
    "鉾": 3486,
    "紬": 3487,
    "桃": 3488,
    "燕": 3489,
    "麺": 3490,
    "麭": 3491,
    "糖": 3492,
    "壺": 3493,
    "匙": 3494,
    "皿": 3495,
    "堆": 3496,
    "慧": 3497,
    "甞": 3498,
    "就": 3499,
    "汁": 3500,
    "澱": 3501,
    "召": 3502,
    "頑": 3503,
    "ゅ": 3504,
    "盆": 3505,
    "是": 3506,
    "披": 3507,
    "宝": 3508,
    "鴉": 3509,
    "皺": 3510,
    "屎": 3511,
    "廃": 3512,
    "△": 3513,
    "涸": 3514,
    "療": 3515,
    "摩": 3516,
    "Ａ": 3517,
    "乳": 3518,
    "Ｂ": 3519,
    "氏": 3520,
    "膈": 3521,
    "Ｃ": 3522,
    "痩": 3523,
    "晰": 3524,
    "秩": 3525,
    "絃": 3526,
    "匠": 3527,
    "庵": 3528,
    "蘭": 3529,
    "巴": 3530,
    "Ｚ": 3531,
    "剰": 3532,
    "膠": 3533,
    "菜": 3534,
    "兎": 3535,
    "！": 3536,
    "沼": 3537,
    "之": 3538,
    "祐": 3539,
    "享": 3540,
    "踊": 3541,
    "緬": 3542,
    "既": 3543,
    "醜": 3544,
    "莫": 3545,
    "憂": 3546,
    "鵞": 3547,
    "恍": 3548,
    "鈴": 3549,
    "粧": 3550,
    "欣": 3551,
    "孔": 3552,
    "姫": 3553,
    "璋": 3554,
    "甥": 3555,
    "仁": 3556,
    "衛": 3557,
    "乙": 3558,
    "蒙": 3559,
    "詈": 3560,
    "鮭": 3561,
    "詞": 3562,
    "辟": 3563,
    "斤": 3564,
    "寂": 3565,
    "寞": 3566,
    "誂": 3567,
    "阿": 3568,
    "潜": 3569,
    "慶": 3570,
    "蛙": 3571,
    "仙": 3572,
    "訂": 3573,
    "橡": 3574,
    "浄": 3575,
    "瑠": 3576,
    "璃": 3577,
    "叮": 3578,
    "嚀": 3579,
    "藪": 3580,
    "謬": 3581,
    "窺": 3582,
    "朗": 3583,
    "登": 3584,
    "魁": 3585,
    "娼": 3586,
    "婢": 3587,
    "弔": 3588,
    "署": 3589,
    "捺": 3590,
    "謀": 3591,
    "叛": 3592,
    "其": 3593,
    "罷": 3594,
    "曾": 3595,
    "爵": 3596,
    "宴": 3597,
    "又": 3598,
    "幕": 3599,
    "趨": 3600,
    "宥": 3601,
    "恕": 3602,
    "厨": 3603,
    "雀": 3604,
    "啖": 3605,
    "獲": 3606,
    "抔": 3607,
    "砌": 3608,
    "諒": 3609,
    "紀": 3610,
    "迄": 3611,
    "欧": 3612,
    "饗": 3613,
    "饌": 3614,
    "醸": 3615,
    "滋": 3616,
    "嚥": 3617,
    "民": 3618,
    "患": 3619,
    "禍": 3620,
    "逸": 3621,
    "擅": 3622,
    "諸": 3623,
    "猟": 3624,
    "匆": 3625,
    "磁": 3626,
    "苛": 3627,
    "咳": 3628,
    "肺": 3629,
    "嗽": 3630,
    "楊": 3631,
    "冤": 3632,
    "討": 3633,
    "螺": 3634,
    "禅": 3635,
    "誡": 3636,
    "伎": 3637,
    "倆": 3638,
    "韻": 3639,
    "撰": 3640,
    "叉": 3641,
    "宮": 3642,
    "俎": 3643,
    "挿": 3644,
    "捨": 3645,
    "煖": 3646,
    "壇": 3647,
    "亜": 3648,
    "濠": 3649,
    "迅": 3650,
    "鴻": 3651,
    "鐘": 3652,
    "蹴": 3653,
    "撓": 3654,
    "佳": 3655,
    "副": 3656,
    "也": 3657,
    "携": 3658,
    "犯": 3659,
    "剤": 3660,
    "倚": 3661,
    "幌": 3662,
    "悸": 3663,
    "掾": 3664,
    "鰻": 3665,
    "堀": 3666,
    "註": 3667,
    "叶": 3668,
    "薪": 3669,
    "堵": 3670,
    "鹸": 3671,
    "瓜": 3672,
    "娑": 3673,
    "慾": 3674,
    "競": 3675,
    "曙": 3676,
    "牌": 3677,
    "誉": 3678,
    "弥": 3679,
    "陀": 3680,
    "蓋": 3681,
    "桂": 3682,
    "楼": 3683,
    "瞎": 3684,
    "吉": 3685,
    "糾": 3686,
    "雌": 3687,
    "硯": 3688,
    "卸": 3689,
    "穂": 3690,
    "併": 3691,
    "鑼": 3692,
    "舐": 3693,
    "粘": 3694,
    "芋": 3695,
    "抹": 3696,
    "誅": 3697,
    "銘": 3698,
    "噫": 3699,
    "飄": 3700,
    "袈": 3701,
    "裟": 3702,
    "童": 3703,
    "崎": 3704,
    "雅": 3705,
    "蒔": 3706,
    "宙": 3707,
    "災": 3708,
    "憮": 3709,
    "削": 3710,
    "樽": 3711,
    "矢": 3712,
    "逝": 3713,
    "瓢": 3714,
    "堤": 3715,
    "乾": 3716,
    "請": 3717,
    "絞": 3718,
    "刑": 3719,
    "溯": 3720,
    "獣": 3721,
    "餌": 3722,
    "斬": 3723,
    "釘": 3724,
    "磔": 3725,
    "但": 3726,
    "咎": 3727,
    "臘": 3728,
    "衒": 3729,
    "援": 3730,
    "簾": 3731,
    "ゾ": 3732,
    "α": 3733,
    "１": 3734,
    "２": 3735,
    "６": 3736,
    "Ｔ": 3737,
    "做": 3738,
    "７": 3739,
    "＝": 3740,
    "Ｘ": 3741,
    "Ｗ": 3742,
    "兇": 3743,
    "脊": 3744,
    "嘯": 3745,
    "泉": 3746,
    "岳": 3747,
    "桶": 3748,
    "鯨": 3749,
    "牧": 3750,
    "卦": 3751,
    "俵": 3752,
    "狐": 3753,
    "環": 3754,
    "嵌": 3755,
    "呆": 3756,
    "瘧": 3757,
    "愕": 3758,
    "箍": 3759,
    "枴": 3760,
    "譫": 3761,
    "訝": 3762,
    "栗": 3763,
    "填": 3764,
    "狸": 3765,
    "暦": 3766,
    "曰": 3767,
    "琵": 3768,
    "琶": 3769,
    "噺": 3770,
    "倶": 3771,
    "怺": 3772,
    "央": 3773,
    "陣": 3774,
    "剋": 3775,
    "讒": 3776,
    "齢": 3777,
    "髷": 3778,
    "庶": 3779,
    "克": 3780,
    "捷": 3781,
    "翁": 3782,
    "棺": 3783,
    "賃": 3784,
    "朱": 3785,
    "偵": 3786,
    "尠": 3787,
    "寓": 3788,
    "侠": 3789,
    "躁": 3790,
    "庸": 3791,
    "雇": 3792,
    "妖": 3793,
    "傲": 3794,
    "築": 3795,
    "磬": 3796,
    "洞": 3797,
    "瑟": 3798,
    "醍": 3799,
    "醐": 3800,
    "詮": 3801,
    "掉": 3802,
    "祇": 3803,
    "哉": 3804,
    "祭": 3805,
    "鶉": 3806,
    "贔": 3807,
    "屓": 3808,
    "狆": 3809,
    "託": 3810,
    "蜂": 3811,
    "巣": 3812,
    "葵": 3813,
    "筌": 3814,
    "瀝": 3815,
    "佯": 3816,
    "抓": 3817,
    "隆": 3818,
    "賓": 3819,
    "顱": 3820,
    "薫": 3821,
    "喩": 3822,
    "梁": 3823,
    "峻": 3824,
    "嶮": 3825,
    "衡": 3826,
    "鞍": 3827,
    "兀": 3828,
    "奈": 3829,
    "颯": 3830,
    "爽": 3831,
    "筵": 3832,
    "律": 3833,
    "繹": 3834,
    "陪": 3835,
    "鱗": 3836,
    "冠": 3837,
    "弊": 3838,
    "鰹": 3839,
    "痙": 3840,
    "攣": 3841,
    "賤": 3842,
    "覆": 3843,
    "拗": 3844,
    "賢": 3845,
    "杭": 3846,
    "坦": 3847,
    "鮪": 3848,
    "禿": 3849,
    "剖": 3850,
    "顎": 3851,
    "逞": 3852,
    "尨": 3853,
    "嵐": 3854,
    "跣": 3855,
    "梃": 3856,
    "俺": 3857,
    "尼": 3858,
    "鑑": 3859,
    "詣": 3860,
    "諭": 3861,
    "雪": 3862,
    "陋": 3863,
    "僭": 3864,
    "ヵ": 3865,
    "麩": 3866,
    "苔": 3867,
    "卵": 3868,
    "靡": 3869,
    "偕": 3870,
    "契": 3871,
    "瞳": 3872,
    "箔": 3873,
    "鍮": 3874,
    "喚": 3875,
    "鳩": 3876,
    "聯": 3877,
    "跡": 3878,
    "菴": 3879,
    "贋": 3880,
    "猪": 3881,
    "縷": 3882,
    "没": 3883,
    "眤": 3884,
    "狎": 3885,
    "羹": 3886,
    "烏": 3887,
    "僥": 3888,
    "倖": 3889,
    "褌": 3890,
    "殿": 3891,
    "鶴": 3892,
    "辰": 3893,
    "帖": 3894,
    "賭": 3895,
    "啻": 3896,
    "軟": 3897,
    "秀": 3898,
    "崇": 3899,
    "奨": 3900,
    "励": 3901,
    "牙": 3902,
    "逍": 3903,
    "膺": 3904,
    "幣": 3905,
    "珊": 3906,
    "爆": 3907,
    "聡": 3908,
    "婪": 3909,
    "豚": 3910,
    "捗": 3911,
    "寡": 3912,
    "匕": 3913,
    "禦": 3914,
    "ヌ": 3915,
    "矯": 3916,
    "企": 3917,
    "鮑": 3918,
    "貝": 3919,
    "諧": 3920,
    "宇": 3921,
    "蚯": 3922,
    "蚓": 3923,
    "窶": 3924,
    "慕": 3925,
    "拇": 3926,
    "軋": 3927,
    "淑": 3928,
    "闖": 3929,
    "囓": 3930,
    "凱": 3931,
    "蹶": 3932,
    "啣": 3933,
    "桟": 3934,
    "耶": 3935,
    "耗": 3936,
    "杓": 3937,
    "弘": 3938,
    "貨": 3939,
    "脛": 3940,
    "癬": 3941,
    "膨": 3942,
    "拡": 3943,
    "繞": 3944,
    "巡": 3945,
    "査": 3946,
    "賊": 3947,
    "河": 3948,
    "鉱": 3949,
    "廬": 3950,
    "訛": 3951,
    "径": 3952,
    "眷": 3953,
    "狡": 3954,
    "猾": 3955,
    "鍋": 3956,
    "葱": 3957,
    "銷": 3958,
    "袷": 3959,
    "貯": 3960,
    "裘": 3961,
    "逡": 3962,
    "旻": 3963,
    "蠢": 3964,
    "蔦": 3965,
    "躄": 3966,
    "穀": 3967,
    "誹": 3968,
    "謗": 3969,
    "俚": 3970,
    "陲": 3971,
    "邁": 3972,
    "虎": 3973,
    "雁": 3974,
    "擒": 3975,
    "雛": 3976,
    "壮": 3977,
    "艦": 3978,
    "隊": 3979,
    "峡": 3980,
    "閣": 3981,
    "竈": 3982,
    "奔": 3983,
    "愾": 3984,
    "庇": 3985,
    "遶": 3986,
    "甕": 3987,
    "炯": 3988,
    "蚕": 3989,
    "櫛": 3990,
    "鋸": 3991,
    "齷": 3992,
    "齪": 3993,
    "薩": 3994,
    "瓦": 3995,
    "蟹": 3996,
    "鍛": 3997,
    "冶": 3998,
    "鳳": 3999,
    "鍔": 4000,
    "蓆": 4001,
    "鋏": 4002,
    "刃": 4003,
    "鋲": 4004,
    "錐": 4005,
    "笊": 4006,
    "巫": 4007,
    "饂": 4008,
    "飩": 4009,
    "簀": 4010,
    "嵩": 4011,
    "敲": 4012,
    "林": 4013,
    "檎": 4014,
    "苺": 4015,
    "郡": 4016,
    "筍": 4017,
    "蛸": 4018,
    "蝋": 4019,
    "燭": 4020,
    "蝗": 4021,
    "脇": 4022,
    "筧": 4023,
    "鬘": 4024,
    "轡": 4025,
    "唖": 4026,
    "堕": 4027,
    "茄": 4028,
    "伊": 4029,
    "蔵": 4030,
    "凭": 4031,
    "泰": 4032,
    "慈": 4033,
    "筒": 4034,
    "暁": 4035,
    "豁": 4036,
    "H": 4037,
    "騎": 4038,
    "緞": 4039,
    "榊": 4040,
    "漕": 4041,
    "庁": 4042,
    "綾": 4043,
    "秒": 4044,
    "捧": 4045,
    "篇": 4046,
    "狗": 4047,
    "杳": 4048,
    "詠": 4049,
    "蟷": 4050,
    "螂": 4051,
    "輓": 4052,
    "薨": 4053,
    "渺": 4054,
    "顕": 4055,
    "〇": 4056,
    "濤": 4057,
    "隲": 4058,
    "狩": 4059,
    "仆": 4060,
    "綻": 4061,
    "蟻": 4062,
    "孫": 4063,
    "甸": 4064,
    "綱": 4065,
    "甜": 4066,
    "磐": 4067,
    "呵": 4068,
    "鵯": 4069,
    "嘴": 4070,
    "逗": 4071,
    "啓": 4072,
    "鋒": 4073,
    "膏": 4074,
    "蚤": 4075,
    "俄": 4076,
    "豹": 4077,
    "雷": 4078,
    "夭": 4079,
    "囃": 4080,
    "設": 4081,
    "伍": 4082,
    "舂": 4083,
    "淫": 4084,
    "洲": 4085,
    "帝": 4086,
    "杢": 4087,
    "億": 4088,
    "槽": 4089,
    "瑩": 4090,
    "攪": 4091,
    "疝": 4092,
    "蟒": 4093,
    "竣": 4094,
    "箆": 4095,
    "煉": 4096,
    "絽": 4097,
    "腫": 4098,
    "膿": 4099,
    "醋": 4100,
    "炙": 4101,
    "魅": 4102,
    "縺": 4103,
    "憺": 4104,
    "喘": 4105,
    "闔": 4106,
    "蝎": 4107,
    "孑": 4108,
    "惟": 4109,
    "痢": 4110,
    "檜": 4111,
    "蓊": 4112,
    "湖": 4113,
    "税": 4114,
    "鉤": 4115,
    "譚": 4116,
    "亀": 4117,
    "駱": 4118,
    "駝": 4119,
    "瘤": 4120,
    "獄": 4121,
    "囚": 4122,
    "恃": 4123,
    "踰": 4124,
    "虞": 4125,
    "弋": 4126,
    "膃": 4127,
    "肭": 4128,
    "徘": 4129,
    "徊": 4130,
    "扁": 4131,
    "鵲": 4132,
    "肢": 4133,
    "升": 4134,
    "衲": 4135,
    "瞞": 4136,
    "鴨": 4137,
    "柿": 4138,
    "葡": 4139,
    "萄": 4140,
    "竇": 4141,
    "擂": 4142,
    "柑": 4143,
    "鷲": 4144,
    "睹": 4145,
    "蕪": 4146,
    "倔": 4147,
    "侵": 4148,
    "騰": 4149,
    "拮": 4150,
    "匝": 4151,
    "曹": 4152,
    "陵": 4153,
    "仔": 4154,
    "獅": 4155,
    "埼": 4156,
    "臣": 4157,
    "弩": 4158,
    "瑣": 4159,
    "韓": 4160,
    "薔": 4161,
    "薇": 4162,
    "驢": 4163,
    "丼": 4164,
    "賄": 4165,
    "賂": 4166,
    "稟": 4167,
    "薯": 4168,
    "滔": 4169,
    "隧": 4170,
    "挽": 4171,
    "葛": 4172,
    "痘": 4173,
    "疱": 4174,
    "瘡": 4175,
    "噴": 4176,
    "喇": 4177,
    "叭": 4178,
    "跏": 4179,
    "蝕": 4180,
    "蛍": 4181,
    "甎": 4182,
    "稲": 4183,
    "蠧": 4184,
    "鵜": 4185,
    "楷": 4186,
    "梯": 4187,
    "沌": 4188,
    "窩": 4189,
    "胎": 4190,
    "晦": 4191,
    "溷": 4192,
    "溟": 4193,
    "濛": 4194,
    "腔": 4195,
    "凶": 4196,
    "捐": 4197,
    "飴": 4198,
    "陌": 4199,
    "什": 4200,
    "麼": 4201,
    "喫": 4202,
    "鸞": 4203,
    "酢": 4204,
    "噌": 4205,
    "汝": 4206,
    "蹣": 4207,
    "跚": 4208,
    "怫": 4209,
    "旁": 4210,
    "淀": 4211,
    "滄": 4212,
    "桑": 4213,
    "兜": 4214,
    "楠": 4215,
    "而": 4216,
    "綯": 4217,
    "孟": 4218,
    "邵": 4219,
    "蝦": 4220,
    "蟆": 4221,
    "茎": 4222,
    "峭": 4223,
    "轄": 4224,
    "乎": 4225,
    "瘋": 4226,
    "癲": 4227,
    "宰": 4228,
    "卜": 4229,
    "漿": 4230,
    "勺": 4231,
    "鎬": 4232,
    "濫": 4233,
    "煢": 4234,
    "朔": 4235,
    "闃": 4236,
    "沸": 4237,
    "聾": 4238,
    "胚": 4239,
    "昌": 4240,
    "禄": 4241,
    "夥": 4242,
    "刎": 4243,
    "卿": 4244,
    "県": 4245,
    "欅": 4246,
    "委": 4247,
    "罎": 4248,
    "琉": 4249,
    "陶": 4250,
    "掬": 4251,
    "踵": 4252,
    "蝙": 4253,
    "蝠": 4254,
    "賺": 4255,
    "辻": 4256,
    "畸": 4257,
    "姑": 4258,
    "屠": 4259,
    "還": 4260,
    "潸": 4261,
    "灼": 4262,
    "炳": 4263,
    "襦": 4264,
    "袢": 4265,
    "箝": 4266,
    "聚": 4267,
    "苟": 4268,
    "毀": 4269,
    "嚆": 4270,
    "鏘": 4271,
    "函": 4272,
    "賦": 4273,
    "矚": 4274,
    "仇": 4275,
    "魑": 4276,
    "訣": 4277,
    "滝": 4278,
    "岫": 4279,
    "冉": 4280,
    "幡": 4281,
    "輸": 4282,
    "贏": 4283,
    "朴": 4284,
    "蜜": 4285,
    "旺": 4286,
    "峰": 4287,
    "羣": 4288,
    "楚": 4289,
    "喟": 4290,
    "拓": 4291,
    "吊": 4292,
    "譴": 4293,
    "枉": 4294,
    "蝸": 4295,
    "釦": 4296,
    "嶺": 4297,
    "菩": 4298,
    "庚": 4299,
    "麓": 4300,
    "梵": 4301,
    "哇": 4302,
    "鯱": 4303,
    "餞": 4304,
    "槿": 4305,
    "哄": 4306,
    "姥": 4307,
    "疵": 4308,
    "樟": 4309,
    "採": 4310,
    "皎": 4311,
    "冽": 4312,
    "晶": 4313,
    "坤": 4314,
    "糅": 4315,
    "酎": 4316,
    "肋": 4317,
    "嫦": 4318,
    "娥": 4319,
    "暫": 4320,
    "掲": 4321,
    "鴛": 4322,
    "鴦": 4323,
    "咏": 4324,
    "愧": 4325,
    "謁": 4326,
    "廷": 4327,
    "嫻": 4328,
    "錬": 4329,
    "嶄": 4330,
    "沫": 4331,
    "幻": 4332,
    "焉": 4333,
    "鵬": 4334,
    "撞": 4335,
    "遷": 4336,
    "槍": 4337,
    "棲": 4338,
    "覩": 4339,
    "悖": 4340,
    "姻": 4341,
    "怨": 4342,
    "翕": 4343,
    "貞": 4344,
    "娶": 4345,
    "憊": 4346,
    "艘": 4347,
    "埃": 4348,
    "譜": 4349,
    "姪": 4350,
    "栓": 4351,
    "媒": 4352,
    "蘋": 4353,
    "蓼": 4354,
    "晒": 4355,
    "拷": 4356,
    "韲": 4357
  },
  "next_id": 4358,
  "merges": [
    [
      "ッ",
      "ト"
    ],
    [
      "で",
      "す"
    ],
    [
      "ュ",
      "ー"
    ],
    [
      "ネ",
      "ット"
    ],
    [
      "ニ",
      "ュー"
    ],
    [
      "ワ",
      "ー"
    ],
    [
      "ワー",
      "ク"
    ],
    [
      "ネット",
      "ワーク"
    ],
    [
      "ニュー",
      "ラ"
    ],
    [
      "ニューラ",
      "ル"
    ],
    [
      "ニューラル",
      "ネットワーク"
    ],
    [
      "す",
      "る"
    ],
    [
      "学",
      "習"
    ],
    [
      "重",
      "み"
    ],
    [
      "2",
      "0"
    ],
    [
      "あ",
      "る"
    ],
    [
      "ッ",
      "ク"
    ],
    [
      "モ",
      "デ"
    ],
    [
      "モデ",
      "ル"
    ],
    [
      "N",
      "N"
    ],
    [
      "計",
      "算"
    ],
    [
      "ロ",
      "ン"
    ],
    [
      "e",
      "r"
    ],
    [
      "ン",
      "グ"
    ],
    [
      "ま",
      "す"
    ],
    [
      "1",
      "9"
    ],
    [
      "シ",
      "ョ"
    ],
    [
      "ショ",
      "ン"
    ],
    [
      "処",
      "理"
    ],
    [
      "バ",
      "ック"
    ],
    [
      "ー",
      "ション"
    ],
    [
      "入",
      "力"
    ],
    [
      "バック",
      "プ"
    ],
    [
      "バックプ",
      "ロ"
    ],
    [
      "バックプロ",
      "パ"
    ],
    [
      "バックプロパ",
      "ゲ"
    ],
    [
      "バックプロパゲ",
      "ーション"
    ],
    [
      "出",
      "力"
    ],
    [
      "に",
      "よ"
    ],
    [
      "パ",
      "ー"
    ],
    [
      "か",
      "ら"
    ],
    [
      "た",
      "め"
    ],
    [
      "こ",
      "と"
    ],
    [
      "神",
      "経"
    ],
    [
      "ー",
      "タ"
    ],
    [
      "ィ",
      "ー"
    ],
    [
      "20",
      "2"
    ],
    [
      "U",
      "s"
    ],
    [
      "Us",
      "er"
    ],
    [
      "S",
      "A"
    ],
    [
      "SA",
      "R"
    ],
    [
      "SAR",
      "A"
    ],
    [
      "質",
      "問"
    ],
    [
      "回",
      "答"
    ],
    [
      "結",
      "合"
    ],
    [
      "パー",
      "セ"
    ],
    [
      "パーセ",
      "プ"
    ],
    [
      "パーセプ",
      "ト"
    ],
    [
      "パーセプト",
      "ロン"
    ],
    [
      "C",
      "NN"
    ],
    [
      "れ",
      "る"
    ],
    [
      "関",
      "数"
    ],
    [
      "な",
      "る"
    ],
    [
      "い",
      "る"
    ],
    [
      "し",
      "て"
    ],
    [
      "シ",
      "ナ"
    ],
    [
      "シナ",
      "プ"
    ],
    [
      "シナプ",
      "ス"
    ],
    [
      "デ",
      "ィー"
    ],
    [
      "ディー",
      "プ"
    ],
    [
      "時",
      "間"
    ],
    [
      "い",
      "て"
    ],
    [
      "よ",
      "り"
    ],
    [
      "誤",
      "差"
    ],
    [
      "時",
      "点"
    ],
    [
      "に",
      "お"
    ],
    [
      "用",
      "い"
    ],
    [
      "o",
      "r"
    ],
    [
      "ニュー",
      "ロン"
    ],
    [
      "と",
      "して"
    ],
    [
      "ラ",
      "ー"
    ],
    [
      "によ",
      "る"
    ],
    [
      "線",
      "形"
    ],
    [
      "情",
      "報"
    ],
    [
      "特",
      "徴"
    ],
    [
      "手",
      "法"
    ],
    [
      "デ",
      "ータ"
    ],
    [
      "ディープ",
      "ラー"
    ],
    [
      "ディープラー",
      "ニ"
    ],
    [
      "ディープラーニ",
      "ング"
    ],
    [
      "な",
      "い"
    ],
    [
      "信",
      "号"
    ],
    [
      "or",
      "m"
    ],
    [
      "ナ",
      "ル"
    ],
    [
      "リ",
      "ー"
    ],
    [
      "活",
      "性"
    ],
    [
      "導",
      "入"
    ],
    [
      "畳",
      "み"
    ],
    [
      "畳み",
      "込"
    ],
    [
      "畳み込",
      "み"
    ],
    [
      "ン",
      "ト"
    ],
    [
      "R",
      "NN"
    ],
    [
      "a",
      "n"
    ],
    [
      "精",
      "度"
    ],
    [
      "20",
      "1"
    ],
    [
      "必",
      "要"
    ],
    [
      "表",
      "現"
    ],
    [
      "ま",
      "で"
    ],
    [
      "細",
      "胞"
    ],
    [
      "オ",
      "リ"
    ],
    [
      "オリ",
      "ジ"
    ],
    [
      "オリジ",
      "ナル"
    ],
    [
      "な",
      "が"
    ],
    [
      "調",
      "整"
    ],
    [
      "決",
      "め"
    ],
    [
      "論",
      "理"
    ],
    [
      "重",
      "要"
    ],
    [
      "ス",
      "パ"
    ],
    [
      "スパ",
      "イ"
    ],
    [
      "キ",
      "ング"
    ],
    [
      "ヒ",
      "ト"
    ],
    [
      "生",
      "物"
    ],
    [
      "ー",
      "ド"
    ],
    [
      "19",
      "8"
    ],
    [
      "画",
      "像"
    ],
    [
      "リ",
      "カ"
    ],
    [
      "リカ",
      "レ"
    ],
    [
      "リカレ",
      "ント"
    ],
    [
      "要",
      "素"
    ],
    [
      "単",
      "純"
    ],
    [
      "で",
      "き"
    ],
    [
      "場",
      "合"
    ],
    [
      "言",
      "語"
    ],
    [
      "な",
      "ど"
    ],
    [
      "さ",
      "い"
    ],
    [
      "か",
      "か"
    ],
    [
      "かか",
      "る"
    ],
    [
      "演",
      "算"
    ],
    [
      "受",
      "け"
    ],
    [
      "スパイ",
      "キング"
    ],
    [
      "スパイキング",
      "ニューラルネットワーク"
    ],
    [
      "人",
      "工"
    ],
    [
      "によ",
      "っ"
    ],
    [
      "によっ",
      "て"
    ],
    [
      "ア",
      "ー"
    ],
    [
      "に",
      "つ"
    ],
    [
      "につ",
      "いて"
    ],
    [
      "ニューラル",
      "ネット"
    ],
    [
      "深",
      "層"
    ],
    [
      "よ",
      "う"
    ],
    [
      "回",
      "帰"
    ],
    [
      "T",
      "r"
    ],
    [
      "Tr",
      "an"
    ],
    [
      "Tran",
      "s"
    ],
    [
      "Trans",
      "f"
    ],
    [
      "Transf",
      "orm"
    ],
    [
      "Transform",
      "er"
    ],
    [
      "更",
      "新"
    ],
    [
      "完",
      "了"
    ],
    [
      "非",
      "常"
    ],
    [
      "反",
      "復"
    ],
    [
      "量",
      "子"
    ],
    [
      "低",
      "下"
    ],
    [
      "ユ",
      "ニ"
    ],
    [
      "ユニ",
      "ット"
    ],
    [
      "使",
      "用"
    ],
    [
      "実",
      "装"
    ],
    [
      "19",
      "6"
    ],
    [
      "年",
      "代"
    ],
    [
      "方",
      "法"
    ],
    [
      "にお",
      "いて"
    ],
    [
      "レ",
      "イ"
    ],
    [
      "1",
      "2"
    ],
    [
      "理",
      "論"
    ],
    [
      "取",
      "り"
    ],
    [
      "自",
      "己"
    ],
    [
      "自",
      "然"
    ],
    [
      "現",
      "在"
    ],
    [
      "パ",
      "ラ"
    ],
    [
      "パラ",
      "メ"
    ],
    [
      "パラメ",
      "ータ"
    ],
    [
      "202",
      "4"
    ],
    [
      "にお",
      "け"
    ],
    [
      "におけ",
      "る"
    ],
    [
      "アー",
      "カ"
    ],
    [
      "アーカ",
      "イ"
    ],
    [
      "アーカイ",
      "ブ"
    ],
    [
      "202",
      "5"
    ],
    [
      "付",
      "き"
    ],
    [
      "つ",
      "なが"
    ],
    [
      "多",
      "層"
    ],
    [
      "決め",
      "る"
    ],
    [
      "分",
      "離"
    ],
    [
      "排",
      "他"
    ],
    [
      "教",
      "え"
    ],
    [
      "く",
      "だ"
    ],
    [
      "くだ",
      "さい"
    ],
    [
      "伝",
      "え"
    ],
    [
      "推",
      "論"
    ],
    [
      "系",
      "列"
    ],
    [
      "扱",
      "う"
    ],
    [
      "も",
      "の"
    ],
    [
      "あ",
      "り"
    ],
    [
      "与",
      "え"
    ],
    [
      "訓",
      "練"
    ],
    [
      "研",
      "究"
    ],
    [
      "196",
      "0"
    ],
    [
      "ッ",
      "プ"
    ],
    [
      "発",
      "表"
    ],
    [
      "提",
      "案"
    ],
    [
      "リ",
      "ング"
    ],
    [
      "勾",
      "配"
    ],
    [
      "ウ",
      "ェ"
    ],
    [
      "リカレント",
      "ニューラルネットワーク"
    ],
    [
      "回",
      "路"
    ],
    [
      "関",
      "係"
    ],
    [
      "シ",
      "ュ"
    ],
    [
      "フ",
      "ォ"
    ],
    [
      "方",
      "向"
    ],
    [
      "様",
      "々"
    ],
    [
      "以",
      "下"
    ],
    [
      "並",
      "列"
    ],
    [
      "機",
      "構"
    ],
    [
      "使",
      "わ"
    ],
    [
      "複",
      "素"
    ],
    [
      "ャ",
      "ッ"
    ],
    [
      "効",
      "率"
    ],
    [
      "記",
      "事"
    ],
    [
      "広",
      "く"
    ],
    [
      "役",
      "割"
    ],
    [
      "レ",
      "ー"
    ],
    [
      "ラ",
      "ン"
    ],
    [
      "こ",
      "れ"
    ],
    [
      "19",
      "7"
    ],
    [
      "ワー",
      "ド"
    ],
    [
      "3",
      "2"
    ],
    [
      "正",
      "規"
    ],
    [
      "バ",
      "ー"
    ],
    [
      "サ",
      "ン"
    ],
    [
      "お",
      "よ"
    ],
    [
      "およ",
      "び"
    ],
    [
      "確",
      "率"
    ],
    [
      "ウェ",
      "イ"
    ],
    [
      "認",
      "識"
    ],
    [
      "共",
      "有"
    ],
    [
      "分",
      "類"
    ],
    [
      "フ",
      "ィー"
    ],
    [
      "認",
      "知"
    ],
    [
      "ン",
      "ス"
    ],
    [
      "ズ",
      "ム"
    ],
    [
      "201",
      "5"
    ],
    [
      "問",
      "題"
    ],
    [
      "機",
      "械"
    ],
    [
      "も",
      "と"
    ],
    [
      "変",
      "換"
    ],
    [
      "レイ",
      "ヤ"
    ],
    [
      "F",
      "F"
    ],
    [
      "FF",
      "N"
    ],
    [
      "存",
      "在"
    ],
    [
      "注",
      "意"
    ],
    [
      "構",
      "造"
    ],
    [
      "非",
      "線形"
    ],
    [
      "生",
      "成"
    ],
    [
      "た",
      "ら"
    ],
    [
      "バ",
      "ッ"
    ],
    [
      "バッ",
      "チ"
    ],
    [
      "初",
      "期"
    ],
    [
      "近",
      "い"
    ],
    [
      "使",
      "っ"
    ],
    [
      "でき",
      "る"
    ],
    [
      "メ",
      "モ"
    ],
    [
      "メモ",
      "リ"
    ],
    [
      "ス",
      "パー"
    ],
    [
      "スパー",
      "ス"
    ],
    [
      "ゼ",
      "ロ"
    ],
    [
      "行",
      "列"
    ],
    [
      "対",
      "応"
    ],
    [
      "受け",
      "取り"
    ],
    [
      "し",
      "い"
    ],
    [
      "202",
      "3"
    ],
    [
      "閲",
      "覧"
    ],
    [
      "1",
      "1"
    ],
    [
      ")",
      "."
    ],
    [
      "課",
      "題"
    ],
    [
      "基",
      "本"
    ],
    [
      "ク",
      "ト"
    ],
    [
      "こ",
      "の"
    ],
    [
      "ら",
      "れる"
    ],
    [
      "タ",
      "ー"
    ],
    [
      "最",
      "初"
    ],
    [
      "に",
      "対"
    ],
    [
      "大",
      "幅"
    ],
    [
      "増",
      "加"
    ],
    [
      "基",
      "礎"
    ],
    [
      "行",
      "わ"
    ],
    [
      "ット",
      "フ"
    ],
    [
      "ダ",
      "ウ"
    ],
    [
      "ダウ",
      "ン"
    ],
    [
      "伝",
      "播"
    ],
    [
      "そ",
      "の"
    ],
    [
      "微",
      "分"
    ],
    [
      "開",
      "発"
    ],
    [
      "降",
      "下"
    ],
    [
      "コ",
      "ード"
    ],
    [
      "と",
      "い"
    ],
    [
      "とい",
      "う"
    ],
    [
      "19",
      "9"
    ],
    [
      "出",
      "さ"
    ],
    [
      "c",
      "h"
    ],
    [
      "s",
      "t"
    ],
    [
      "感",
      "情"
    ],
    [
      "イ",
      "ア"
    ],
    [
      "ア",
      "ル"
    ],
    [
      "アル",
      "ゴ"
    ],
    [
      "アルゴ",
      "リ"
    ],
    [
      "アルゴリ",
      "ズム"
    ],
    [
      "によ",
      "り"
    ],
    [
      "ディープ",
      "・"
    ],
    [
      "・",
      "ネットワーク"
    ],
    [
      "ン",
      "・"
    ],
    [
      "コ",
      "ン"
    ],
    [
      "フォ",
      "ー"
    ],
    [
      "フォー",
      "マ"
    ],
    [
      "向",
      "上"
    ],
    [
      "S",
      "e"
    ],
    [
      "フィー",
      "ド"
    ],
    [
      "層",
      "間"
    ],
    [
      "a",
      "y"
    ],
    [
      "ay",
      "er"
    ],
    [
      "利",
      "用"
    ],
    [
      "次",
      "元"
    ],
    [
      "速",
      "度"
    ],
    [
      "も",
      "たら"
    ],
    [
      "ご",
      "と"
    ],
    [
      "N",
      "orm"
    ],
    [
      "命",
      "令"
    ],
    [
      "キ",
      "ャッ"
    ],
    [
      "キャッ",
      "シュ"
    ],
    [
      "1",
      "4"
    ],
    [
      "ニュー",
      "ロ"
    ],
    [
      "リ",
      "ン"
    ],
    [
      "リン",
      "ク"
    ],
    [
      "出",
      "典"
    ],
    [
      "つなが",
      "っ"
    ],
    [
      "数",
      "理"
    ],
    [
      "段",
      "階"
    ],
    [
      "音",
      "声"
    ],
    [
      "適",
      "し"
    ],
    [
      "X",
      "O"
    ],
    [
      "XO",
      "R"
    ],
    [
      "異",
      "なる"
    ],
    [
      "と",
      "き"
    ],
    [
      "だ",
      "け"
    ],
    [
      "真",
      "に"
    ],
    [
      "つなが",
      "る"
    ],
    [
      "突",
      "起"
    ],
    [
      "を",
      "通"
    ],
    [
      "を通",
      "じ"
    ],
    [
      "を通じ",
      "て"
    ],
    [
      "同",
      "士"
    ],
    [
      "渡",
      "す"
    ],
    [
      "接",
      "合"
    ],
    [
      "変",
      "化"
    ],
    [
      "持",
      "ち"
    ],
    [
      "予",
      "測"
    ],
    [
      "小",
      "さ"
    ],
    [
      "小さ",
      "く"
    ],
    [
      "き",
      "い"
    ],
    [
      "済",
      "み"
    ],
    [
      "新",
      "しい"
    ],
    [
      "各",
      "層"
    ],
    [
      "向",
      "き"
    ],
    [
      "実",
      "用"
    ],
    [
      "技",
      "術"
    ],
    [
      "局",
      "所"
    ],
    [
      "受",
      "容"
    ],
    [
      "よ",
      "く"
    ],
    [
      "抽",
      "出"
    ],
    [
      "過",
      "去"
    ],
    [
      "状",
      "態"
    ],
    [
      "保",
      "持"
    ],
    [
      "なが",
      "ら"
    ],
    [
      "規",
      "模"
    ],
    [
      "中",
      "心"
    ],
    [
      "発",
      "火"
    ],
    [
      "タ",
      "イ"
    ],
    [
      "タイ",
      "ミ"
    ],
    [
      "タイミ",
      "ング"
    ],
    [
      "通",
      "常"
    ],
    [
      "挙",
      "動"
    ],
    [
      "振",
      "る"
    ],
    [
      "振る",
      "舞"
    ],
    [
      "振る舞",
      "い"
    ],
    [
      "与え",
      "る"
    ],
    [
      "マ",
      "シ"
    ],
    [
      "知",
      "ら"
    ],
    [
      "介",
      "し"
    ],
    [
      "が",
      "り"
    ],
    [
      "ニューラルネットワーク",
      "モデル"
    ],
    [
      "19",
      "5"
    ],
    [
      "レー",
      "ト"
    ],
    [
      "ビ",
      "ット"
    ],
    [
      "作",
      "成"
    ],
    [
      "に",
      "関"
    ],
    [
      "に関",
      "する"
    ],
    [
      "科",
      "学"
    ],
    [
      "A",
      "I"
    ],
    [
      "197",
      "0"
    ],
    [
      "K",
      "i"
    ],
    [
      "2",
      "5"
    ],
    [
      "・",
      "ヴ"
    ],
    [
      "・ヴ",
      "ィ"
    ],
    [
      "ラ",
      "イ"
    ],
    [
      "呼",
      "ば"
    ],
    [
      "な",
      "か"
    ],
    [
      "なか",
      "っ"
    ],
    [
      "福",
      "島"
    ],
    [
      "邦",
      "彦"
    ],
    [
      "サン",
      "プ"
    ],
    [
      "サンプ",
      "リング"
    ],
    [
      "チ",
      "ャ"
    ],
    [
      "プ",
      "ー"
    ],
    [
      "プー",
      "リング"
    ],
    [
      "し",
      "か"
    ],
    [
      "ベ",
      "ル"
    ],
    [
      "適",
      "用"
    ],
    [
      "手",
      "書"
    ],
    [
      "手書",
      "き"
    ],
    [
      "I",
      "P"
    ],
    [
      "数",
      "字"
    ],
    [
      "い",
      "く"
    ],
    [
      "いく",
      "つ"
    ],
    [
      "199",
      "1"
    ],
    [
      "ジ",
      "ェ"
    ],
    [
      "198",
      "2"
    ],
    [
      "198",
      "0"
    ],
    [
      "述",
      "べ"
    ],
    [
      "論",
      "文"
    ],
    [
      "シュ",
      "ミ"
    ],
    [
      "シュミ",
      "ットフ"
    ],
    [
      "シュミットフ",
      "ー"
    ],
    [
      "シュミットフー",
      "バー"
    ],
    [
      "複",
      "数"
    ],
    [
      "応",
      "用"
    ],
    [
      "統",
      "計"
    ],
    [
      "力",
      "学"
    ],
    [
      "20",
      "0"
    ],
    [
      "ディープ・",
      "ビ"
    ],
    [
      "ディープ・ビ",
      "リー"
    ],
    [
      "ディープ・ビリー",
      "フ"
    ],
    [
      "ディープ・ビリーフ",
      "・ネットワーク"
    ],
    [
      "パ",
      "フォーマ"
    ],
    [
      "パフォーマ",
      "ンス"
    ],
    [
      "従",
      "来"
    ],
    [
      "テ",
      "ン"
    ],
    [
      "追",
      "加"
    ],
    [
      "Se",
      "q"
    ],
    [
      "エ",
      "ン"
    ],
    [
      "フ",
      "ィ"
    ],
    [
      "部",
      "分"
    ],
    [
      "全",
      "く"
    ],
    [
      "示",
      "さ"
    ],
    [
      "フィード",
      "フォ"
    ],
    [
      "フィードフォ",
      "ワード"
    ],
    [
      "し",
      "ば"
    ],
    [
      "様",
      "式"
    ],
    [
      "持",
      "た"
    ],
    [
      "す",
      "べ"
    ],
    [
      "すべ",
      "て"
    ],
    [
      "l",
      "ayer"
    ],
    [
      "も",
      "つ"
    ],
    [
      "シ",
      "ー"
    ],
    [
      "シー",
      "ケ"
    ],
    [
      "シーケ",
      "ン"
    ],
    [
      "シーケン",
      "シ"
    ],
    [
      "シーケンシ",
      "ャ"
    ],
    [
      "シーケンシャ",
      "ル"
    ],
    [
      "に対",
      "して"
    ],
    [
      "リカレント",
      "ニューラルネット"
    ],
    [
      "ノ",
      "ード"
    ],
    [
      "e",
      "n"
    ],
    [
      "en",
      "t"
    ],
    [
      "o",
      "n"
    ],
    [
      "比",
      "べ"
    ],
    [
      "乱",
      "数"
    ],
    [
      "チ",
      "ップ"
    ],
    [
      "複素",
      "数"
    ],
    [
      "グ",
      "ラ"
    ],
    [
      "グラ",
      "フ"
    ],
    [
      "組",
      "み"
    ],
    [
      "組み",
      "合"
    ],
    [
      "組み合",
      "わ"
    ],
    [
      "組み合わ",
      "せ"
    ],
    [
      "構",
      "成"
    ],
    [
      "お",
      "り"
    ],
    [
      "r",
      "o"
    ],
    [
      "ま",
      "た"
    ],
    [
      "た",
      "り"
    ],
    [
      "e",
      "e"
    ],
    [
      "e",
      "t"
    ],
    [
      "シ",
      "ャッ"
    ],
    [
      "シャッ",
      "フ"
    ],
    [
      "シャッフ",
      "ル"
    ],
    [
      "や",
      "す"
    ],
    [
      "やす",
      "い"
    ],
    [
      "分",
      "散"
    ],
    [
      "小",
      "さい"
    ],
    [
      "と",
      "こ"
    ],
    [
      "とこ",
      "ろ"
    ],
    [
      "効",
      "果"
    ],
    [
      "生",
      "み"
    ],
    [
      "生み",
      "出さ"
    ],
    [
      "容",
      "量"
    ],
    [
      "減",
      "少"
    ],
    [
      "数",
      "値"
    ],
    [
      "もたら",
      "す"
    ],
    [
      "Q",
      "D"
    ],
    [
      "QD",
      "Q"
    ],
    [
      "最",
      "適"
    ],
    [
      "近",
      "似"
    ],
    [
      "省",
      "略"
    ],
    [
      "ラン",
      "ダ"
    ],
    [
      "ランダ",
      "ム"
    ],
    [
      "エ",
      "ポ"
    ],
    [
      "エポ",
      "ック"
    ],
    [
      "20",
      "20"
    ],
    [
      "巨",
      "大"
    ],
    [
      "つ",
      "く"
    ],
    [
      "つく",
      "る"
    ],
    [
      "1",
      "0"
    ],
    [
      "0",
      "9"
    ],
    [
      "0",
      "7"
    ],
    [
      "2",
      "1"
    ],
    [
      "P",
      "y"
    ],
    [
      "Py",
      "t"
    ],
    [
      "a",
      "r"
    ],
    [
      "学",
      "ぶ"
    ],
    [
      "記",
      "述"
    ],
    [
      "サ",
      "ポ"
    ],
    [
      "サポ",
      "ー"
    ],
    [
      "サポー",
      "ト"
    ],
    [
      "サポート",
      "ベ"
    ],
    [
      "サポートベ",
      "クト"
    ],
    [
      "サポートベクト",
      "ル"
    ],
    [
      "サポートベクトル",
      "マシ"
    ],
    [
      "サポートベクトルマシ",
      "ン"
    ],
    [
      "S",
      "V"
    ],
    [
      "SV",
      "M"
    ],
    [
      "繋",
      "がり"
    ],
    [
      "強",
      "度"
    ],
    [
      "担",
      "っ"
    ],
    [
      "外",
      "的"
    ],
    [
      "刺",
      "激"
    ],
    [
      "相",
      "当"
    ],
    [
      "相",
      "互"
    ],
    [
      "作",
      "用"
    ],
    [
      "195",
      "4"
    ],
    [
      "フ",
      "ァ"
    ],
    [
      "ファ",
      "ー"
    ],
    [
      "ファー",
      "リー"
    ],
    [
      "ク",
      "ラー"
    ],
    [
      "クラー",
      "ク"
    ],
    [
      "ヘ",
      "ッ"
    ],
    [
      "ヘッ",
      "ブ"
    ],
    [
      "シ",
      "ミ"
    ],
    [
      "シミ",
      "ュ"
    ],
    [
      "シミュ",
      "レート"
    ],
    [
      "195",
      "6"
    ],
    [
      "ロ",
      "チ"
    ],
    [
      "ロチ",
      "ェ"
    ],
    [
      "ロチェ",
      "ス"
    ],
    [
      "ロチェス",
      "ター"
    ],
    [
      "ホ",
      "ラン"
    ],
    [
      "ホラン",
      "ド"
    ],
    [
      "ハ",
      "ビット"
    ],
    [
      "デ",
      "ュー"
    ],
    [
      "デュー",
      "ダ"
    ],
    [
      "に対",
      "する"
    ],
    [
      "世",
      "間"
    ],
    [
      "興",
      "奮"
    ],
    [
      "高",
      "め"
    ],
    [
      "米",
      "国"
    ],
    [
      "政",
      "府"
    ],
    [
      "資",
      "金"
    ],
    [
      "人",
      "間"
    ],
    [
      "知",
      "能"
    ],
    [
      "模",
      "倣"
    ],
    [
      "能",
      "力"
    ],
    [
      "楽",
      "観"
    ],
    [
      "主",
      "張"
    ],
    [
      "煽",
      "ら"
    ],
    [
      "黄",
      "金"
    ],
    [
      "時",
      "代"
    ],
    [
      "貢",
      "献"
    ],
    [
      "ブ",
      "レー"
    ],
    [
      "ブレー",
      "ク"
    ],
    [
      "ス",
      "ル"
    ],
    [
      "スル",
      "ー"
    ],
    [
      "5",
      "0"
    ],
    [
      "50",
      "20"
    ],
    [
      "さ",
      "し"
    ],
    [
      "は",
      "ず"
    ],
    [
      "6",
      "4"
    ],
    [
      "25",
      "6"
    ],
    [
      "Ki",
      "B"
    ],
    [
      "197",
      "6"
    ],
    [
      "転",
      "移"
    ],
    [
      "ゴ",
      "ットフ"
    ],
    [
      "ゴットフ",
      "リー"
    ],
    [
      "ゴットフリー",
      "ト"
    ],
    [
      "ゴットフリート",
      "・ヴィ"
    ],
    [
      "ゴットフリート・ヴィ",
      "ル"
    ],
    [
      "ゴットフリート・ヴィル",
      "ヘ"
    ],
    [
      "ゴットフリート・ヴィルヘ",
      "ル"
    ],
    [
      "ゴットフリート・ヴィルヘル",
      "ム"
    ],
    [
      "ゴットフリート・ヴィルヘルム",
      "・"
    ],
    [
      "ゴットフリート・ヴィルヘルム・",
      "ライ"
    ],
    [
      "ゴットフリート・ヴィルヘルム・ライ",
      "プ"
    ],
    [
      "ゴットフリート・ヴィルヘルム・ライプ",
      "ニ"
    ],
    [
      "ゴットフリート・ヴィルヘルム・ライプニ",
      "ッ"
    ],
    [
      "ゴットフリート・ヴィルヘルム・ライプニッ",
      "ツ"
    ],
    [
      "ト",
      "ップ"
    ],
    [
      "トップ",
      "ダウン"
    ],
    [
      "リ",
      "バー"
    ],
    [
      "リバー",
      "ス"
    ],
    [
      "リバース",
      "・"
    ],
    [
      "リバース・",
      "モ"
    ],
    [
      "リバース・モ",
      "ード"
    ],
    [
      "ヘ",
      "ン"
    ],
    [
      "ヘン",
      "リー"
    ],
    [
      "ケ",
      "リー"
    ],
    [
      "文",
      "脈"
    ],
    [
      "連",
      "続"
    ],
    [
      "前",
      "駆"
    ],
    [
      "後",
      "半"
    ],
    [
      "自",
      "動"
    ],
    [
      "に",
      "て"
    ],
    [
      "文",
      "章"
    ],
    [
      "197",
      "9"
    ],
    [
      "複",
      "製"
    ],
    [
      "備",
      "え"
    ],
    [
      "ディープラーニング",
      "アー"
    ],
    [
      "ディープラーニングアー",
      "キ"
    ],
    [
      "ディープラーニングアーキ",
      "テ"
    ],
    [
      "ディープラーニングアーキテ",
      "ク"
    ],
    [
      "ディープラーニングアーキテク",
      "チャ"
    ],
    [
      "一",
      "般"
    ],
    [
      "手",
      "順"
    ],
    [
      "m",
      "a"
    ],
    [
      "ma",
      "x"
    ],
    [
      "しか",
      "し"
    ],
    [
      "198",
      "7"
    ],
    [
      "ア",
      "レ"
    ],
    [
      "アレ",
      "ック"
    ],
    [
      "アレック",
      "ス"
    ],
    [
      "ウェイ",
      "ベル"
    ],
    [
      "音",
      "素"
    ],
    [
      "遅",
      "延"
    ],
    [
      "T",
      "D"
    ],
    [
      "TD",
      "NN"
    ],
    [
      "郵",
      "便"
    ],
    [
      "Z",
      "IP"
    ],
    [
      "要",
      "し"
    ],
    [
      "銀",
      "行"
    ],
    [
      "ピ",
      "ク"
    ],
    [
      "ピク",
      "セ"
    ],
    [
      "ピクセ",
      "ル"
    ],
    [
      "デ",
      "ジ"
    ],
    [
      "デジ",
      "タ"
    ],
    [
      "デジタ",
      "ル"
    ],
    [
      "小",
      "切"
    ],
    [
      "小切",
      "手"
    ],
    [
      "ハ",
      "ード"
    ],
    [
      "ハード",
      "ウェ"
    ],
    [
      "ハードウェ",
      "ア"
    ],
    [
      "医",
      "用"
    ],
    [
      "オ",
      "ブ"
    ],
    [
      "オブ",
      "ジェ"
    ],
    [
      "オブジェ",
      "クト"
    ],
    [
      "セ",
      "グ"
    ],
    [
      "セグ",
      "メ"
    ],
    [
      "セグメ",
      "ン"
    ],
    [
      "セグメン",
      "テ"
    ],
    [
      "セグメンテ",
      "ーション"
    ],
    [
      "学",
      "問"
    ],
    [
      "見",
      "出さ"
    ],
    [
      "加",
      "え"
    ],
    [
      "ホ",
      "ップ"
    ],
    [
      "フィー",
      "ル"
    ],
    [
      "フィール",
      "ド"
    ],
    [
      "普",
      "及"
    ],
    [
      "あ",
      "っ"
    ],
    [
      "19",
      "0"
    ],
    [
      "190",
      "1"
    ],
    [
      "皮",
      "質"
    ],
    [
      "半",
      "円"
    ],
    [
      "観",
      "察"
    ],
    [
      "短",
      "期"
    ],
    [
      "記",
      "憶"
    ],
    [
      "説",
      "明"
    ],
    [
      "反",
      "響"
    ],
    [
      "考",
      "察"
    ],
    [
      "初",
      "頭"
    ],
    [
      "心",
      "理"
    ],
    [
      "学",
      "術"
    ],
    [
      "A",
      "m"
    ],
    [
      "Am",
      "er"
    ],
    [
      "Amer",
      "i"
    ],
    [
      "Ameri",
      "c"
    ],
    [
      "Americ",
      "an"
    ],
    [
      "P",
      "s"
    ],
    [
      "Ps",
      "y"
    ],
    [
      "Psy",
      "ch"
    ],
    [
      "Psych",
      "o"
    ],
    [
      "Psycho",
      "l"
    ],
    [
      "Psychol",
      "o"
    ],
    [
      "Psycholo",
      "g"
    ],
    [
      "Psycholog",
      "i"
    ],
    [
      "Psychologi",
      "st"
    ],
    [
      "議",
      "論"
    ],
    [
      "ザ",
      "イア"
    ],
    [
      "ザイア",
      "ンス"
    ],
    [
      "独",
      "立"
    ],
    [
      "ラ",
      "ザ"
    ],
    [
      "ラザ",
      "ル"
    ],
    [
      "ラザル",
      "ス"
    ],
    [
      "不",
      "可"
    ],
    [
      "不可",
      "分"
    ],
    [
      "ゼ",
      "ップ"
    ],
    [
      "ゼップ",
      "・"
    ],
    [
      "ゼップ・",
      "ホ"
    ],
    [
      "ゼップ・ホ",
      "フ"
    ],
    [
      "ゼップ・ホフ",
      "レイ"
    ],
    [
      "ゼップ・ホフレイ",
      "ター"
    ],
    [
      "接",
      "続"
    ],
    [
      "領",
      "域"
    ],
    [
      "記",
      "録"
    ],
    [
      "打",
      "ち"
    ],
    [
      "打ち",
      "立"
    ],
    [
      "打ち立",
      "て"
    ],
    [
      "198",
      "5"
    ],
    [
      "199",
      "5"
    ],
    [
      "影",
      "響"
    ],
    [
      "テ",
      "リー"
    ],
    [
      "セ",
      "ジ"
    ],
    [
      "セジ",
      "ュ"
    ],
    [
      "セジュ",
      "ノ"
    ],
    [
      "セジュノ",
      "ウ"
    ],
    [
      "セジュノウ",
      "ス"
    ],
    [
      "セジュノウス",
      "キ"
    ],
    [
      "セジュノウスキ",
      "ー"
    ],
    [
      "ピ",
      "ータ"
    ],
    [
      "ピータ",
      "ー"
    ],
    [
      "デ",
      "イア"
    ],
    [
      "デイア",
      "ン"
    ],
    [
      "ウェイ",
      "ク"
    ],
    [
      "ス",
      "リー"
    ],
    [
      "スリー",
      "プ"
    ],
    [
      "スリープ",
      "アルゴリズム"
    ],
    [
      "200",
      "6"
    ],
    [
      "ジェ",
      "フ"
    ],
    [
      "ジェフ",
      "リー"
    ],
    [
      "ヒ",
      "ント"
    ],
    [
      "ヒント",
      "ン"
    ],
    [
      "同",
      "じ"
    ],
    [
      "201",
      "1"
    ],
    [
      "ダ",
      "ン"
    ],
    [
      "シ",
      "レ"
    ],
    [
      "シレ",
      "サン"
    ],
    [
      "ウ",
      "エ"
    ],
    [
      "ウエ",
      "リ"
    ],
    [
      "ウエリ",
      "・"
    ],
    [
      "ウエリ・",
      "マ"
    ],
    [
      "ウエリ・マ",
      "イ"
    ],
    [
      "ウエリ・マイ",
      "ヤ"
    ],
    [
      "ウエリ・マイヤ",
      "ー"
    ],
    [
      "ジ",
      "ョ"
    ],
    [
      "ジョ",
      "ナ"
    ],
    [
      "ジョナ",
      "サン"
    ],
    [
      "マ",
      "ッ"
    ],
    [
      "マッ",
      "シ"
    ],
    [
      "ル",
      "カ"
    ],
    [
      "マ",
      "リ"
    ],
    [
      "マリ",
      "ア"
    ],
    [
      "マリア",
      "・"
    ],
    [
      "マリア・",
      "ガ"
    ],
    [
      "マリア・ガ",
      "ン"
    ],
    [
      "マリア・ガン",
      "バ"
    ],
    [
      "マリア・ガンバ",
      "ル"
    ],
    [
      "マリア・ガンバル",
      "デ"
    ],
    [
      "マリア・ガンバルデ",
      "ッ"
    ],
    [
      "マリア・ガンバルデッ",
      "ラ"
    ],
    [
      "ユ",
      "ル"
    ],
    [
      "ユル",
      "ゲ"
    ],
    [
      "ユルゲ",
      "ン・"
    ],
    [
      "ユルゲン・",
      "シュミットフーバー"
    ],
    [
      "視",
      "覚"
    ],
    [
      "パ",
      "ター"
    ],
    [
      "パター",
      "ン"
    ],
    [
      "コン",
      "テ"
    ],
    [
      "コンテ",
      "ス"
    ],
    [
      "コンテス",
      "ト"
    ],
    [
      "初",
      "め"
    ],
    [
      "初め",
      "て"
    ],
    [
      "人",
      "的"
    ],
    [
      "達",
      "成"
    ],
    [
      "上",
      "回"
    ],
    [
      "上回",
      "っ"
    ],
    [
      "マ",
      "ック"
    ],
    [
      "ス",
      "プーリング"
    ],
    [
      "せ",
      "る"
    ],
    [
      "示",
      "し"
    ],
    [
      "そ",
      "れ"
    ],
    [
      "それ",
      "ら"
    ],
    [
      "解",
      "決"
    ],
    [
      "ハ",
      "イ"
    ],
    [
      "ハイ",
      "ウェイ"
    ],
    [
      "ア",
      "テン"
    ],
    [
      "アテン",
      "ション"
    ],
    [
      "メ",
      "カ"
    ],
    [
      "メカ",
      "ニ"
    ],
    [
      "メカニ",
      "ズム"
    ],
    [
      "デ",
      "コード"
    ],
    [
      "考",
      "え"
    ],
    [
      "考え",
      "方"
    ],
    [
      "翻",
      "訳"
    ],
    [
      "201",
      "4"
    ],
    [
      "ブ",
      "ー"
    ],
    [
      "ブー",
      "ム"
    ],
    [
      "発",
      "生"
    ],
    [
      "バー",
      "ナ"
    ],
    [
      "バーナ",
      "ード"
    ],
    [
      "バーナード",
      "・ヴィ"
    ],
    [
      "バーナード・ヴィ",
      "ド"
    ],
    [
      "バーナード・ヴィド",
      "ロ"
    ],
    [
      "バーナード・ヴィドロ",
      "ー"
    ],
    [
      "内",
      "側"
    ],
    [
      "ア",
      "フィ"
    ],
    [
      "アフィ",
      "ン"
    ],
    [
      "W",
      "x"
    ],
    [
      "代",
      "表"
    ],
    [
      "不",
      "十"
    ],
    [
      "不十",
      "分"
    ],
    [
      "フィードフォワード",
      "ニューラルネットワーク"
    ],
    [
      "総",
      "称"
    ],
    [
      "ク",
      "ラ"
    ],
    [
      "クラ",
      "ス"
    ],
    [
      "しば",
      "しば"
    ],
    [
      "概",
      "念"
    ],
    [
      "取り",
      "入"
    ],
    [
      "取り入",
      "れる"
    ],
    [
      "中",
      "間"
    ],
    [
      "単",
      "一"
    ],
    [
      "対",
      "比"
    ],
    [
      "関",
      "わ"
    ],
    [
      "関わ",
      "ら"
    ],
    [
      "属",
      "する"
    ],
    [
      "繰",
      "り"
    ],
    [
      "繰り",
      "返"
    ],
    [
      "繰り返",
      "す"
    ],
    [
      "再",
      "帰"
    ],
    [
      "フィード",
      "バック"
    ],
    [
      "フィードバック",
      "ニューラルネット"
    ],
    [
      "フィードフォワード",
      "ニューラルネット"
    ],
    [
      "違",
      "い"
    ],
    [
      "双",
      "方向"
    ],
    [
      "全",
      "て"
    ],
    [
      "持",
      "っ"
    ],
    [
      "呼",
      "ぶ"
    ],
    [
      "有",
      "効"
    ],
    [
      "Se",
      "l"
    ],
    [
      "Sel",
      "f"
    ],
    [
      "A",
      "t"
    ],
    [
      "At",
      "t"
    ],
    [
      "Att",
      "ent"
    ],
    [
      "Attent",
      "i"
    ],
    [
      "Attenti",
      "on"
    ],
    [
      "少",
      "な"
    ],
    [
      "少な",
      "く"
    ],
    [
      "多",
      "い"
    ],
    [
      "動",
      "作"
    ],
    [
      "積",
      "ん"
    ],
    [
      "コン",
      "シ"
    ],
    [
      "コンシ",
      "ュー"
    ],
    [
      "コンシュー",
      "マ"
    ],
    [
      "コンシューマ",
      "ー"
    ],
    [
      "向",
      "け"
    ],
    [
      "もと",
      "より"
    ],
    [
      "可",
      "能"
    ],
    [
      "階",
      "層"
    ],
    [
      "速",
      "く"
    ],
    [
      "しか",
      "も"
    ],
    [
      "閾",
      "値"
    ],
    [
      "総",
      "数"
    ],
    [
      "半",
      "分"
    ],
    [
      "済",
      "む"
    ],
    [
      "ニューラル",
      "・ネットワーク"
    ],
    [
      "経",
      "験"
    ],
    [
      "もたら",
      "し"
    ],
    [
      "T",
      "a"
    ],
    [
      "Ta",
      "b"
    ],
    [
      "Tab",
      "l"
    ],
    [
      "Tabl",
      "e"
    ],
    [
      "チャ",
      "ネ"
    ],
    [
      "チャネ",
      "ル"
    ],
    [
      "お",
      "こ"
    ],
    [
      "おこ",
      "な"
    ],
    [
      "おこな",
      "わ"
    ],
    [
      "L",
      "ayer"
    ],
    [
      "I",
      "n"
    ],
    [
      "In",
      "st"
    ],
    [
      "Inst",
      "an"
    ],
    [
      "Instan",
      "c"
    ],
    [
      "Instanc",
      "e"
    ],
    [
      "G",
      "ro"
    ],
    [
      "Gro",
      "u"
    ],
    [
      "Grou",
      "p"
    ],
    [
      "求",
      "め"
    ],
    [
      "198",
      "6"
    ],
    [
      "命",
      "名"
    ],
    [
      "以",
      "前"
    ],
    [
      "以",
      "外"
    ],
    [
      "g",
      "r"
    ],
    [
      "gr",
      "a"
    ],
    [
      "gra",
      "d"
    ],
    [
      "grad",
      "i"
    ],
    [
      "gradi",
      "ent"
    ],
    [
      "f",
      "r"
    ],
    [
      "fr",
      "ee"
    ],
    [
      "m",
      "et"
    ],
    [
      "met",
      "h"
    ],
    [
      "meth",
      "o"
    ],
    [
      "metho",
      "d"
    ],
    [
      "で",
      "も"
    ],
    [
      "進",
      "め"
    ],
    [
      "ら",
      "れ"
    ],
    [
      "目",
      "標"
    ],
    [
      "通",
      "す"
    ],
    [
      "最",
      "大"
    ],
    [
      "範",
      "囲"
    ],
    [
      "べ",
      "き"
    ],
    [
      "バ",
      "イア"
    ],
    [
      "バイア",
      "ス"
    ],
    [
      "オ",
      "ン"
    ],
    [
      "オン",
      "ライ"
    ],
    [
      "オンライ",
      "ン"
    ],
    [
      "一",
      "周"
    ],
    [
      "毎",
      "回"
    ],
    [
      "直",
      "す"
    ],
    [
      "不",
      "適"
    ],
    [
      "不適",
      "切"
    ],
    [
      "消",
      "失"
    ],
    [
      "起",
      "こ"
    ],
    [
      "起こ",
      "し"
    ],
    [
      "す",
      "ぎ"
    ],
    [
      "すぎ",
      "る"
    ],
    [
      "集",
      "中"
    ],
    [
      "技",
      "法"
    ],
    [
      "使",
      "え"
    ],
    [
      "収",
      "斂"
    ],
    [
      "短",
      "縮"
    ],
    [
      "行",
      "う"
    ],
    [
      "マ",
      "ル"
    ],
    [
      "マル",
      "チ"
    ],
    [
      "マルチ",
      "ス"
    ],
    [
      "マルチス",
      "レ"
    ],
    [
      "マルチスレ",
      "ッ"
    ],
    [
      "マルチスレッ",
      "ド"
    ],
    [
      "実",
      "行"
    ],
    [
      "比",
      "較"
    ],
    [
      "比較",
      "的"
    ],
    [
      "簡",
      "単"
    ],
    [
      "F",
      "P"
    ],
    [
      "I",
      "N"
    ],
    [
      "IN",
      "T"
    ],
    [
      "IP",
      "C"
    ],
    [
      "あ",
      "たり"
    ],
    [
      "乗",
      "る"
    ],
    [
      "ヒ",
      "ット"
    ],
    [
      "消",
      "費"
    ],
    [
      "転",
      "送"
    ],
    [
      "最",
      "終"
    ],
    [
      "メ",
      "リ"
    ],
    [
      "メリ",
      "ット"
    ],
    [
      "上",
      "記"
    ],
    [
      "決",
      "定"
    ],
    [
      "セ",
      "ット"
    ],
    [
      "下",
      "がり"
    ],
    [
      "さ",
      "ら"
    ],
    [
      "さら",
      "に"
    ],
    [
      "負",
      "荷"
    ],
    [
      "勝",
      "っ"
    ],
    [
      "悪",
      "化"
    ],
    [
      "バ",
      "リ"
    ],
    [
      "バリ",
      "エ"
    ],
    [
      "バリエ",
      "ーション"
    ],
    [
      ")",
      ":"
    ],
    [
      "恩",
      "恵"
    ],
    [
      "受け",
      "る"
    ],
    [
      "フォーマ",
      "ット"
    ],
    [
      "形",
      "式"
    ],
    [
      "挙",
      "げ"
    ],
    [
      "前",
      "提"
    ],
    [
      "防",
      "ぐ"
    ],
    [
      "通",
      "り"
    ],
    [
      "徐",
      "々"
    ],
    [
      "徐々",
      "に"
    ],
    [
      "減",
      "衰"
    ],
    [
      "近",
      "づ"
    ],
    [
      "近づ",
      "く"
    ],
    [
      "用",
      "語"
    ],
    [
      "もと",
      "もと"
    ],
    [
      "指",
      "し"
    ],
    [
      "形",
      "容"
    ],
    [
      "実",
      "際"
    ],
    [
      "広",
      "が"
    ],
    [
      "広が",
      "っ"
    ],
    [
      "の",
      "で"
    ],
    [
      "重み",
      "付"
    ],
    [
      "重み付",
      "け"
    ],
    [
      "これ",
      "ら"
    ],
    [
      "全",
      "体"
    ],
    [
      "形",
      "成"
    ],
    [
      "小",
      "脳"
    ],
    [
      "支",
      "持"
    ],
    [
      "無",
      "関係"
    ],
    [
      "st",
      "e"
    ],
    [
      "ste",
      "p"
    ],
    [
      "す",
      "れ"
    ],
    [
      "G",
      "P"
    ],
    [
      "GP",
      "U"
    ],
    [
      "使",
      "い"
    ],
    [
      "き",
      "れる"
    ],
    [
      "実",
      "践"
    ],
    [
      "上",
      "限"
    ],
    [
      "制",
      "約"
    ],
    [
      "厳",
      "しい"
    ],
    [
      "B",
      "P"
    ],
    [
      "平",
      "野"
    ],
    [
      "廣",
      "美"
    ],
    [
      "変",
      "わ"
    ],
    [
      "変わ",
      "る"
    ],
    [
      "+",
      "+"
    ],
    [
      "J",
      "a"
    ],
    [
      "Ja",
      "v"
    ],
    [
      "Jav",
      "a"
    ],
    [
      "パー",
      "ソ"
    ],
    [
      "パーソ",
      "ナル"
    ],
    [
      "メ",
      "デ"
    ],
    [
      "メデ",
      "ィ"
    ],
    [
      "メディ",
      "ア"
    ],
    [
      "株",
      "式"
    ],
    [
      "株式",
      "会"
    ],
    [
      "株式会",
      "社"
    ],
    [
      "200",
      "8"
    ],
    [
      "2",
      "7"
    ],
    [
      "識",
      "別"
    ],
    [
      "I",
      "I"
    ],
    [
      "幾",
      "何"
    ],
    [
      "共",
      "立"
    ],
    [
      "出",
      "版"
    ],
    [
      "196",
      "8"
    ],
    [
      "サ",
      "イ"
    ],
    [
      "サイ",
      "エ"
    ],
    [
      "サイエ",
      "ンス"
    ],
    [
      "温",
      "故"
    ],
    [
      "温故",
      "知"
    ],
    [
      "温故知",
      "新"
    ],
    [
      "動",
      "向"
    ],
    [
      "0",
      "5"
    ],
    [
      "20",
      "19"
    ],
    [
      "2",
      "2"
    ],
    [
      "201",
      "8"
    ],
    [
      "”",
      "."
    ],
    [
      "w",
      "i"
    ],
    [
      "wi",
      "t"
    ],
    [
      "wit",
      "n"
    ],
    [
      "witn",
      "e"
    ],
    [
      "witne",
      "s"
    ],
    [
      "witnes",
      "s"
    ],
    [
      "or",
      "g"
    ],
    [
      "意",
      "識"
    ],
    [
      "宿",
      "る"
    ],
    [
      "甘",
      "利"
    ],
    [
      "俊",
      "一"
    ],
    [
      "損",
      "ね"
    ],
    [
      "ノ",
      "ー"
    ],
    [
      "ノー",
      "ベル"
    ],
    [
      "今",
      "後"
    ],
    [
      "映",
      "像"
    ],
    [
      "検",
      "索"
    ],
    [
      "村",
      "田"
    ],
    [
      "剛",
      "志"
    ],
    [
      "グラフ",
      "ニューラルネットワーク"
    ],
    [
      "Pyt",
      "or"
    ],
    [
      "Pytor",
      "ch"
    ],
    [
      "B",
      "a"
    ],
    [
      "Ba",
      "c"
    ],
    [
      "Bac",
      "k"
    ],
    [
      "Back",
      "p"
    ],
    [
      "Backp",
      "ro"
    ],
    [
      "Backpro",
      "p"
    ],
    [
      "入",
      "門"
    ],
    [
      "2",
      "4"
    ],
    [
      "1",
      "6"
    ],
    [
      "情報",
      "処理"
    ],
    [
      "朝",
      "倉"
    ],
    [
      "朝倉",
      "書"
    ],
    [
      "朝倉書",
      "店"
    ],
    [
      "198",
      "9"
    ],
    [
      "百",
      "瀬"
    ],
    [
      "201",
      "6"
    ],
    [
      "ディープ・",
      "ニューラルネットワーク"
    ],
    [
      "ニューロ",
      "チップ"
    ],
    [
      "勘",
      "所"
    ],
    [
      "!",
      "!"
    ],
    [
      "フ",
      "レー"
    ],
    [
      "フレー",
      "ム"
    ],
    [
      "多",
      "く"
    ],
    [
      "費",
      "や"
    ],
    [
      "費や",
      "さ"
    ],
    [
      "9",
      "0"
    ],
    [
      "o",
      "f"
    ],
    [
      "関",
      "谷"
    ],
    [
      "a",
      "l"
    ],
    [
      "201",
      "7"
    ],
    [
      "ラン",
      "ク"
    ],
    [
      "高",
      "速"
    ],
    [
      "ニューロ",
      "コン"
    ],
    [
      "ニューロコン",
      "ピ"
    ],
    [
      "ニューロコンピ",
      "ュー"
    ],
    [
      "ニューロコンピュー",
      "テ"
    ],
    [
      "ニューロコンピューテ",
      "ィ"
    ],
    [
      "ニューロコンピューティ",
      "ング"
    ],
    [
      "数",
      "学"
    ],
    [
      "斎",
      "藤"
    ],
    [
      "作",
      "る"
    ],
    [
      "D",
      "ee"
    ],
    [
      "Dee",
      "p"
    ],
    [
      "L",
      "e"
    ],
    [
      "Le",
      "ar"
    ],
    [
      "Lear",
      "n"
    ],
    [
      "Learn",
      "i"
    ],
    [
      "Learni",
      "n"
    ],
    [
      "Learnin",
      "g"
    ],
    [
      "Pyt",
      "h"
    ],
    [
      "Pyth",
      "on"
    ],
    [
      "山",
      "内"
    ],
    [
      "康",
      "一"
    ],
    [
      "作",
      "っ"
    ],
    [
      "ニューロ",
      "モ"
    ],
    [
      "ニューロモ",
      "ル"
    ],
    [
      "ニューロモル",
      "フィ"
    ],
    [
      "ニューロモルフィ",
      "ック"
    ],
    [
      "ニューロモルフィック",
      "・"
    ],
    [
      "ニューロモルフィック・",
      "エン"
    ],
    [
      "ニューロモルフィック・エン",
      "ジ"
    ],
    [
      "ニューロモルフィック・エンジ",
      "ニ"
    ],
    [
      "ニューロモルフィック・エンジニ",
      "ア"
    ],
    [
      "ニューロモルフィック・エンジニア",
      "リング"
    ],
    [
      "ブ",
      "レイ"
    ],
    [
      "ブレイ",
      "ン・"
    ],
    [
      "ブレイン・",
      "マシ"
    ],
    [
      "ブレイン・マシ",
      "ン・"
    ],
    [
      "ブレイン・マシン・",
      "イ"
    ],
    [
      "ブレイン・マシン・イ",
      "ン"
    ],
    [
      "ブレイン・マシン・イン",
      "タ"
    ],
    [
      "ブレイン・マシン・インタ",
      "フ"
    ],
    [
      "ブレイン・マシン・インタフ",
      "ェ"
    ],
    [
      "ブレイン・マシン・インタフェ",
      "ー"
    ],
    [
      "ブレイン・マシン・インタフェー",
      "ス"
    ],
    [
      "W",
      "e"
    ],
    [
      "We",
      "b"
    ],
    [
      "Web",
      "ar"
    ],
    [
      "Webar",
      "ch"
    ],
    [
      "Webarch",
      "i"
    ],
    [
      "Webarchi",
      "v"
    ],
    [
      "Webarchiv",
      "e"
    ],
    [
      "テン",
      "プ"
    ],
    [
      "テンプ",
      "レート"
    ],
    [
      "I",
      "S"
    ],
    [
      "IS",
      "B"
    ],
    [
      "ISB",
      "N"
    ],
    [
      "マ",
      "ジ"
    ],
    [
      "マジ",
      "ック"
    ],
    [
      "ペ",
      "ー"
    ],
    [
      "ペー",
      "ジ"
    ],
    [
      "日",
      "本"
    ],
    [
      "日本",
      "語"
    ],
    [
      "リ",
      "ダ"
    ],
    [
      "リダ",
      "イ"
    ],
    [
      "リダイ",
      "レ"
    ],
    [
      "リダイレ",
      "クト"
    ],
    [
      "含",
      "む"
    ],
    [
      "202",
      "2"
    ]
  ]
}